#version: 0.2
e r
e n</w>
e n
i n
a n
e r</w>
s t
c h
t h
a r
u n
e s</w>
d e</w>
o n
r e
o s</w>
t i
o r
a l
a s</w>
d i
c i
e s
l i
th e</w>
o n</w>
s i
i n</w>
e l
a d
q u
r o
e l</w>
c h</w>
en t
i t
r a
l a</w>
i s
d er</w>
a u
a n</w>
o r</w>
a t
a b
t o</w>
u r
qu e</w>
e st
a m
e m
o m
e in
e d</w>
a s
r i
e i
a l</w>
o f</w>
e t
i s</w>
in g</w>
o l
di e</w>
a r</w>
an d</w>
t e</w>
e c
i l
s e</w>
e g
d en</w>
s ch
a c
un d</w>
d e
v er
c on
v i
l os</w>
a t</w>
m i
ó n</w>
u l
u s
l e</w>
p ar
t er
n i
e h
d o</w>
e x
p o
d er
a g
p ro
f i
a ti
t en</w>
p er
b e
w i
ci ón</w>
c om
n o
s u
un g</w>
ad o</w>
u n</w>
T h
i g
ch t</w>
n o</w>
o u
d a
t r
w h
v e</w>
l e
p re
g e
c o
h a
a h
r e</w>
z u</w>
ent e</w>
b i
i m
l as</w>
i st
l o
p e
g en</w>
l y</w>
is t</w>
f ü
d as</w>
d el</w>
c u
p u
un a</w>
er e</w>
t ra
i e</w>
v on</w>
ch en</w>
p l
f or
i c
w e
t o
en t</w>
í a</w>
s e
b er
ein e</w>
r u
s o
th at</w>
h ab
p i
ar e</w>
m a
a p
e m</w>
S t
c e</w>
a f
s t</w>
c on</w>
f or</w>
i t</w>
l o</w>
p or</w>
b e</w>
n e
o p
ti on</w>
m o
s o</w>
as s</w>
Th e</w>
t u
da d</w>
t s</w>
m an
d es</w>
d es
ar i
ni cht</w>
in g
á s</w>
i ch</w>
a ción</w>
mi t</w>
e in</w>
fü r</w>
au f</w>
e d
i m</w>
t er</w>
d ass</w>
ch e</w>
on es</w>
e v
g en
u m</w>
n u
si ch</w>
e b
w er
w as</w>
l u
ti c
h o
g e</w>
ati on</w>
it h</w>
t en
par a</w>
m u
b er</w>
s p
s in
ei t</w>
a k
A n
no t</w>
d a</w>
V er
de m</w>
al i
w ith</w>
g i
r an
s er
g u
m e</w>
2 0
d u
w or
ad a</w>
li c
li ch</w>
e ch
al l
a y
u t
e t</w>
h r
ad os</w>
g h
al s</w>
' s</w>
l eg
d en
ä n
d o
el l
m e
b o
I n
p or
di es
i er
b u
an t
p a
m ás</w>
D ie</w>
il l</w>
m er
I n</w>
s u</w>
f f
on s</w>
m in
m en</w>
b y</w>
an d
z u
b a
l a
i r
ha ve</w>
th is</w>
s en</w>
d os</w>
et z
e y</w>
in ter
g o</w>
al es</w>
o b
a ñ
v o
ro m</w>
p r
n en</w>
S ch
ec t
U n
b l
sin d</w>
g es
g an
au s
ol l
ci ones</w>
un gen</w>
h i
f rom</w>
ent o</w>
ci a</w>
A u
on e</w>
ein en</w>
c k
s on
m an</w>
w o
or es</w>
en s
ein er</w>
pre s
E l</w>
re c
at e</w>
w ill</w>
f in
e it
d ur
n a
h e</w>
er s</w>
al l</w>
E n</w>
wi r
c a</w>
wer den</w>
f u
k an
i h
re s
k e</w>
or i
s a
p ri
e u
A l
0 0</w>
m ar
an te</w>
m en
m a</w>
er i
P ro
1 9
t a</w>
th er</w>
g ra
c re
au s</w>
c o</w>
b re</w>
au ch</w>
wh ich</w>
si e</w>
c ul
am bi
sch en</w>
m on
it u
r a</w>
e p
c ar
r o</w>
o s
ah r
v er</w>
h at</w>
com o</w>
d em
b es
t ro
ou t</w>
ch t
h as</w>
f er
G es
st a</w>
B e
20 1
ul d</w>
is chen</w>
I s
ü r
w ur
un g
re g
an n
m o</w>
hab en</w>
st en</w>
er o</w>
A r
w a
m it
h a</w>
L a</w>
s el
li t
er a</w>
st r
l es</w>
w ar
t ed</w>
en d</w>
y o
un i
sch af
em p
b en</w>
h u
s on</w>
gh t</w>
fi r
er n</w>
d r
C h
á n</w>
e ar
au f
t ur
m il
l an
ac e</w>
si t
o f
j o</w>
c an
re i
m or
g o
ein em</w>
c as
ei r</w>
ou r</w>
b r
es e</w>
al ly</w>
j u
am ente</w>
a m</w>
w ei
t el
m is
U ni
z i
wi r</w>
t re
c or
é n</w>
wi e</w>
wh o</w>
th eir</w>
j e
an a</w>
t h</w>
o c
eh en</w>
Is ra
w en
s ol
qu i
m us
l ar
ag e</w>
ti en
c an</w>
z a</w>
th ey</w>
st itu
po si
op le</w>
di s
ü ber</w>
wir d</w>
i r</w>
E in
t a
ru p
est e</w>
b t</w>
s en
s h
m er</w>
is e</w>
g t</w>
d s</w>
ö n
b ar
an do</w>
ab le</w>
yo u</w>
on al</w>
l l
est a</w>
c er
al so</w>
tr an
g er</w>
d ar
be i</w>
s er</w>
S ie</w>
ä h
o h
k t</w>
ú n</w>
ö r
i d</w>
f t</w>
th ere</w>
o der</w>
g r
f o
f e
eh r</w>
ci al</w>
bu t</w>
b li
am i
W el
w e</w>
w ar</w>
v or</w>
u s</w>
pe ople</w>
on en</w>
n e</w>
h er
E s</w>
ti v
per son
nu r</w>
k om
f en</w>
su s</w>
si d
i e
g ro
f a
g l
k l
it y</w>
it s</w>
D as</w>
pu e
o tr
der n</w>
c ent
E n
D i
u m
fi c
d ad
E st
t os</w>
s om
s ag
p as
k en</w>
h is</w>
f un
E r
ung s
o d</w>
es t</w>
ch er</w>
or a</w>
mor e</w>
di c
w ere</w>
d ing</w>
b et
añ os</w>
P ar
g el
c ur
ab er</w>
R e
L os</w>
v or
in i
M ann
y a</w>
si ón</w>
m ente</w>
k ön
ant es</w>
ä r
t y</w>
li chen</w>
in a</w>
ambi én</w>
g ar</w>
no ch</w>
m ent</w>
g er
c ri
an der
y st
u ro
es s</w>
ci o</w>
ati v
M ar
s i</w>
s eg
Isra el</w>
v en
er en</w>
co un
an s</w>
s ho
m y</w>
est o</w>
er t</w>
am p
f ol
b lic
to do</w>
per o</w>
ol o
f e</w>
an t</w>
E uro
D er</w>
th ing</w>
par ti
na ch</w>
m un
m ent
h al
b le</w>
ü n
t z
t ambién</w>
st e</w>
es s
en cia</w>
b ec
am os</w>
Q u
P o
wur de</w>
t ri
so bre</w>
sa id</w>
re d</w>
mu ch
d et
w n</w>
ur e</w>
t e
in c
i a</w>
g eh
f r
eg en</w>
du c
ar y</w>
a at
M en
z ei
si on</w>
ing s</w>
as t</w>
D e
ß en</w>
p en
p e</w>
o ther</w>
be it
at ed</w>
am e</w>
pa í
e j
ay s</w>
Mann ing</w>
M ex
t or
no w</w>
li e
for m
el y</w>
c ap
T a
J ah
k s</w>
ge w
ec t</w>
da y</w>
a st
K on
o ch</w>
ad as</w>
Th is</w>
R eg
li che</w>
est á</w>
ü ber
ser v
a d</w>
me di
le v
al mente</w>
ab a</w>
é s</w>
u p</w>
t ei
re l
k en
is che</w>
ge b
d an
com p
ari os</w>
I ch</w>
w o</w>
s al
pres ent
p ol
m et
l er</w>
es co
dies e</w>
20 0
zu r</w>
we it
un ter
r en
d on
ch ti
be en</w>
N o
M on
B u
ä u
tra ba
st at
in s</w>
fü hr
f ri
ac k</w>
I t</w>
man y</w>
l us
in v
i z
g h</w>
í an</w>
ti me</w>
t es</w>
st ell
l am
em os</w>
ci on
a ciones</w>
wa y</w>
pu bli
ha d</w>
h an</w>
g un
et e</w>
si g
m al</w>
k eit</w>
g est
cu ent
c ol
bl em
ad ores</w>
P or</w>
ä hr
ver y</w>
ter n
st ri
si tu
por t
or gan
i k
con tr
c es</w>
A mer
si st
schaf t</w>
on ly</w>
n os</w>
l and</w>
kan n</w>
in ci
ic o</w>
g ran
g em
ech o</w>
d ec
ahr en</w>
P r
M a
G er
tran s
t ing</w>
t ak
se in</w>
s es</w>
s ec
r it
k on
hab e</w>
fi ci
ex p
ent es</w>
de t</w>
con t
V or
P ero</w>
y ear
wo uld</w>
ti ons</w>
sch e</w>
po li
or y</w>
ne u
n or
ig e</w>
gi bt</w>
f re
ent re</w>
el l</w>
ch te</w>
b est
G e
z um</w>
y p
ra n</w>
in f
h om
Uni ver
H o
A us
0 00</w>
ti m
r as</w>
ma y
c k</w>
ari o</w>
a z
z en</w>
yst em</w>
tic a</w>
p ul
m p
m ehr</w>
kom men</w>
k o
ent s</w>
eh r
b eg
b an
M it
wor k</w>
wh ere</w>
w s</w>
u d
t s
st ra
pue de</w>
pro t
pi el
li ch
ex ist
el d</w>
ci u
U S
us t</w>
st ar
person as</w>
on al
nu ev
h ac
ex per
b is</w>
au se</w>
ali z
a ch
P al
N or
ü s
ä l
un s</w>
un d
reg ist
re gi
in s
en ce</w>
M il
F or
v en</w>
re sp
mi ento</w>
li ke</w>
ci as</w>
b en
ad or</w>
ab out</w>
L i
year s</w>
o ci
mo st</w>
m at
l leg
i hr
h in
em an
ein es</w>
dur ch</w>
con tro
b eh
a si
ü ck
v ing</w>
tien e</w>
th an</w>
t or</w>
ra l</w>
mi lit
li g
le y</w>
l en</w>
k ing</w>
il e</w>
f ac
er ung</w>
St aat
v e
so ci
r os</w>
pr inci
olo g
min ist
kön nen</w>
est i
S p
K in
E x
' t</w>
z w
we ise</w>
ti es</w>
s pe
paí s</w>
n ec
mun do</w>
m ö
k eine</w>
in e</w>
h er</w>
f is
ev en</w>
em ber</w>
at es</w>
an ti
O r
á n
th em</w>
sag t</w>
par te</w>
ou s</w>
or t</w>
nu est
es pe
el e</w>
añ o</w>
ar on</w>
a in
a fir
Un d</w>
R o
In ter
B o
Au f
Amer ic
un der
tel esco
re ci
p h
on g</w>
m as</w>
il l
ig en</w>
est ado</w>
en s</w>
d am
an g
ac tu
a j
O b
Men schen</w>
201 1</w>
ä t</w>
wor l
we ver</w>
u di
p al
m t</w>
en d
el los</w>
dies er</w>
d in
con tra
con si
S tra
ó lo</w>
wo h
pro c
po s
ne w</w>
h e
er te</w>
er s
el t</w>
ec on
ar ti
ar o
a v
T o
C on
Bu t</w>
í as</w>
v o</w>
ti on
in to</w>
g rup
f as
eb en</w>
at ur
ar d</w>
al le</w>
a qu
a ch</w>
Ta p</w>
L as</w>
I m</w>
ö h
tr y</w>
su p
it al</w>
et s</w>
en en</w>
ati ve</w>
an y</w>
ag en</w>
B er
wen n</w>
vi r
ti emp
t an</w>
mis mo</w>
m i</w>
i d
h at
f ra
es c
de ci
dad es</w>
b ur
b ri
ati ons</w>
at er</w>
as e</w>
ar beit
an os</w>
Jah r</w>
Ges etz
v ol
si n</w>
ro u
pri v
o k</w>
mu y</w>
lo w
ih re</w>
ha y</w>
h ist
ges ch
em a</w>
eh t</w>
e dad</w>
di rec
d ía</w>
co s
al e</w>
N o</w>
H am
D es
C om
wur den</w>
wh en</w>
st i
s ólo</w>
s eine</w>
j ust</w>
h echo</w>
er on</w>
em bar
embar go</w>
e ñ
ab or
S in</w>
A b
v es</w>
traba j
st ru
s ur
res ul
mil l
hab ía</w>
g ar
en do</w>
en a</w>
W af
J ahren</w>
un ter</w>
pi o</w>
n t</w>
mi r</w>
lu gar</w>
l lev
l ei
es o</w>
el ect
dur ante</w>
den ti
consi der
c er</w>
a u</w>
M us
H er
wh at</w>
us si
t í
sid ent</w>
s ays</w>
publi c</w>
im port
e i</w>
ber g</w>
ber eit
bec ause</w>
a b</w>
T el
S e</w>
F re
tiemp o</w>
tic o</w>
t wo</w>
pro duc
pol í
ol d</w>
n ah
le m</w>
l t</w>
it co
is se</w>
i de
ha sta</w>
h ig
ent en</w>
el o</w>
e a</w>
c el
c ambi
bes ch
al re
ú blic
w ür
ver y
t ar
som e
s k
p un
im mer</w>
i do</w>
h en</w>
g eg
ff er
f al
en ti
en g
at t
an ce</w>
De ut
v ed</w>
th ese</w>
sch i
m s</w>
inv est
i or</w>
en de</w>
ein g</w>
e w</w>
di f
c os</w>
bi en</w>
all s</w>
Po li
w er</w>
u r</w>
s ch</w>
r á
pl an
ou gh</w>
o o
m üs
m os</w>
m b
li ber
l ung</w>
k ra
gl ei
fu e</w>
etz t</w>
et en</w>
en den</w>
em pl
ed och</w>
com e</w>
c lu
ami li
ah ora</w>
Univer sit
P et
P er
M i
M et
An d</w>
tiv o</w>
ti ve</w>
th o
st s</w>
s oll
pu és</w>
nec es
n er</w>
h eit</w>
g s</w>
fir st</w>
eit en</w>
e f
do es</w>
dan n</w>
d ed</w>
c ep
b re
an to</w>
ami ento</w>
a y</w>
S u
R i
G r
ur o</w>
ta in</w>
p s</w>
n te</w>
la w</w>
d at
c am
b eing</w>
al en</w>
Ges ch
y e
w al
tien en</w>
s m
n eg
m ari
lo c
j edoch</w>
it e</w>
is l
gen er
g yp
for ma</w>
e di
des de</w>
d est
cor ding</w>
contr a</w>
ci er
ch ten</w>
b il
W ir</w>
W al
Mil li
B es
B ar
A c
3 0</w>
t al</w>
su ch</w>
sho uld</w>
pu esto</w>
pro blem
on der
mus s</w>
mill ones</w>
lus o</w>
l as
k ed</w>
eu te</w>
ent os</w>
el n</w>
el ec
e very
e li
di g
di es</w>
d ung</w>
c ada</w>
an ge
ad t</w>
ab an</w>
Pr ä
In stitu
F ra
A ber</w>
y o</w>
us am
t as</w>
s ystem</w>
s ab
re st
po pul
n ati
mi ch</w>
k te</w>
h el
h ace</w>
est án</w>
er n
en cuent
em ent</w>
ej empl
cu ando</w>
aro und</w>
an g</w>
ali dad</w>
af ter</w>
a par
W e</w>
ü tz
ö ß
u e</w>
ter s</w>
ten er</w>
st ate</w>
som e</w>
pri mer
mil li
m ex
is ch</w>
hat te</w>
g ente</w>
en n</w>
em ente</w>
ein fa
de ut
d ro
b or
ar se</w>
al gun
M o
L and</w>
C ol
1 0</w>
worl d</w>
vi si
to dos</w>
t om
pro b
p a</w>
g re
g ab
g a</w>
for e</w>
f l
est s</w>
es a</w>
el s</w>
ed a</w>
e g</w>
coun try</w>
c e
b ei
au p
ad em
ab ur
Wel t</w>
Wal mar
R ak
P re
M in
K re
Euro pe
D ur
é r
ähr end</w>
z on
wi th
ver n
v a</w>
un o</w>
su b
st and</w>
sist ema</w>
po dr
o t
me j
l etz
invest ig
ier t</w>
i kan
hac er</w>
gra n</w>
eu ro
ejempl o</w>
eh men</w>
eb en
e k
de f
cul tur
com pl
ch il
ch er
Z eit</w>
1 8
ä t
ä ch
y ing</w>
w ant</w>
th er
t em
r es</w>
qu ier
par tic
or s</w>
nu m
n i</w>
müs sen</w>
ih nen</w>
i f</w>
h and
ge t</w>
ex u
espe ci
ers bur
ent ly</w>
en er
don de</w>
dies em</w>
d 's</w>
ci l</w>
bi er
b us
b st</w>
at ori
ar mas</w>
ap p
S pi
Pet ersbur
P ol
Ho wever</w>
Ch ina</w>
19 6
z er
x im
w a</w>
t el</w>
str on
sp ace</w>
po co</w>
per i
p o</w>
om e</w>
of fi
ob lig
j o
h än
ev a</w>
es pa
dies es</w>
des pués</w>
de pen
dam it</w>
d n
ander en</w>
all es</w>
ad y</w>
a di
Z u
F or</w>
0 %</w>
é x
w oll
w is
vi sta</w>
vi da</w>
ur a</w>
s ehr</w>
s ame</w>
pue den</w>
p úblic
p p
p ag
or ía</w>
o ver</w>
leg isl
ist as</w>
inc luso</w>
est udi
el le</w>
ect ed</w>
ec to</w>
ec e</w>
bes onder
as í</w>
afir ma</w>
US A</w>
N ie
ó mo</w>
zw ischen</w>
woh l</w>
we en</w>
vi ele</w>
ti k
ti do</w>
t ar</w>
se ar
schaf t
resp on
p f
num ber</w>
n ten</w>
m ei
in k</w>
hi er</w>
f ahr
et was</w>
es es</w>
ent ras</w>
econ om
din ero</w>
d re
d -
cont in
an n</w>
W as
V i
Th ey</w>
S i
R ussi
M u
H u
E U</w>
Deut sch
B eh
201 2</w>
201 0</w>
2 0</w>
19 9
1 4</w>
ur os</w>
th en</w>
t et</w>
s h</w>
s einer</w>
reg ul
re present
om in
mö g
mus t</w>
mar k
m om
l än
l at
ig er</w>
grup o</w>
fin an
f alls</w>
eg o</w>
do cu
de j
con stitu
ciu dad</w>
c al
bereit s</w>
an o</w>
alre ady</w>
abur ri
P ra
F ü
Americ an</w>
A f
2 1</w>
1 00</w>
ä f
ß e</w>
z ur
z e</w>
y si
wi chti
we ap
vo m</w>
ti k</w>
sid ente</w>
si gu
ser vi
re ter
por t</w>
po in
or ado</w>
o ff
l í
gr öß
ex t</w>
es per
en e</w>
eman ia</w>
di ce</w>
der al</w>
contro l</w>
cas o</w>
car reter
a za</w>
W o
Milli onen</w>
M os
M ari
Deutsch land</w>
B r
B il
Al emania</w>
z we
w el
t ung</w>
t -
sin o</w>
si do</w>
seg u
se a</w>
ri ght</w>
qu é</w>
p ra
otr os</w>
n ing
much o</w>
leg e</w>
k auf
j os</w>
il y</w>
i denti
ff ent
er h
ell en</w>
e qui
e or
e be
di fer
co uld</w>
c aus
bet ween</w>
ba jo</w>
b eit</w>
at en</w>
al go</w>
al a</w>
ag es</w>
ad s</w>
a ún</w>
a de</w>
Z i
Wel t
Walmar t</w>
S o</w>
S eg
R au
P S
N i
K ri
J u
Ger many</w>
En t
Ein e</w>
zwe i</w>
z ah
war en</w>
ver s
ut z
th re
t on</w>
t anto</w>
st än
st ill</w>
qu eñ
pro f
pe queñ
oh ne</w>
ni ñ
milli on</w>
mi gran
men os</w>
ma ke</w>
lo s
l in
l er
l au
it o</w>
in o</w>
in cre
hu ana</w>
gen en</w>
g et
for d</w>
fis k</w>
fi cul
f ut
es i
ent a</w>
di vi
d ra
cap ital</w>
c as</w>
b ra
ari a</w>
Y or
Uni dos</w>
Th ere</w>
Pro f
P ri
Nie to</w>
M an</w>
Jah re</w>
Est ados</w>
vir tu
tic os</w>
ti c</w>
th rou
th e
su per
sm all</w>
s ung</w>
ri l
polí tica</w>
pl ace</w>
pl ac
organ iz
oc ra
na ci
much os</w>
m ehr
k no
inter nati
in gen</w>
h im</w>
ge f
g egen</w>
er os</w>
er es</w>
ent r
ein z
eg i
ech n
ebe c</w>
d ort</w>
ch ts</w>
c y</w>
c in
ar á</w>
W enn</w>
T ei
Qu ebec</w>
Par a</w>
B an
ß en
ye ar</w>
y our</w>
wi ck
w ays</w>
ve z</w>
u c
ti onen</w>
t ado</w>
st ic
st er</w>
st and
sol u
sel bst</w>
s í</w>
s ehen</w>
re ig
ra tion</w>
r is
princi p
p on
ori a</w>
organ is
on g
o wn</w>
o per
ne t</w>
n ed</w>
mo do</w>
ma y</w>
kl är
ist an</w>
in t
ho w</w>
h ora</w>
h ing
er ra</w>
eben falls</w>
di ffer
br os</w>
b s</w>
b as
au t
at ing</w>
ain st</w>
ag ainst</w>
a ci
Un ter
St ates</w>
R u
Mex ic
H ig
E r</w>
D e</w>
Ar beit
- G
ú l
ö l
wür de</w>
w ä
w in
un der</w>
u ti
tre al</w>
stri c
st a
son dern</w>
sig ni
s em
s ei
s c
re du
por que</w>
po lic
ob je
o m</w>
n ing</w>
mu ch</w>
mon ey</w>
met ros</w>
man i
leg al</w>
inc lu
ic al</w>
hal ten</w>
go vern
g os</w>
fin den</w>
f amili
ex amp
examp le</w>
et wa</w>
et a</w>
er an</w>
emp re</w>
ec tion</w>
e -
do m</w>
d ó
d ru
d ar</w>
com pr
com i
co ur
ch es</w>
c le
bi r
b ack</w>
ar s</w>
all í</w>
a -
Y o
W ah
St adt</w>
O n</w>
Mon treal</w>
M c
H ei
Europe an</w>
B itco
y es</w>
weap ons</w>
us ed</w>
ul ar</w>
tr ä
tr es</w>
ti g</w>
ti g
str ali
st er
situ ación</w>
si dad</w>
sch on</w>
re sear
re dom</w>
pro y
pre sidente</w>
po der</w>
p ä
otr o</w>
neu e</w>
n ung</w>
n s</w>
n ada</w>
mat eri
man os</w>
m ag
li ght</w>
j un
it t</w>
in st
i en</w>
h ol
h ere</w>
ess or</w>
em pres
ec ción</w>
e vi
dem o
de be</w>
d ings</w>
con di
ci p
bl ei
ander e</w>
al g
US -
Staat en</w>
S i</w>
O x
Met eor
L u
D oll
D och</w>
' re</w>
ät te</w>
ß er
z o</w>
wh ile</w>
wei le</w>
we e
v ember</w>
uni ver
tra v
tak e</w>
su c
st ehen</w>
st aat
soll te</w>
sel f</w>
se ñ
s exu
s am
p es
mo der
may oría</w>
lo w</w>
lo b
lich keit</w>
ihr en</w>
i g</w>
h ar
g li
g ehen</w>
führ t</w>
for der
fe w</w>
f est
es en</w>
ech os</w>
dur ch
con oci
ch ar
c l
c ed</w>
c ar</w>
c a
b el
ay eva</w>
ar ly</w>
an gen</w>
am er
Yor k</w>
S a
Ox ford</w>
K om
C an
A fri
Ü ber
zei gt</w>
z eit</w>
wo od</w>
vol u
vi vi
vi ol
vi el</w>
v el
us o</w>
un ser
un que</w>
traba jo</w>
tra ta</w>
to gra
ti schen</w>
throu gh</w>
th ough</w>
th ink</w>
stell en</w>
st re
some thing</w>
si ve</w>
si mil
sch er</w>
s ens
pu blic
pre si
pre par
paí ses</w>
otr a</w>
n at
li z
li fe</w>
li dad</w>
l en
j en
ist en</w>
ist a</w>
in d</w>
ih r</w>
ih m</w>
hal b</w>
go bier
gl au
gem ein
ff en</w>
fac t</w>
f ast</w>
est as</w>
er ten</w>
ens a</w>
e z</w>
des sen</w>
den en</w>
d oll
d el
con stru
chil dr
be w
b in
am a</w>
al ten</w>
ad o
ac ti
Waf fen</w>
W or
U m
S ystem</w>
Reg ier
Mus e
M or
M er
L än
I f</w>
G ro
Ex per
Di ese</w>
Au strali
A t</w>
A l</w>
1 2</w>
ü h
ö ffent
éx ico</w>
woll en</w>
with out</w>
w ell</w>
ur s</w>
un de</w>
ti gen</w>
si s</w>
seg ún</w>
sch n
s ed</w>
re ma
pi el</w>
pe ti
p ru
p ap
op ini
ne ed</w>
milit ary</w>
m ento</w>
m as
li ve</w>
le ad
la ws</w>
l ado</w>
k er</w>
j a</w>
it ät</w>
it ed</w>
is su
ier en</w>
i es</w>
i c</w>
gu a</w>
go od</w>
gh ts</w>
ge ben</w>
g res
g ing</w>
fun cion
f il
exp lic
ex tre
er sten</w>
er rei
en or
en cias</w>
e uros</w>
de ber
da zu</w>
cu id
com par
ci vi
childr en</w>
ch an
cer tain</w>
c are</w>
b al
ati onen</w>
ar es</w>
an y
al a
ad op
ad es</w>
ac ep
ab o</w>
a po
Yo u</w>
W ie</w>
Ver fas
V ol
P ena</w>
Min ist
M éxico</w>
K an
Ham as</w>
H e</w>
G rup
C u
19 5
zei ch
y s</w>
usam men
tri es</w>
trans ac
tic al</w>
ti sche</w>
tho se</w>
t añ
st o
st ante</w>
situ ation</w>
si mp
si empre</w>
se i</w>
schi ed
sch lie
sa y</w>
s weise</w>
pro j
posi tion</w>
pi os</w>
p ho
onal d's</w>
on ces</w>
o vi
nuest ro</w>
may or</w>
l ec
it z
is en</w>
hist oria</w>
fu l</w>
for t
fol ge</w>
f am
et z</w>
est ados</w>
est aba</w>
espa cio</w>
en ing</w>
en as</w>
einfa ch</w>
e za</w>
dur ing</w>
dif ficul
cht ung</w>
ch a</w>
c án
c at
bu il
be fore</w>
am en</w>
all en</w>
al ity</w>
af f
ab ei</w>
W hat</w>
W h
V ic
St ate</w>
R ech
Pro blem
PS G</w>
P u
Meteor -
L eb
Kon tro
K i
I h
Gesch i
G eld</w>
F ri
D onald's</w>
Bar an
A k
3 4</w>
1 5</w>
wi e
w ährend</w>
ver ti
tr as</w>
ti po</w>
ti onal</w>
telesco pio</w>
st as</w>
st an
son en</w>
so gar</w>
s pre
s ing</w>
s he</w>
s ere</w>
s einen</w>
s an
rec or
re aliz
ra k
r y</w>
posi ble</w>
podr ía</w>
pl at
p ac
o -
n isse</w>
n er
n en
n a</w>
mi entras</w>
mex ic
m ar</w>
m al
lo o
li mit
li eg
kön nte</w>
ing t</w>
in du
ihr er</w>
h eute</w>
h ei
h and</w>
gran des</w>
glei ch
et er</w>
est os</w>
est ab
eri kan
en z
ec a</w>
e ve</w>
e 's</w>
di d</w>
di a</w>
coun tries</w>
ciu dad
ci ty</w>
carreter as</w>
c la
b a</w>
algun os</w>
ag u
ab ri
ab o
ab les</w>
Ver ein
U n</w>
Stra ßen</w>
Ob ama</w>
N ew</w>
Mex ik
M an
L ange
J es
J e
E in</w>
Doll ar</w>
D en
Col orado</w>
Bitco in</w>
ó mi
yst em
y ch
wei l</w>
w om
ver su
v al
tra t
tim es</w>
tic s</w>
ti l</w>
th ings</w>
th ers</w>
t ly</w>
t le</w>
t est</w>
sp r
so cial</w>
si a</w>
ser á</w>
sag te</w>
s or
s hi
ro s
ro ck
ro ads</w>
ri es
re li
ran k
r í
pro vi
priv ate</w>
pre ci
p at
o un
n om
mi em
mej or</w>
m es</w>
m eine</w>
las sen</w>
lar es</w>
l ä
l ong</w>
l ess</w>
l ast</w>
l abor
k ün
ini ci
in os</w>
ic e</w>
gu t</w>
gro ßen</w>
g ab</w>
fu er
for ma
fo reig
f en
ex pl
et te</w>
es sen
en fer
ell schaft</w>
el en</w>
ec ts</w>
ec es</w>
dif í
dies en</w>
d y</w>
cur r
cuent a</w>
ch o</w>
ch a
c ómo</w>
b ar</w>
au th
ar án</w>
ar tí
ar ea</w>
am erikan
ag t</w>
a k</w>
Was hing
W ir
Universit ät</w>
Un tern
Ta g</w>
Seg ún</w>
S piel
S en
S A</w>
Pal est
Mc Donald's</w>
M ur
M ig
M e
Lange weile</w>
Kin der</w>
K ul
Hig gs</w>
Gesetz e</w>
Con stitu
Au f</w>
Ac cording</w>
- F
ú ni
öl k
é l</w>
y -
w eg
v oll
un des
t schaft</w>
st ud
sp or
si ble</w>
sag en</w>
rá pi
regi on</w>
ra r</w>
pro v
pro hi
primer a</w>
pri mer</w>
pre gun
po bl
par t</w>
otr as</w>
os a</w>
or ity</w>
nuev a</w>
niñ os</w>
ne ed
n ú
mu j
mon tañ
mit ted</w>
mari huana</w>
ma chen</w>
li m
ju ana</w>
ist s</w>
in ten
in stitu
i o</w>
hab it
h or
h eit
gro up</w>
gobier no</w>
geh t</w>
g es</w>
f t
every thing</w>
est ar</w>
es cu
er min
em bre</w>
el la</w>
ei g
ed uc
dó lares</w>
don 't</w>
docu ment
do ch</w>
dem ás</w>
dec lar
de d
da von</w>
contra c
contin u
cht et</w>
cas os</w>
ap pe
amer ic
ali si
ala x
ac co</w>
ac c
aburri miento</w>
S tern
Prof essor</w>
Pro b
Or gan
O l
No vember</w>
N a
I t
Fre u
Est o</w>
E gyp
C i
B ür
B undes
í si
äu fi
wir k
v ía</w>
v el</w>
tr os</w>
to tal</w>
to o</w>
thre e</w>
telesco pe</w>
t un</w>
st in
sol o</w>
simil ar</w>
si de</w>
schlie ß
sch ech
s piel
s etz
s einem</w>
res ol
re ch
re alidad</w>
pre sión</w>
po ten
pes ar</w>
p el
p ad
ou t
ol e</w>
o ver
n ehmen</w>
mom ento</w>
man era</w>
m is</w>
kom mt</w>
k now</w>
is lam
im m
hom e</w>
gu age</w>
gen om
forma ción</w>
fin d</w>
f ul
f er</w>
f eh
er st</w>
ent onces</w>
ent emente</w>
em pe
em o
di jo</w>
dem ocra
dem asi
con f
civi l</w>
cas es</w>
besonder e</w>
b ro
b lo
au t</w>
ar ro
and s</w>
al ways</w>
ac cording</w>
ab u
Washing ton</w>
S in
Mex ico</w>
J ahr
I r
Geschi chte</w>
D u
C ent
B ü
B i
B et
8 0</w>
2 3</w>
19 7
ü ck</w>
än g
äh n
á c
zu folge</w>
zon a</w>
z äh
y m
y et</w>
war z
vi sit
v ent
un k
u en</w>
ti z
ter ior</w>
st ütz
sol l</w>
si cht</w>
sch ei
s eit</w>
resear ch</w>
re stric
re fer
re ally</w>
r än
r ul
pu esta</w>
pro pi
pre vi
posi ción</w>
pl ay
of ten</w>
nú mer
n is</w>
mi ti
mer c
mari juana</w>
ma j
lu z</w>
loc al</w>
ll t</w>
ll am
lan g</w>
l on
inter ac
ide a</w>
i l</w>
ho wever</w>
hig h
hab er</w>
genom men</w>
gener al</w>
exper im
euro pe
est ra</w>
ent wick
encuent ra</w>
en es</w>
el lo</w>
ein mal</w>
doll ars</w>
do wn</w>
difí cil</w>
den cia</w>
deci r</w>
cuid ados</w>
con fir
chan ge</w>
ch ang
cambi o</w>
c lo
c ant
br es</w>
ben e
bec ome</w>
b ro</w>
b itco
au di
at or</w>
al y
ag o</w>
adem ás</w>
actu al</w>
Z usammen
Universit y</w>
Un a</w>
T ra
Sp ra
S z
S el
S e
Per sonen</w>
P att
N ach
Mi lit
M ir
K ar
I '
Gro ß
G aza</w>
F o
F il
Euro pa</w>
E uro</w>
E l
Des de</w>
1 6
ä mp
zur ück
z eu
z e
wor den</w>
wh e
vo te</w>
us al
uni den
un den</w>
tu ral</w>
tor -G
tor-G ad
tor-Gad bo
to das</w>
ti ci
ter n</w>
t est
soci edad</w>
sit jen
sitjen i</w>
si tion</w>
sem ana</w>
sch ie
sch ein
s ure</w>
ril l</w>
ri ge</w>
rec ei
re al</w>
pru eb
proy ecto</w>
pro gra
pobl ación</w>
po wer</w>
po st
pl om
ph ysi
ou ght</w>
or en</w>
onal en</w>
o so</w>
o b</w>
númer o</w>
nuev o</w>
ni vel</w>
neu en</w>
n t
mi r
ma de</w>
lus s</w>
le ft</w>
le ben</w>
lan guage</w>
l le</w>
k ein</w>
j ken
is cher</w>
ing e</w>
in fr
import ant</w>
hom bre</w>
h under
ges ehen</w>
gab en</w>
fü h
foreig n</w>
for ce</w>
ff lec
fe deral</w>
f á
f li
ex tra
est rel
est ado
estado uniden
es sen</w>
er usal
emp lo
ect or</w>
e very</w>
e ach</w>
dre i</w>
di tion</w>
di g</w>
di al</w>
den berg</w>
de b
d abei</w>
cán cer</w>
con fi
con cer
cent ro</w>
cap aci
can cer</w>
bo redom</w>
bi do</w>
ativ a</w>
ar tic
an z
an ts</w>
all ed</w>
ah l</w>
a in</w>
W äh
W e
Vic tor-Gadbo
Ver k
Un ited</w>
U E</w>
Th at
Tel es
T ri
Spi jken
Sch ul
S h
Regier ung</w>
Prob lem</w>
Patt lo
P e
Mir z
M r</w>
L eben</w>
Ki rill</w>
J erusal
G u
Freu denberg</w>
F at
E sitjeni</w>
Ch in
Ar beit</w>
A s</w>
A ra
A fflec
A demás</w>
200 9</w>
z ir
y 's</w>
wee k</w>
v u
us u
un sere</w>
un os</w>
un ca</w>
tu r</w>
ter min
t l
t as
t amente</w>
t ados</w>
t ación</w>
t ab
su puesto</w>
su fici
so wie</w>
sin ce</w>
sec u
s at
rup tion</w>
ro le</w>
regi ón</w>
qu er
pun to</w>
pu t</w>
plac es</w>
pap el</w>
pa ñ
or der</w>
op s</w>
offi ce</w>
nuest ra</w>
ni chts</w>
ne ver</w>
mus e
m ul
m em
m ed</w>
li sh
letz ten</w>
len gua</w>
l agen</w>
l ag
ju d
is piel
ig ten</w>
ig h
i ci
hist ory</w>
hi elo</w>
ha cia</w>
h emos</w>
h ear
gr und</w>
ges t</w>
ger ade</w>
geg en
g lob
führ en</w>
fü n
fo und</w>
fo togra
f ía</w>
et y</w>
et ing</w>
et as</w>
esi ón</w>
es or</w>
errei chen</w>
er klär
er as</w>
en contr
em and</w>
econ ómi
e p</w>
e f</w>
du e</w>
di o</w>
det ermin
der en</w>
de z</w>
da für</w>
d on</w>
d ado</w>
cultur e</w>
cultur a</w>
cul tural</w>
cu la</w>
cu er
con segu
con duc
can di
c ra
c al</w>
bus in
bo s
bei m</w>
b st
au ran
atori o</w>
ativ os</w>
ar ía</w>
aqu í</w>
and lung</w>
an other</w>
al most</w>
acti vi
ac cep
a way</w>
a vi
a il
Victor-Gadbo is</w>
Tel esco
T ran
St a
S ou
S itu
S er
S an</w>
Qu an
Prä sident</w>
Pro je
Pal li
P lan
P ak
M ein
M edi
M ay
L ar
K amp
H I
Ger man</w>
G eg
Fü r</w>
F e
Dur ch
D ar
B oh
Australi a</w>
Au ch</w>
Ar tik
An f
Al s</w>
A stron
2 5</w>
wen iger</w>
wal t</w>
w eit</w>
w egen</w>
v it
v eces</w>
us h
ur y</w>
u se</w>
tu vo</w>
tran j
to ok</w>
tion s
tho us
th s</w>
tei l</w>
st o</w>
st eht</w>
spe ci
se e</w>
s ci
re o</w>
rak fisk</w>
r se</w>
qu ed
problem a</w>
pro vo
pl ay</w>
person a</w>
parti cip
p en</w>
p ali
on d</w>
oh n</w>
ob serv
o ur
nor mal</w>
ning ún</w>
neces ario</w>
nah men</w>
naci onal</w>
n unca</w>
n am
mo un
mo d
mex ikan
mehr ere</w>
medi o</w>
lo t</w>
lo ok</w>
lleg ar</w>
lit y</w>
lit tle</w>
le yes</w>
k ri
k re
k eiten</w>
ist án</w>
ispiel sweise</w>
ins besondere</w>
in migran
in ed</w>
im agen</w>
il om
ikan er</w>
ih n</w>
ig u
i dad</w>
hel p</w>
h im
gu erra</w>
ges am
gen d
gan z</w>
gan g</w>
g as</w>
fun den</w>
fre e</w>
fin al</w>
f ran
f on
f ar</w>
euro pä
ent z
en ough</w>
el las</w>
el ev
ei genen</w>
difficul t</w>
di ó</w>
di plom
der echos</w>
demasi ado</w>
de vel
cul o</w>
cu al
cri sis</w>
cour se</w>
cos mon
co sts</w>
ciudad anos</w>
ci do</w>
cent ral</w>
cas e</w>
can ti
c á
c au
bl ack</w>
bi t</w>
b ah
ar t
ar ch
aqu ellos</w>
ap lic
ant wor
am b
Zi el</w>
Wo che</w>
Wah l
Waf fen
W hen</w>
Univer sidad</w>
T ur
Stra ßen
Sta at</w>
Spijken isse</w>
Situ ation</w>
Rau m
Quan tico</w>
Pri v
Petersbur g</w>
Pattlo ch</w>
Organ is
N u
N eb
Muse um</w>
M e</w>
L on
K r
I de
Ges etz</w>
G ra
F ran
F amili
E sta</w>
D r</w>
Ch ri
Boh em
Bes ch
Beh ör
Be zir
B au
Al l</w>
Al l
A m
A hora</w>
ä d
á ra
zi eh
z us
yo ung</w>
vo ters</w>
vi aj
v al</w>
uti liz
un ci
um s</w>
to da
tic as</w>
ti ge</w>
th sch
thsch il
ten go</w>
t am
st on</w>
sp on
si cht
sel ves</w>
se ver
s es
s ector</w>
rock et</w>
res s</w>
re la
re as
qui ere</w>
pro du
por ted</w>
popul ar</w>
pl an</w>
pf lege</w>
per man
per f
per atur
on y</w>
olo gi
oh am
o v</w>
o us
o cu
ni eve</w>
na ch
mo vi
milit ar</w>
mei sten</w>
me ans</w>
mark et</w>
m ä
m el
ll en</w>
lieg t</w>
li k
l ar</w>
k ur
je der</w>
j etzt</w>
j ah
is ra
internati onal</w>
inf ec
in as</w>
hu man</w>
hig h</w>
ha ving</w>
gre at</w>
gh an
ges agt</w>
gab e</w>
fu era</w>
for ced</w>
fol low
fo od</w>
fi cial</w>
fal ta</w>
f ru
est im
er ste</w>
entz ler</w>
en os</w>
en der</w>
el eg
e th
e ad</w>
differ ent</w>
des e
der t</w>
der s</w>
d ent
cu los</w>
cri min
contrac ts</w>
conf lic
comp lic
co h
cle ar</w>
ci os</w>
ch s</w>
can not</w>
c lar
c amp
c alled</w>
bi bli
best eht</w>
bes t</w>
b un
b it
b in</w>
b es</w>
b an</w>
ay u
aup t
au to
au ment
ati onal</w>
ari as</w>
arbeit en</w>
ar t</w>
ar ed</w>
ar a</w>
al is
al eman
ad minist
a ve</w>
a unque</w>
W entzler</w>
W eg</w>
W as</w>
V o
Sch warz
Sch ne
S ü
S on
Ru sia</w>
Ro thschil
Re public</w>
R ol
Prä sid
P il
N A
Mur si</w>
Men sch
M oham
M it</w>
M essen
Li cht
Li ber
Leb ens
Is lam
I D
Hu b
Ham ás</w>
H ay</w>
Grup pe</w>
G eri
F r
E ast
D ro
Be i</w>
Baran ets</w>
B ri
B ra
B ev
Afri ca</w>
A vi
4 0</w>
4 00</w>
1 3
ür lich</w>
úl ti
ölk erung</w>
é n
äl t</w>
ä tz
á g
z usam
z ar</w>
wä re</w>
wei s</w>
wa ch
w ing</w>
virtu al</w>
vi ew</w>
ver schied
v il
uni dad</w>
ul arly</w>
u ps</w>
u g</w>
u do</w>
tre ten</w>
trav és</w>
to t
to da</w>
ti ert</w>
ter rit
tei l
tak en</w>
t ó</w>
t ores</w>
st u
st et</w>
st ed</w>
seg un
sch ri
ri ghts</w>
resul ta</w>
re m</w>
ra z
ra ción</w>
r ía</w>
quier a</w>
princi pio</w>
pre sident</w>
pra c
popul ation</w>
parti do</w>
p an
or dn
of rec
obje tivo</w>
no thing</w>
ne y</w>
n un</w>
n ess</w>
n ame</w>
n 't</w>
muj eres</w>
met res</w>
men udo</w>
ma cht</w>
m ó</w>
m ember</w>
m einer</w>
li es</w>
lev el</w>
k s
jun to</w>
inter es
inf lu
in depen
in dem</w>
import ante</w>
il eg
ih rem</w>
ide as</w>
i er</w>
h ätte</w>
h op
h eiten</w>
h ard</w>
gro ße</w>
govern ment</w>
gest ell
gen s</w>
g lich</w>
fün f</w>
fi ve</w>
f te</w>
f in</w>
f ahren</w>
exist e</w>
er se</w>
ent lich</w>
enor me</w>
en contra
em as</w>
el ess</w>
ein ige</w>
ect os</w>
di ri
di do</w>
devel op
der echo</w>
de fin
dar über</w>
dar an</w>
d au
cos as</w>
com peti
com er
cin co</w>
ci tiz
c tion</w>
br ingen</w>
bo ten</w>
ba j
b au
at ment</w>
arbeit er</w>
ap or
an der</w>
algun as</w>
al th</w>
al lem</w>
al ität</w>
ad amente</w>
ac u
ac o</w>
ac ciones</w>
a stron
a i
Wel tra
W ährend</w>
W il
Reg i
N ach</w>
Mus li
Mexik o</w>
Län der</w>
L ig
L ab
K ra
Isra eli
G o
G em
Fra uen</w>
For t
En de</w>
D o
Com o</w>
B eg
Artik el</w>
A d
7 %</w>
5 %</w>
3 00</w>
1 6</w>
ä ter</w>
ßer dem</w>
ze ch</w>
z ö
ystem s</w>
y le</w>
wor th</w>
wom en</w>
wie der</w>
wichti g
whe ther</w>
weit en</w>
war d</w>
ver sch
ver s</w>
ver dad
u dad</w>
trä ge</w>
tra di
toda vía</w>
tiv a</w>
ti s</w>
th ern</w>
ter m</w>
ten d</w>
t lich</w>
stat es</w>
st ar</w>
so zi
so tros</w>
sk i</w>
signi fi
si k
sho ws</w>
shi p</w>
sen schaft
se as
schließ lich</w>
sch oo
schoo l</w>
re volu
re qu
r en</w>
pu eb
pueb lo</w>
pro mis
pr ä
pos esión</w>
polic y</w>
poli tical</w>
poin t</w>
peri o
per c
parti r</w>
par ty</w>
p et
p ati
of fic
ob acco</w>
nuev as</w>
nor m
ne a</w>
n ers</w>
merc ado</w>
mar cas</w>
m uni
m ein</w>
legisl ation</w>
leg en</w>
lan g
la di
l d</w>
l ad
l ack</w>
ko p</w>
k ämp
k y</w>
k einen</w>
k au
j ur
is piel</w>
investig ación</w>
incre as
in divi
indivi du
ik tor</w>
ho y</w>
h ör
h on
gew öh
ge ther</w>
g te</w>
g or</w>
g lie
for m</w>
fi c</w>
f ísi
es p
es os</w>
er g
er er</w>
ener g
en ds</w>
elect ores</w>
ei cht</w>
echn ologi
do se</w>
der ungen</w>
der es</w>
ded or</w>
d eg
cor por
con tri
con cre
con clu
compl et
com es</w>
cas i</w>
c ru
c ame</w>
bo th</w>
blei ben</w>
ber s</w>
beg an</w>
ba stante</w>
b is
b at
b ase</w>
aut ori
auf ge
ativ pflege</w>
ati on
at ure</w>
at ur</w>
at os</w>
at ely</w>
ar lo</w>
an e</w>
am ong</w>
all er</w>
al t</w>
ak e</w>
af ect
ad v
actu ally</w>
ab l
ab hän
ab and
Wor ld</w>
Verein igten</w>
V iktor</w>
U r
Tei l</w>
T obacco</w>
St ep
St and
Ser vi
Russi an</w>
Russi a</w>
Rak fisk</w>
Poli tik</w>
Po sition</w>
Palli ativpflege</w>
P l
P ati
Or t</w>
N e
Messen ger</w>
Mer cur
M as
L eute</w>
L an
Kul tur</w>
Israeli s</w>
G ener
Fe deral</w>
F ahr
Di es</w>
D am
Ci udad</w>
C zech</w>
C reo</w>
A qu
5 0</w>
ñ o</w>
í o</w>
äl le</w>
ä stin
ä llt</w>
ß er</w>
Ä gyp
zon as</w>
z war</w>
z ul
z ep
wirk lich</w>
wir t
wh ole</w>
w ater</w>
vo ted</w>
vivi r</w>
vi elen</w>
vi e
ver a</w>
us s
ur es</w>
unter stütz
ul ayeva</w>
u d</w>
tur e</w>
trabaj adores</w>
to gether</w>
ti tu
ti eren</w>
tel evi
t yp
t ment</w>
t be
sup port</w>
suc c
stell t</w>
st adt</w>
simp le</w>
sigu i
si ones</w>
sever al</w>
se qu
schaf ten</w>
sch t</w>
sa m</w>
s os</w>
s mo
s -
ru s</w>
ri que</w>
ri ff
reli gi
reci bi
re t
r é
qu esti
pu er
prot ection</w>
pro xim
pres s</w>
pre v
pr ó
pequeñ a</w>
partic ular</w>
pali ativos</w>
p ur
p ic
p ens
ori ties</w>
ori es</w>
or din
oll y
of fici
ocu p
ob j
o thers</w>
o ir</w>
o fic
nom bre</w>
no che</w>
mög lich</w>
mu s</w>
montañ a</w>
mo v
mis sion</w>
mi gra
mi ght</w>
ma in</w>
m eses</w>
lon ger</w>
lo g
li ving</w>
li g</w>
li cher</w>
li bros</w>
legisl ación</w>
lead ers</w>
kön nten</w>
k ten</w>
k g</w>
k ers</w>
k a</w>
j e</w>
itz er</w>
is ch
inmigran tes</w>
indu stri
in nen</w>
in form
ill ed</w>
il leg
il fe</w>
identi dad</w>
hor as</w>
heit s
habit antes</w>
h ö
h aup
gu te</w>
gu ar
ges etzt</w>
gen es</w>
geh ör
geb ung</w>
g ern</w>
g eri
fá cil</w>
fut ure</w>
fr on
for mer</w>
fin det</w>
fi ed</w>
fam ily</w>
f lo
exper i
exp lo
ex ig
ev er</w>
er weise</w>
er halten</w>
encuent ran</w>
en o</w>
en da</w>
emp le
ell eicht</w>
eg a</w>
ear ly</w>
di ente</w>
den omin
dar in</w>
d ri
cu esta</w>
cos a</w>
contri bu
con serv
comi da</w>
clu b</w>
citiz ens</w>
cier to</w>
chti g</w>
ch ter</w>
blei bt</w>
bi li
beh ör
auf grund</w>
ar te</w>
ar ri
ar k</w>
ar gu
app lic
amerikan ischen</w>
all er
al em
ak tion</w>
afir mó</w>
ad dition</w>
abu l</w>
ab ier
a ir
a cht</w>
Z eit
W eb
Th ese</w>
Telesco pe</w>
T schech
T re
T er
T eh
Sz abo</w>
Rol le</w>
R igh
Problem e</w>
P h
N eu
Mit gli
Mirz ayeva</w>
L e
L a
Kin ect</w>
K o
K n
J ed
J an
Inter net</w>
Institu te</w>
H olly
H af
G eh
Fat ulayeva</w>
F lu
F all</w>
En rique</w>
East wood</w>
E ven</w>
E is
D or
Be zieh
Be ispiel</w>
Avi v</w>
Arbeit s
Anf ang</w>
Al ler
Afflec k</w>
3 3</w>
201 3</w>
200 4</w>
1 1</w>
ür z
ün st
úl tim
ó ni
ß t</w>
¿ Qu
¿ C
zur ück</w>
z o
z ent
z eit
z as</w>
y er</w>
wer s</w>
we b</w>
w är
ver kauf
ver ab
v arios</w>
v ar
un til</w>
u z
u chen</w>
tre atment</w>
tor s</w>
to ber</w>
tiv os</w>
ti gt</w>
th em
ten ga</w>
t i</w>
t ex
su m
su ici
stat t</w>
sta g</w>
st är
st im
st am
se t</w>
se en</w>
sch wi
s now</w>
s ali
ris k</w>
ri ente</w>
rei fen</w>
re qui
re cht
re ach
ra te</w>
r á</w>
r ado</w>
qui er</w>
proj ect</w>
problem as</w>
prob lem</w>
posi tive</w>
pon er</w>
polic ía</w>
plan et</w>
per son</w>
pe di
partic ularly</w>
par tí
par ece</w>
pal li
palli ative</w>
ou se</w>
on ia</w>
of t</w>
o se</w>
nuest ros</w>
ni m
need s</w>
nah me</w>
mon ths</w>
mis ma</w>
minist eri
minist er</w>
miem bros</w>
mi er
me as
m on</w>
lo gr
le ast</w>
lar ge</w>
lan ge</w>
l ö
l la</w>
kon tro
ko stet</w>
kan nt</w>
k un
k tion
k t
k m</w>
it en</w>
it 's</w>
inter pre
in n
im pres
ig os</w>
ig keit</w>
i si
hin ter</w>
hin aus</w>
hab ían</w>
h äufi
h an
gu sta</w>
glau be</w>
gi ve</w>
gestell t</w>
gen au</w>
g il
g alax
fr ente</w>
fil m</w>
fi z
fi cio</w>
f abri
eñ a</w>
exper ts</w>
ex tranj
ev es</w>
estadouniden ses</w>
estab lish
erh öh
er war
en c
emplo ye
ell er</w>
elect or
elec ciones</w>
ei st
ec en</w>
e fore</w>
dis c
difer entes</w>
di schen</w>
di gen</w>
des arro
den n</w>
den ce</w>
d ías</w>
d ol
d an</w>
curr ent</w>
cual quier</w>
cu esti
cri p
condi ciones</w>
con su
con cent
comp any</w>
cion ales</w>
cier tos</w>
ci r
ci onal</w>
cer ca</w>
caus a</w>
capaci dad</w>
c z</w>
busin ess</w>
bo o
bl es</w>
bitco ins</w>
bi eten</w>
bec ame</w>
be ispielsweise</w>
b ran
b and</w>
ay ud
at ro</w>
at o</w>
ar beit</w>
an za</w>
alre dedor</w>
alg ún</w>
aleman es</w>
al low
al er</w>
ad el
aband on
ab sur
ab solu
Z ahl</w>
Untern ehmen</w>
That cher</w>
T ory</w>
T ier
St ud
Sel bst
S tim
S t</w>
S r</w>
S k
S eit
Priv at
Pre sident</w>
Petersbur go</w>
Pe ople</w>
Palest ini
P eña</w>
Ob serv
No t</w>
N et
Mil ler</w>
Mig ran
M -
Lar ge</w>
Kri eg</w>
K ap
Jerusal em</w>
It 's</w>
I ran</w>
I mb
I m
Ho w</w>
H aupt
Ges ellschaft</w>
G el
G eb
Fü hr
Fri day</w>
For sch
Egyp ti
E s
E U
Dar über</w>
Bü cher
Bev ölkerung</w>
Be am
B en
Ar go</w>
Americ ans</w>
Aller dings</w>
A zer
7 0</w>
6 0</w>
5 00</w>
0 -
ü bri
úblic a</w>
ó g
í stic
í ni
í n
é c
än dern</w>
äch lich</w>
ä ten</w>
á u
¿Qu é</w>
zö si
zusam men</w>
zei tig</w>
z wei
z co</w>
wor king</w>
with in</w>
wer de</w>
wen dung</w>
w ell
vu el
vi sión</w>
vi eron</w>
vi embre</w>
v in
ut z</w>
ur ch</w>
u tion</w>
tur a</w>
trat amiento</w>
trabaj ar</w>
ti n</w>
th ir
th an
ten ido</w>
tem por
te i</w>
t old</w>
stat us</w>
st eh
soll ten</w>
sit z
sigu e</w>
sei s</w>
sa che</w>
s ych
s us
s ungs
s po
s cre
ros s</w>
ro om</w>
rest auran
redu ce</w>
re fu
re cuer
re ality</w>
ra ther</w>
r ussi
r or
r ad
qu ic
proc ess</w>
priv ado</w>
princi pios</w>
pr ác
pos sible</w>
pho to</w>
per miti
pal est
p ite</w>
p ed</w>
or ig
orig in
op en</w>
o w</w>
o w
o li
o fici
no viembre</w>
nim mt</w>
ne au</w>
na d</w>
n äch
n omin
n ext</w>
mä ß
mit e</w>
milit ares</w>
ment s</w>
materi al</w>
man o</w>
m á
m m
m ens
lä s
los sen</w>
lich es</w>
li ter
li eb
le in</w>
ladi mir</w>
la w
l ü
l ine</w>
kun ft</w>
ju dic
je fe</w>
inter ior</w>
int ent
in tro
ihr es</w>
ig ar
hu ge</w>
ha pp
h und
h r</w>
h ier
grup os</w>
glei ch</w>
gi ven</w>
gew is
gen ug</w>
gen e</w>
gem ä
ge führt</w>
ge funden</w>
g g
fü r
fü gt</w>
fol gen</w>
fis h</w>
finan ci
fi g
ffer ing</w>
fa v
f ung</w>
f rei
f our</w>
f all</w>
explic a</w>
exper tos</w>
estrel las</w>
especi ally</w>
escu el
ern es</w>
ep ública</w>
entwick elt</w>
ent í
en th
en i
en ces</w>
en car
em al
elec tion</w>
einz ige</w>
ein ander</w>
egi p
ech ni
ech a</w>
e ff
du bi
docu mento</w>
do c
dn 't</w>
dig ung</w>
di ci
des t</w>
deg re
deber ía</w>
dar auf</w>
d om
cur so</w>
con st
con s
coh ete</w>
ch mal</w>
ch in
canti dad</w>
c ó
c ab
bo red</w>
bo dy</w>
bl an
bibli ot
bi lidad</w>
bi g</w>
besonder s</w>
bei den</w>
bas ed</w>
ba d</w>
aus end</w>
at s
at ra
as p
artí culo</w>
artic le</w>
ar qu
apo y
anti gu
an as</w>
an al
am oun
am in
aliz ación</w>
al to</w>
ain ed</w>
ag ed</w>
ad en</w>
accep t</w>
ac ab
ab i
Wäh ler</w>
W in
W i
W ar</w>
V on</w>
Tran s
Th at</w>
Tei l
T o</w>
Step hen</w>
St u
Seit e</w>
S eit</w>
S am
Ri sik
Rech ts
Raum fahr
R os
R epública</w>
Pro t
Pro du
Pati enten</w>
Par tei</w>
P a
O k
Milit är
Mi entras</w>
Meteor- 1
Mar ken
Ma cht</w>
L es
L en
Kin d</w>
K rank
Jahr hunder
J am
In tern
Imb ong
Hub ble</w>
H in
H ier</w>
Gr und</w>
Ge f
Fra ge</w>
F ren
E so</w>
E ast</w>
D em
Con serv
Chin ese</w>
Bür ger
B ro
B lack</w>
B est
Americ a</w>
Af ter</w>
Af ghan
A s
1 1
ü hr
ú s</w>
ó r
í cula</w>
ä m
á r
á genes</w>
¿C ómo</w>
zw ungen</w>
zu g</w>
z un
z eh
y e</w>
xim o</w>
wh y</w>
weit er</w>
we isen</w>
wach sen
w rit
w ant
vi sion</w>
v ías</w>
unter gang</w>
un as</w>
u ch</w>
trabaj os</w>
to wn</w>
to p</w>
ti ó</w>
ti sh</w>
ti sch</w>
ti ative</w>
them selves</w>
ten ía</w>
tar de</w>
ta g</w>
ta d</w>
t ér
sych olog
sufici ente</w>
su chen</w>
stän dig</w>
stell ung</w>
st or
spre chen</w>
sp äter</w>
sp ec
soci ety</w>
signifi ca</w>
signi fic
sig lo</w>
si te</w>
señ ala</w>
ser ía</w>
schaf ts
sch wer</w>
sch rit
sch lim
sch le
s pi
s ou
s eman
s a</w>
rá tico</w>
rup ción</w>
rul es</w>
ro zco</w>
ro mag
ri ca</w>
ri c
rema ins</w>
rel ativ
rei che</w>
re tur
re duc
re con
ra um</w>
ra is
qu eda</w>
públic as</w>
pun kt</w>
prot ección</w>
produc ts</w>
produc tos</w>
proc eso</w>
pro mo
pro gres
pres ent</w>
pre cio</w>
polí ticos</w>
poli tici
plan eta</w>
person al</w>
perc ent</w>
pas ar</w>
pas ado</w>
parti dos</w>
pac k
pa y</w>
pa ci
p es</w>
p er</w>
p ay
ot ti</w>
ori o</w>
or t
om ou
ofic ina</w>
oc ur
nuev os</w>
no sotros</w>
neces it
nec ess
ne w
nah m</w>
n et
net work</w>
much as</w>
mo dern</w>
mit tel
mil es</w>
mi l</w>
mer k
mem bers</w>
medi os</w>
me dic
me dad</w>
lu gar
lugar es</w>
lu ego</w>
lu cha</w>
lu ch
lleg ado</w>
lich keiten</w>
li gh
li am
l l</w>
l et
l ern</w>
l ed</w>
l ater</w>
kno wn</w>
kl einen</w>
kau m</w>
k r
k es</w>
k e
k am</w>
jo ur
isra el
inter est
ing ly</w>
incre ase</w>
inclu ding</w>
im ágenes</w>
im p
im age</w>
il legal</w>
ier re</w>
ic es</w>
hom bres</w>
hin zu</w>
hi zo</w>
hi jos</w>
ha ya</w>
h ä
gra cias</w>
go ing</w>
go al</w>
gest i
ge wi
g st</w>
g im
g ed</w>
fut uro</w>
funcion arios</w>
fu eron</w>
form ul
follow ing</w>
finan cial</w>
fic os</w>
fe el
f ör
f eld</w>
ex clu
ex cep
every one</w>
etz en</w>
estudi o</w>
eri k</w>
er zäh
er forder
ent fer
ent al</w>
en z</w>
en ge</w>
en fr
en ci
employe es</w>
elect romag
ei ch</w>
ed ades</w>
e v</w>
e ci
e c</w>
di re
des halb</w>
des cri
der arti
dem u
del berg</w>
de p
de dic
dat os</w>
da ys</w>
d ür
d lich</w>
cont ac
con secu
con cep
comp et
col abor
ck en</w>
ci entí
chti ge</w>
ch ten
ch es
ch ec
ch e
ch all
cer ti
cent re</w>
cel otti</w>
cel eb
cat eg
cas a</w>
c rí
c abo</w>
buil ding</w>
bo t</w>
bibliot eca</w>
bet ei
beh ind</w>
be deut
ba i
b ol
av ard</w>
auth orities</w>
atur a</w>
at ory</w>
at ors</w>
as oci
as es
ar ab
ant a</w>
an st
allow ed</w>
aller dings</w>
al lein</w>
ak zep
ah ri
agu a</w>
ad ul
abo g
Zusammen arbeit</w>
Z entr
W ith</w>
W est
W er
V or</w>
Uni on</w>
U kra
U U</w>
Tier ra</w>
T el</w>
T ahri
T ab
Staat s
Sin ce</w>
S y
S wa
S u</w>
S ter
S pe
S ci
S atur
Ro ber
Rak ete</w>
R uss
R es
R M-
Pak istan</w>
P om
P ierre</w>
P T
Ol omou
O rozco</w>
O p
No w</w>
NA SA</w>
N K
Mit glie
Mit arbeiter</w>
Mexic an</w>
Mein ung</w>
Mari hu
Mar tin</w>
Mar tel</w>
Ma ß
Ma as</w>
M än
M ás</w>
M un
M ann</w>
M al</w>
Län dern</w>
L ö
L o</w>
L erik</w>
L e</w>
Kre b
Kra ft</w>
Kontro lle</w>
K or
K abul</w>
Jan u
Jam es</w>
Institu t</w>
Ih re</w>
Ide e</w>
I' m</w>
I s</w>
Holly wood</w>
Hei delberg</w>
HI V</w>
H öh
H ol
H an
H a
Gr ün
Gr und
Gem ein
G re
Fren ch</w>
Fil m</w>
F in
F ein</w>
F ast
Exper ten</w>
Euro pe</w>
Est e</w>
E E</w>
Du ches
Do k
Dam it</w>
D on
D a
Cu ando</w>
Chri sti
Ch eca</w>
Bri tish</w>
Behör den</w>
B ed
Azer bai
An t
An hän
An celotti</w>
Afghan istan</w>
A m</w>
200 7</w>
2 2</w>
0 er</w>
0 5</w>
- -</w>
ü her
ö he</w>
ö der
ó ven
óven es</w>
í es</w>
í amos</w>
éx ito</w>
äu fer</w>
áu tica</w>
zeich net</w>
zei gen</w>
z w</w>
z el
worl d's</w>
wor ked</w>
wo bei</w>
wis h</w>
wichtig sten</w>
weit erh
weiterh in</w>
we 're</w>
wa ve</w>
w äh
vo ting</w>
vi rus</w>
vi c
versu cht</w>
ver se</w>
ver gleich
ver gan
ur idad</w>
unser er</w>
univer sit
tran spor
tra g
tr adem
tion ed</w>
tik er</w>
thous and</w>
th ro
tex to</w>
ten emos</w>
tem peratur
tak es</w>
tab aco</w>
t in
t ext</w>
t ests</w>
su me</w>
su g
su fri
str y</w>
str eng
st ran
st i</w>
so ur
so li
si x</w>
si v
si ti
si r
si cher</w>
si c</w>
sexu al</w>
ses sion</w>
ser ie</w>
sen tido</w>
sec ond</w>
sci enti
schein t</w>
schaft lichen</w>
sch ul
sab en</w>
s ent
s as</w>
rápi da</w>
rou ght</w>
riff t</w>
rei ch
re uni
re cht</w>
r on
qui én</w>
públic a</w>
prueb as</w>
pro chen</w>
princip al</w>
pr on
pr is
poli tik</w>
pas t</w>
par ts</w>
pal ab
pag ar</w>
pad re</w>
p os</w>
p h</w>
p esc
ous ly</w>
or g
op f</w>
on stra
on ce</w>
offi zi
o ba
ning una</w>
n olog
n ern</w>
n eh
mö chten</w>
much a</w>
moun tain</w>
miem bro</w>
met ro</w>
men cion
me an</w>
mar ca</w>
mani fest
maj ority</w>
m ely</w>
m einen</w>
lí nea</w>
loo king</w>
lie fer
le d
le b
le ad</w>
la un
l las</w>
l and
l ab
kra ti
k ung</w>
k tionen</w>
ju sti
j óvenes</w>
j emand</w>
j an</w>
it z</w>
issu e</w>
is h</w>
ins ur
ing ungen</w>
indu stry</w>
in zi
in ly</w>
in dic
im it
im e</w>
il o
igar et
ie ve</w>
ho urs</w>
hi li
her aus
he ad</w>
hab lar</w>
gro ups</w>
gleich zeitig</w>
gi p
gi g</w>
gewöh n
gew innen</w>
ges ellschaft</w>
gen ann
gegen über</w>
geg angen</w>
ge zwungen</w>
ge zeigt</w>
führ ung</w>
fun ktion
ful ly</w>
fra ge</w>
for ward</w>
fa ther</w>
f ten</w>
f lu
ex terior</w>
ex pres
ex pen
ev ol
ev ening</w>
europä ischen</w>
esti val</w>
est aban</w>
escuel a</w>
eri or</w>
equi po</w>
ent re
enfer medad</w>
encontra r</w>
en er</w>
empres a</w>
em ents</w>
el ek
eh er</w>
eh emal
eg el</w>
econom ic</w>
ec u
ec nolog
e qu
e as</w>
dru g</w>
dr ück
do ing</w>
disc us
direc ción</w>
difer encia</w>
dic t
di st
di n</w>
di men
di co</w>
det en</w>
des ig
der zeit</w>
dem os</w>
def ensa</w>
de ben</w>
dad urch</w>
d or
d one</w>
cur ren
cu anto</w>
cu al</w>
consider ed</w>
cons ul
condi tions</w>
co w</w>
clo se</w>
clar o</w>
ci to</w>
ci r</w>
ci gar
ci endo</w>
ch ic
carreter a</w>
car d</w>
cambi os</w>
cam ino</w>
c ú</w>
c m</w>
c li
bo ok</w>
bir th</w>
bil li
bil d
bi lity</w>
bet ter</w>
best imm
bes ser
beh and
beg in
be lie
b ür
b zw</w>
b rought</w>
b le
b el</w>
ayud ar</w>
ayu da</w>
ay er</w>
ay a</w>
ati c</w>
as soci
as sen</w>
as h
as eg
artí culos</w>
arti sts</w>
ar ily</w>
an terior</w>
an ci
al t
al k</w>
al can
ad ol
ach ieve</w>
ac coun
ab ly</w>
Z u</w>
Welt untergang</w>
Web se
Was ser</w>
W ähr
W ar
Vol k</w>
Vi ele</w>
Verfas sung</w>
Untern eh
U m</w>
Tur k
To ur
Th er
Teles kop</w>
T ony</w>
T en
T aly
Stud enten</w>
Staat es</w>
St re
St ad
Spra che</w>
Sp itzer</w>
Sou thern</w>
S ome</w>
S om
S ab
S T
Russ land</w>
Re publi
R ei
Prot este</w>
Proje kt</w>
Par tei
Pal ästin
Organis ation</w>
O riente</w>
O ne</w>
Nu eva</w>
Mun dial</w>
Mos cú</w>
Mos cow</w>
Mensch en
Marihu an
Mari huana</w>
Lon don</w>
L eg
L and
K ö
K un
K u
Institu to</w>
Imbong i</w>
ID A</w>
H ere</w>
H and
H ab
H a</w>
Ges und
Ger man
G al
G ad
Fast -F
Fast-F oo
F rom</w>
F ir
F ern
Exper im
Euro pä
Er geb
En gli
E gip
Dur ante</w>
Duches neau</w>
Di eses</w>
Den ver</w>
D enn</w>
D ec
Cent ral</w>
C or
C on</w>
Beh andlung</w>
Au ßen
Arbeit en</w>
Anhän ger</w>
An gel
An der
Amer ikaner</w>
Al ter</w>
A unque</w>
A t
3 6</w>
3 %</w>
20 0</w>
č k
úni co</w>
últim os</w>
ör per
é po
épo ca</w>
äm lich</w>
äh rige</w>
äf te</w>
á b
Ägyp ten</w>
¿ Cu
z in
z ent</w>
y ou
y os</w>
wür den</w>
wis senschaft
wer k
wen ig</w>
wel t
wel che</w>
wee ks</w>
want ed</w>
w r
w il
w ander
visi t</w>
vie ws</w>
vi elleicht</w>
vergan genen</w>
verab schie
ver stän
ver si
ver di
v ari
v ali
ut ter</w>
ur ban
unser en</w>
ul man
u ción</w>
tu d</w>
tu al</w>
tri bun
tran sit
tradem ark</w>
tra gen</w>
tr itt</w>
tot almente</w>
tig keit</w>
ti al</w>
th ri
th in</w>
ter e</w>
ten tion</w>
ten i
ta ins</w>
t esti
t es
t ation</w>
t ales</w>
sup ported</w>
su r</w>
stat t
star t</w>
star k</w>
stand ing</w>
stand ar
st um
st op
st ec
spiel en</w>
some one</w>
solu ción</w>
so wohl</w>
sist emas</w>
simp ly</w>
sig n
sicht lich</w>
si on
si m
si eht</w>
setz ung</w>
sel ben</w>
schn ell</w>
sch wer
sal arios</w>
s ing
s able</w>
ru m</w>
ro pa</w>
ro ad</w>
ries go</w>
ri ffen</w>
ri d</w>
resul tado</w>
res se</w>
rela ciones</w>
rel ación</w>
regist ri
regist ration</w>
realiz ar</w>
re f
re co
raz ón</w>
r ás</w>
quic k
qui z
qu es</w>
públic o</w>
pu estas</w>
prueb a</w>
proy ectos</w>
prohi bi
prof es
pro visi
primer os</w>
prac ti
pr o</w>
pr ensa</w>
po t
po st</w>
pl az
pesc ado</w>
pel ícula</w>
pati ents</w>
pa ar</w>
p in
p ar</w>
os exu
organ isi
or igen</w>
opini on</w>
offici als</w>
offi cial</w>
of f</w>
ob wohl</w>
ob tener</w>
ob stante</w>
o la</w>
o l</w>
o ficial</w>
ni ght</w>
ni e</w>
neg oci
na die</w>
na cionales</w>
n on
n ei
mun dial</w>
mu estra</w>
mov ement</w>
mod elo</w>
mo str
migra ción</w>
mi sión</w>
mexikan ische</w>
mej ores</w>
materi a</w>
mar kt</w>
man dat
man chmal</w>
maj or</w>
ma ñ
ma king</w>
m é
llev a</w>
lleg a</w>
lit os</w>
lik ely</w>
lich erweise</w>
li čk
li ves</w>
li er</w>
lei ch
lau t</w>
lar gest</w>
lan z
la g</w>
l te</w>
l s</w>
l ong
l ing</w>
kün f
kontro l
kauf en</w>
k ind</w>
k ehr
k au</w>
judic aciones</w>
ju ego</w>
je den</w>
it self</w>
is h
ir gend
investig adores</w>
inv ol
inv it
inter ests</w>
ini a</w>
in ing</w>
in formación</w>
im pl
ileg ales</w>
igu al</w>
him self</w>
hig her</w>
hi jo</w>
her r
he alth</w>
haup t</w>
hat ten</w>
ha m</w>
ha ft</w>
h ält</w>
h in</w>
h eu
h eld</w>
h ang</w>
go ber
gl ätte</w>
gil t</w>
gew esen</w>
ger ing
gen eh
gen d</w>
geg eben</w>
geb ra
ge ordn
g ri
g ol
ful l</w>
fran c
fotogra fía</w>
for me</w>
fi eld</w>
fi co</w>
fi a</w>
fabri c
fa il
f ällt</w>
f est</w>
ex c
ev it
ev ed</w>
et es</w>
est u
est ran</w>
est amos</w>
especi almente</w>
es as</w>
erforder lich</w>
er to</w>
er o
er le
er ken
er inn
entfer nt</w>
ent u
ent ed</w>
ens es</w>
en igen</w>
empres as</w>
em er
ell s</w>
elector al</w>
el ten</w>
el se</w>
el li
eig entlich</w>
educ ation</w>
ec er</w>
dru ck
dr á</w>
di á
di ez</w>
di en
di ej
deut sche</w>
des cu
demo kra
def en
de par
de litos</w>
de li
dat a</w>
d ungen</w>
d ly</w>
d ent</w>
cá mar
cul p
cul as</w>
cu s</w>
cre e</w>
contra tos</w>
con vir
con ciertos</w>
com un
com mun
com bin
com b
ciu dades</w>
chil d</w>
chang es</w>
ch os</w>
ch ed</w>
certi fic
cent ury</w>
candi d
camp o</w>
c oll
c alidad</w>
bu enos</w>
bu ena</w>
br ing</w>
br ary</w>
br and</w>
bor n</w>
bo x</w>
bet rifft</w>
best en</w>
behör de</w>
beg ann</w>
bedeut et</w>
autori dades</w>
au tics</w>
ativ o</w>
ati v</w>
at us</w>
at t</w>
at en
at a</w>
ases in
as se</w>
as s
as ked</w>
as k</w>
ari es</w>
arbeit et</w>
applic ation</w>
ant ly</w>
an s
an cia</w>
an -
aliz ado</w>
al titu
ak tionen</w>
aj e</w>
air o</w>
ah en</w>
ag ement</w>
ad judicaciones</w>
ac us
ac tiv
ac ross</w>
ac o
ac ción</w>
a ins</w>
a h</w>
a g</w>
Zentr al
Z igaret
Wh ile</w>
Weltra um
Welt kri
We ise</w>
W oh
W et
Ver tei
V ir
V ier
Uni ón</w>
Ukra ine</w>
Tschech ien</w>
Th en</w>
Teles k
Tab ak
T em
T ambién</w>
Su per
St äd
St unden</w>
St udi
S oci
S ep
S al
S IDA</w>
Rothschil ds</w>
Risik o</w>
Ri chtung</w>
Re cht</w>
R ück
Präsid enten</w>
Pr ü
Plan eten</w>
PT A</w>
P R
Olomou c</w>
O n
Ni cht</w>
Mos kau</w>
Moham med</w>
Minist eri
Met ern</w>
Mer k
Me er</w>
Maß nahmen</w>
M ö
M y</w>
M is
Lig ue</w>
Lan des</w>
L it
L ie
L age</w>
K ur
K ol
Jed ličk
J un
Isra el
Ir án</w>
Inter ior</w>
In nen
In di
I ni
H and</w>
H al
Gesetz es</w>
G ed
Fast-Foo d-
F öder
F i
Ent wick
Eis glätte</w>
Ein f
Egypti an</w>
Egyp t</w>
Egip to</w>
EU -
Dok um
D ru
D inge</w>
D emo
C ity</w>
C ha
C T
Bür ger</w>
Bohem i
Bo redom</w>
B and</w>
B al
Auf gabe</w>
Ara b</w>
Aqu í</w>
An wendung</w>
An n
A sí</w>
A n</w>
9 7</w>
4 8</w>
3 7</w>
20 00</w>
- S
ür k
übri gens</w>
über zeu
úni ca</w>
últi mo</w>
ör t
öffent lichen</w>
ó p
é is</w>
ät ten</w>
ähr t</w>
äh r</w>
ä gyp
zah len</w>
z ü
z y
z weiten</w>
z os</w>
z ei</w>
y ó</w>
y on</w>
y att</w>
wur f</w>
wor ks</w>
woh ner</w>
wh ose</w>
wen det</w>
war ds</w>
wa it</w>
w w</w>
w ww</w>
w led
w ise</w>
w in</w>
w at
w ah
volu men</w>
viol encia</w>
viol ence</w>
vi erte</w>
verabschie det</w>
ver folgen</w>
ver boten</w>
ven ción</w>
v is
v ill
ut or</w>
ut es</w>
us ing</w>
us es</w>
unterstütz t</w>
uni dades</w>
un ser</w>
ul o</w>
u ega</w>
u cht</w>
tér min
tz dem</w>
tra s
tr u
to b
tien das</w>
thir d</w>
ther efore</w>
th ought</w>
ter ror
ter ren
ter ms</w>
ten de</w>
televi sión</w>
tel es
t ä
t wen
t em</w>
t eg
t ecnolog
t ag
t ac
sur ro
suc ce
sub j
su m</w>
stud ent</w>
stra r</w>
sti g</w>
ster ben</w>
staat en</w>
st ly</w>
st ico</w>
spe cial</w>
sp ri
some times</w>
soci ales</w>
so y</w>
so ft</w>
situ ada</w>
sit es</w>
sin dic
sigui ente</w>
sigu en</w>
sig keit</w>
si ons</w>
si onen</w>
si endo</w>
sho w</w>
sh or
setz en</w>
sen ti
seman as</w>
sec re
se chs</w>
sch ütz
sch w
sch l
sam m
sal v
sal e</w>
s ystems</w>
s m</w>
s ac
ru m
ru g</w>
ru b
ro de
ro b
ril le</w>
ri f
respon sab
resp ect</w>
regist ro</w>
regist r
regist er</w>
regi onal</w>
reci én</w>
recei ved</w>
rec re
reas on</w>
re ti
re almente</w>
re -
r us
r ador</w>
quier das</w>
quick ly</w>
qu il
qu ali
pun tos</w>
proxim adamente</w>
provo c
propi a</w>
proj ects</w>
progra m
proc e
problem s</w>
pro ved</w>
presi on
pres sure</w>
pregun ta</w>
preci s
pre dic
pre cher</w>
pos session</w>
por ta
plaz o</w>
peri od</w>
perf ect
partí culas</w>
parti es</w>
palest inos</w>
pad res</w>
paci entes</w>
pa in</w>
pa ig
p ist
os os</w>
os mon
os la
osla v</w>
os cur
ori r</w>
organis ed</w>
or den</w>
or den
op ort
on a</w>
ol f
ofrec en</w>
ofici ales</w>
off er</w>
oc cu
o d
näch sten</w>
no un
neg ro</w>
nat ürlich</w>
n ämlich</w>
n es</w>
n de</w>
n art
nart z</w>
mus ulman
movi miento</w>
mo tivo</w>
mo sp
mit te
minist ro</w>
min dest</w>
mi li
mi ca</w>
mexic anos</w>
merk sam
ment ed</w>
mei ster</w>
medi das</w>
medi a</w>
mañ ana</w>
may ores</w>
man i</w>
ma kes</w>
m ú
m í</w>
m ol
m ad
lí deres</w>
loc ales</w>
ll er</w>
limit ed</w>
lie u</w>
li sten</w>
li eren</w>
li egen</w>
li bro</w>
lei sten</w>
le dig
ledig lich</w>
le ar
la y</w>
l ungen</w>
l lo</w>
kün st
kämp fen</w>
kno wled
kl ein
k ul
k ap
ju g
iz quierdas</w>
iz at</w>
it ten</w>
it el</w>
israel íes</w>
is se
ir on
internati onalen</w>
interest ing</w>
inter nacional</w>
inter est</w>
inter eses</w>
ins crip
infec ciones</w>
inf l
industri a</w>
in stru
in es</w>
im pac
im es</w>
ik i
ig o</w>
ier ten</w>
ic y</w>
ic s</w>
ic ro
ic ally</w>
häufi g</w>
hu man
hop e</w>
hei ßt</w>
hac er
hab itu
ha ps</w>
gu e</w>
größ ten</w>
gro ßer</w>
gro und</w>
gra m
gober n
glob al</w>
gi ving</w>
gesam t</w>
ges etz
gemä ß</w>
gemein sam</w>
gehör t</w>
geh alten</w>
gef ähr</w>
gar et</w>
gar de</w>
gan ar</w>
g inia</w>
g af
gaf as</w>
fun di
fuer za</w>
fu ego</w>
fri ends</w>
fri ca</w>
fort able</w>
form s</w>
for t</w>
fol gen
fi ght</w>
fer n</w>
fe ktionen</w>
fav our</w>
fac tur
fa vor</w>
f y</w>
f ar
f ace</w>
expl ains</w>
expen sive</w>
exp ected</w>
exist ence</w>
exist en</w>
ex ten
ex amin
ev ents</w>
etz wer
eth eless</w>
et os</w>
estudi antes</w>
est ric
est en</w>
ess ing</w>
espe jo</w>
espa cial</w>
es n't</w>
es area</w>
ers ön
erklär t</w>
er fol
er do</w>
ens ke</w>
end ed</w>
en us</w>
en ag
emple ados</w>
empe z
em s</w>
em als</w>
el o
einz el
ein igen</w>
ein gesch
ei ght</w>
ehr s
eg e</w>
eff ect</w>
ect ores</w>
económi cos</w>
econom ía</w>
econom y</w>
echnologi es</w>
eb o
e b</w>
dür fen</w>
dru ck</w>
do esn't</w>
diá metro</w>
dis ci
disci pl
direc tor</w>
diej enigen</w>
di señ
di eren</w>
di am
diam eter</w>
deut schen</w>
det rás</w>
des pite</w>
dent ro</w>
demo str
dem onstra
dar k</w>
d u</w>
d get</w>
curr ently</w>
cuesti ón</w>
cu yo</w>
cu atro</w>
crimin al</w>
cosmon au
cor ruption</w>
cor rupción</w>
cor o</w>
convir tió</w>
consegu ir</w>
concer ts</w>
con verti
con ver
con ven
compl ete</w>
competi tion</w>
co m</w>
cla im
ch ine</w>
ch en
car se</w>
car e
cam pañ
cam paig
c z
c las
c ause</w>
buil t</w>
bil d</w>
bi et
bet ra
best ä
besch äf
bes ser</w>
bene fici
belie ve</w>
beh aup
be kannt</w>
be findet</w>
be ein
bar en</w>
ban k</w>
bal t</w>
b ul
b are</w>
avi t</w>
audi t</w>
au lieu</w>
ats ächlich</w>
ati s
at ri
at h</w>
as ser
as ed</w>
ari amente</w>
ar ma</w>
ar emos</w>
ar eas</w>
ar den</w>
ar d
apo yo</w>
ap er</w>
any ah
anyah u</w>
ann ab
an zu
an ter
an noun
an im
an gesehen</w>
an f
an da</w>
amp li
amerikan ische</w>
americ ano</w>
ambi ente</w>
am igos</w>
ali for
al im
al i</w>
ak s</w>
ag ri
adel ante</w>
ad rid</w>
ad ley</w>
ac tion</w>
ac ter
a ir</w>
Zu kunft</w>
Y ou
Wo chen</w>
Win y</w>
Weltkri eg</w>
Wah len</w>
Waf fe</w>
W yatt</w>
W iki
W er</w>
W ahr
W a
Vo ices</w>
Vir ginia</w>
Verk ehrs
V ladimir</w>
V enus</w>
V alle</w>
V R
VR D
VRD V</w>
Tahri r</w>
T ro
T or
T ext</w>
T est</w>
T e
T at</w>
Stern en
Stand ard</w>
Si cher
Sch wi
Sch wer
Sa is
Sa eda</w>
S ych
S per
S ol
Reg ist
Rau m</w>
R oll
Pu ma</w>
Privat kap
Pil sen</w>
Per son</w>
Par dubi
P itt</w>
P ho
P f
P ersön
Ol vera</w>
Ob wohl</w>
O sten</w>
O ates</w>
O D
OD S</w>
Nor uega</w>
No izat</w>
Net anyahu</w>
Mö g
Musli m</w>
Mu bar
Mitglie der</w>
Milit ä
Migran ten</w>
Mexic ans</w>
Mexic an-
Mari ana</w>
Mar garet</w>
M icro
M any</w>
M ak
M adrid</w>
M VRDV</w>
M O</w>
Len nartz</w>
L yon</w>
L eit
L ei
Kre bs</w>
Kon z
K l
K at
Je wish</w>
I /
Ham as
H avard</w>
H aus</w>
H ace</w>
Gu erra</w>
Grup pen</w>
Gesund heits
German s</w>
Ge walt</w>
Gal il
Gad om
G ren
G oo
G az
Fra u</w>
For scher</w>
F älle</w>
F ol
F l
F enske</w>
En tr
Ein zel
Dru ck</w>
Deut schen</w>
Des pués</w>
D er
D aten</w>
Com pu
Col lege</w>
Christi ane</w>
Can adi
CT MO</w>
Bra vo</w>
Br us
Br adley</w>
Bil d
Ben utz
Be aulieu</w>
Baran ez</w>
Ban k</w>
B ru
B rille</w>
B ran
B os
B eri
B en</w>
B B
Aus sch
Au ßerdem</w>
Ar me
Ar mani</w>
Ann ette</w>
An dr
Al -
A ston</w>
A ri
8 8</w>
7 00</w>
4 0%</w>
3 5</w>
201 4</w>
200 8</w>
200 6</w>
200 1</w>
2 6</w>
199 4</w>
196 2</w>
195 9</w>
16 8</w>
1 9</w>
1 8</w>
1 4
0 0-
Š tern
über haupt</w>
ú a</w>
ó metros</w>
ér cito</w>
é tica</w>
é rica</w>
än gen</w>
ähn liche</w>
äh lt</w>
ára bes</w>
ára be</w>
Ú st
Úst í</w>
Ö ffent
¿ qué</w>
zus etzen</w>
zu stellen</w>
zu mindest</w>
zo gen</w>
zi g</w>
zi ehen</w>
zei chen</w>
z t</w>
z iert</w>
yp hili
y ers</w>
y en</w>
y ed</w>
wis sen</w>
wie der
wh om</w>
welt weit</w>
weit ere</w>
wei ß</w>
wei gh
we ist</w>
we der</w>
war ten</w>
wa it
w äl
w it
w ent</w>
w ahr
w ages</w>
vor her
vor bereit
vo z</w>
vill age</w>
vil es</w>
vi ve</w>
vi gor</w>
vi er</w>
vi ene</w>
versu chen</w>
verstän dlich</w>
ver wal
ver i
ver fü
ver ein
ver ed</w>
var c</w>
v í
v ity</w>
v enta</w>
ush k
us er</w>
ur t</w>
ur s
ung sh
un gefähr</w>
u sted</w>
u ral</w>
u factur
tu m
tre ated</w>
transit ables</w>
tra de</w>
tr ying</w>
tob acco</w>
to ur
ti v</w>
thous ands</w>
th al
territ orio</w>
terren o</w>
teil weise</w>
tei lt</w>
tbe wer
tas a</w>
tam poco</w>
t z</w>
t ter
t t
t schech
t echnologies</w>
t ant
t alk</w>
t ada</w>
subj ect</w>
su ffering</w>
su f
su ch
stud ents</w>
stre ets</w>
stell er</w>
steh enden</w>
star s</w>
stan den</w>
st ör
st yle</w>
st ol
st es</w>
spri cht</w>
som os</w>
sol che</w>
so bre
so -
so- called</w>
si quiera</w>
si les</w>
si chten</w>
si ca</w>
si c
si bility</w>
sh ed</w>
servi cios</w>
servi cio</w>
servi ce</w>
ser i
sens or</w>
sel l</w>
segun do</w>
seg uridad</w>
sec ut
se its</w>
se em</w>
schn itt</w>
schi ed</w>
sch u
sal ario</w>
sab e</w>
s ön
s mo</w>
s le
s '</w>
ré gim
régim en</w>
ro r</w>
ro man
ries gos</w>
ri chtige</w>
ri ch</w>
revolu tion</w>
revolu ción</w>
resul tados</w>
rest o</w>
resol ución</w>
res pe
rema in</w>
rel ations</w>
rei cht</w>
rei bt</w>
regist er
reg ar
redu cir</w>
recibi r</w>
reci b
rec ent</w>
reach ed</w>
re st</w>
re public
re par
re p
re fi
re conoci
re com
re chte</w>
re ach</w>
re a</w>
ra tions
r itu
qui en</w>
questi on</w>
public an</w>
provi de</w>
prov in
progra ma</w>
produc tion</w>
produc ción</w>
proc ed
prob able</w>
pro por
pro me
pro fundi
princip le</w>
princip ales</w>
pri l</w>
previ ous</w>
presi den
present ar</w>
pra k
pp er</w>
pp ed</w>
poten tial</w>
pos ed</w>
politici ans</w>
poli tics</w>
poli ce</w>
podr ían</w>
po demos</w>
pl er</w>
pl ant
pi ece</w>
per sön
pequeñ o</w>
pas a</w>
par tes</w>
par ents</w>
pa id</w>
p ág
p eso</w>
p as</w>
ovi c</w>
out side</w>
our n
os as</w>
origin al</w>
organis ation</w>
or dan
opini ones</w>
op position</w>
op port
olog y</w>
ol er
offic ers</w>
oc k</w>
oblig atori
obje to</w>
o posición</w>
o ce</w>
nt nisse</w>
no w
ni emand</w>
ni ed
ner stag</w>
need ed</w>
ne ar</w>
n is
n as</w>
mö chte</w>
mor ning</w>
mon th</w>
mon g</w>
mon eda</w>
mo stly</w>
mo di
mo da</w>
mitte e</w>
mit tel</w>
mit einander</w>
mir ror</w>
migran t</w>
mier minister</w>
mi entos</w>
mi d
mexic an
mexican o-
medic al</w>
medi zin
medi da</w>
me eting</w>
mb lay</w>
mat ter</w>
mark eting</w>
m ur
m orir</w>
m es
m einem</w>
m edades</w>
m ac
läs st</w>
län gst</w>
loc ated</w>
lo st</w>
llev ó</w>
llam ado</w>
lit es</w>
lie ßen</w>
liber ales</w>
liber al</w>
li ert</w>
li ed</w>
li der
letz te</w>
leg i
le ave</w>
lar go</w>
lam ento</w>
la v
l äufi
l äu
l auf</w>
l ands</w>
krati e</w>
kon serv
kan nten</w>
kan di
kan adi
k illed</w>
k il
ju eves</w>
jo y</w>
jo ven</w>
je de</w>
j ü
issu ed</w>
islam istas</w>
investig aciones</w>
inter ess
ing 's</w>
infr ared</w>
in tel
in o
in di
import antes</w>
im mt</w>
im ages</w>
il o</w>
ig ung</w>
ic a</w>
i lidad</w>
i ba</w>
hund red</w>
ho l</w>
high way</w>
hel fen</w>
hand elt</w>
hal f</w>
hac en</w>
ha ciendo</w>
h ouse</w>
h old</w>
h is
h es</w>
gu ien</w>
gu i
größ ere</w>
gr á
glau bt</w>
gl as
glas ses</w>
gh ter</w>
gew ählt</w>
gesch lossen</w>
ges ell
gem acht</w>
gel der</w>
gel ang
gelang wei
geh ei
geh ab
gehab t</w>
ge kommen</w>
g ung</w>
g on
g ast
g a
fran zösi
form ado</w>
fi t</w>
fi k
fe el</w>
fahr bar</w>
f ro
f light</w>
f es</w>
f -
extre mely</w>
extra ordin
exp ect</w>
ex i
ex change</w>
ex ac
evol ution</w>
europe os</w>
eu r</w>
etzwer k</w>
et er
estudi os</w>
estrel la</w>
est er
esper a</w>
escu ch
es cri
erwar tet</w>
er án</w>
er ungs
er in</w>
entr ada</w>
ent schei
ens er</w>
ens ch</w>
enfer medades</w>
ell ing</w>
elec tions</w>
el te</w>
ei gene</w>
ei en</w>
ef ecto</w>
eb ru
e den</w>
dur as</w>
dur a</w>
document s</w>
dis par
dimen si
di spon
di ficul
di eron</w>
di dn't</w>
develop ed</w>
deut lich</w>
det en
det e</w>
der ung</w>
den ken</w>
dem and
degre e</w>
ded ores</w>
declar ación</w>
de di
de bido</w>
dar f</w>
d omin
d le</w>
cur i
cuent an</w>
cre ci
cre ate</w>
cour t</w>
cor rec
contro les</w>
constru ction</w>
constitu ción</w>
con n
con fer
con ect
complet ely</w>
comp rar</w>
comp an
com pu
colabor ación</w>
col egi
co ver</w>
co p
ck s</w>
ci dent
ci ales</w>
chti gt</w>
chin es
chang ed</w>
ch o
ch ers</w>
categ oría</w>
cal cul
c ro
c ou
c olo
c ción</w>
c amente</w>
c alles</w>
c ali
bre chen</w>
br ingt</w>
bos ón</w>
boo ks</w>
bo son</w>
bit a</w>
biet et</w>
bew us
bew egen</w>
bar ely</w>
b ung</w>
b ill
b ig
b ed</w>
au mento</w>
att emp
at ürlich</w>
at z</w>
astron om
artic les</w>
arti ficial</w>
arab ischen</w>
ap enas</w>
ander es</w>
anci ent</w>
an on
an geneh
ami c</w>
americ anos</w>
alifor ni
alg una</w>
alem ana</w>
al one</w>
al guien</w>
al co
al cal
ak tu
ail s</w>
ai re</w>
ag re
ag ing</w>
ad d
acu erdo</w>
actu almente</w>
acep tar</w>
ac tor</w>
ac tions</w>
abog ado</w>
abl emente</w>
abhän gig</w>
ab sol
a w
a vo
a ver
a proximadamente</w>
Zusammen hang</w>
Y o</w>
X box</w>
Wir tschaft</w>
Wir t
Wet tbewer
W ort</w>
W is
W ei
Ver tre
Ver ha
V ater</w>
V al
V -
Un ter</w>
Tre mblay</w>
Th urs
T ä
T u
T ras</w>
T itel</w>
T ests</w>
T ausend</w>
T at
Sü den</w>
Stra ße</w>
Spra ch
Si cht</w>
Servi cio</w>
Sch utz</w>
Sch n
Sch mer
Rothschil d</w>
Ros balt</w>
Ri ch
Republi k</w>
Regist ri
Re publican</w>
Re alität</w>
R evolution</w>
R em
Präsid ent
Prof esor</w>
Pro zent</w>
Pro gram
Pre mierminister</w>
Pr inzi
Poli zei</w>
Poli sh</w>
Ph ysi
Petersbur ger</w>
Partei en</w>
Pardubi ce</w>
Palästin enser</w>
Palestini ans</w>
PR I</w>
P sycholog
Ob je
O ur</w>
O c
O ber
Nor w
N os</w>
N atürlich</w>
N amen</w>
Mor si</w>
Mitgli ed
Mit tel
Ministeri o</w>
Minist ry</w>
Milli arden</w>
Micro soft</w>
Mex ikaner</w>
Merk ur</w>
Mercur io</w>
Ma una</w>
M i</w>
M ensch</w>
M eine</w>
M ehr
M at
Lu ft
L etz
L au
Ko sten</w>
K ünst
K äufer</w>
K osmon
K opf</w>
K ing</w>
K ea</w>
K ala</w>
Jes us</w>
J ourn
J ohn</w>
It ali
Israel 's</w>
Isra els</w>
Inter essen</w>
In form
I ra
I D</w>
Höh en
Hig g
Ha sta</w>
H öhe</w>
H än
H ist
Gesetz gebung</w>
Ges prä
Geri cht</w>
Ged an
Ge werk
Gadom ski</w>
G ri
G ran</w>
G leich
Fre unde</w>
Flu g
Fir st</w>
Fin anz
F er
F ebru
Ex tre
Ex ist
Est os</w>
Est ado</w>
Entwick lung</w>
Einf luss</w>
E ig
E S
Dur ing</w>
Dro gen
Don nerstag</w>
Di rec
Di en
De z
D mit
D en</w>
Constitu ción</w>
C oun
C o
C ar
C R</w>
Bücher berg</w>
Bezir k</w>
Bezieh ung</w>
Bes itz</w>
Ber g
Beam ten</w>
Be weg
Be für
B ur
B lan
B ang</w>
Außen politik</w>
Auf merksam
Au st
Arme e</w>
Ar t</w>
Andr é</w>
An gaben</w>
Al gun
A pril</w>
A p
A mong</w>
9 00</w>
8 %</w>
4 5</w>
ühr en</w>
ü l
ü hen</w>
últi ma</w>
ör der
ö ff
ór bita</w>
ó cra
ñ os</w>
ístic as</w>
ísi mo</w>
í os</w>
í n</w>
í metros</w>
ér f
én dose</w>
äu ßer
äu ß
äng nis</w>
än dert</w>
ä s
ä ger</w>
án dose</w>
án d
á ni
Öffent lichkeit</w>
¿ Y</w>
zent ri
zeich nung</w>
zah l
year -
x i
wor ds</w>
wo o
wirt schaftlichen</w>
wir tschaft</w>
wir kt</w>
wir ken</w>
wichti g</w>
wi eg
wer t</w>
we is
we g</w>
we alth</w>
war um</w>
war eh
wait ing</w>
w on
w ants</w>
vor si
vorsi chtig</w>
vo to</w>
vit am
virtu ales</w>
vir on
viaj e</w>
vi ven</w>
vi ernes</w>
vi el
vi dad</w>
verdad er
verdader amente</w>
ver mu
ver lassen</w>
ver k
ver b
ver antwor
utz ut
utzut age</w>
ut os</w>
ur as</w>
uni que</w>
ung st
und ed</w>
un t</w>
un sch</w>
un kt</w>
un be
u an</w>
tu m</w>
tu bre</w>
tu almente</w>
tribun ales</w>
tri ed</w>
transac tions</w>
transac tion</w>
transac ciones</w>
trans mitted</w>
trans misión</w>
to wards</w>
tiv en</w>
tig ten</w>
ti pos</w>
ti ef
the y
th y</w>
ter c
terc era</w>
ten dencia</w>
tempor ada</w>
telesco pios</w>
telesco pes</w>
tel l</w>
tei len</w>
tecnolog ías</w>
te am</w>
t y-
t ulo</w>
t u</w>
t on
t ember</w>
t an
sus pen
super fici
sup por
sup one</w>
sufici entemente</w>
succ ess
str ong</w>
str en
sto p</w>
stat a</w>
star ted</w>
star ken</w>
standar ds</w>
staat liche</w>
st udi
st ory</w>
st ock</w>
st imm
stimm ung</w>
st ep</w>
st en
st e
st age</w>
speci al
spe zi
spe ak</w>
sp ra
soll en</w>
so ph
sk y</w>
sitz ende</w>
sig ned</w>
si l
si ert</w>
serv ed</w>
ser ies</w>
sel f-
segun da</w>
segu ir</w>
seas on</w>
se jo</w>
se ch
se ase</w>
scre ening</w>
schütz en</w>
schi en</w>
schaf fen</w>
sch einen</w>
sch au
s áb
s ystem
s par
s ha
s el</w>
s eines</w>
s ar
rän kt</w>
russi schen</w>
ru t
ru ch</w>
ro e</w>
ri qu
ri g
ri chtung</w>
restauran tes</w>
requi red</w>
represent an</w>
ren n
rela cion
rel ata</w>
reg res
reduc ed</w>
reco g
rec ently</w>
re ten</w>
re ported</w>
re port</w>
ran ge</w>
ra ise</w>
r ó
r un</w>
r un
r t</w>
r ing
r era</w>
r ar
quier en</w>
qu ej
qu are</w>
públic os</w>
pró ximo</w>
prob ably</w>
pro pio</w>
pri sión</w>
prev ent</w>
presi denti
presidenti al</w>
prepar ed</w>
precis amente</w>
pre c
practi ce</w>
pr ü
pr in
pr en
post ura</w>
poli tische</w>
poin ts</w>
po wers</w>
po se</w>
po or</w>
po deres</w>
po d
po cos</w>
play er</w>
plac as</w>
pl es</w>
pi on
pho togra
ph one</w>
perio do</w>
peri ó
perf ect</w>
per spec
per haps</w>
pens ar</w>
pen a</w>
pas ó</w>
pas o</w>
parti d
partid arios</w>
palab ras</w>
pa qu
p onen</w>
p le
p is
p ing</w>
ou gh
organiz ación</w>
or mente</w>
or en
or bit</w>
op e</w>
onal e</w>
olog ía</w>
olog ical</w>
oh len</w>
off en
oc tubre</w>
o cho</w>
nu tz
no ther</w>
ni g</w>
ni ce</w>
nen nen</w>
neg o
necess arily</w>
nat ural</w>
n ischen</w>
n atur
n -
mö gen</w>
mäß ig</w>
muse um</w>
muse o</w>
muj er</w>
much ísimo</w>
moun tains</w>
mon it
mom ent</w>
mo v</w>
mit t
ministeri um</w>
min im
min i
min e</w>
milit är
mi st
mi c</w>
men tioned</w>
men ores</w>
men es</w>
men d</w>
mei ster
mehr eren</w>
meas ures</w>
mani dad</w>
man ufactur
mag az
ma xim
m íni
m y
m ischen</w>
lu jo</w>
lo v
lo se</w>
lo gos</w>
lo go</w>
lo ck
lleg an</w>
li n</w>
li gt</w>
li gen</w>
li gen
li ge</w>
li erung</w>
li do</w>
li brary</w>
lei st
le j
law yer</w>
lang wei
lan gen</w>
labor atorio</w>
l s
l ate</w>
l age</w>
kon nten</w>
kon nte</w>
kon kre
ken ntnisse</w>
k tion</w>
k rank
k ran
k os
k et
k el
jah re</w>
it é</w>
it zen</w>
intro duc
interac tion</w>
interac ción</w>
inter nacionales</w>
inst ance</w>
inscrip ción</w>
ins k
ins gesamt</w>
inici ativa</w>
ing ra
ing l
ing en
infr arro
influ ence</w>
infec tions</w>
inf erior</w>
increas ing</w>
in e
im pedi
im os</w>
im ag
ilom et
ilo soph
ie g</w>
i cht</w>
hu érf
hu manos</w>
hu manidad</w>
ho od</w>
hist or
hi ja</w>
her vor</w>
her vor
hel ped</w>
hear ing</w>
hear d</w>
he 's</w>
happ y</w>
hacer lo</w>
hab la</w>
h our</w>
h am
grup pe</w>
gr ados</w>
gr ado</w>
gl ass</w>
gewis sen</w>
gew ährt</w>
gest ohlen</w>
gen ie
gel d</w>
geh ö
geh end</w>
gebra cht</w>
geb aut</w>
g ä
g ig
g al
führ te</w>
fun ds</w>
fun ding</w>
fu erte</w>
fron ter
fre i</w>
fre cu
fr üher
fr aro
form as</w>
form ar</w>
forder t</w>
fis c
fisc ales</w>
ffer ed</w>
famili es</w>
famili as</w>
famili a</w>
fam ous</w>
fal sos</w>
f ur
f ant
f allen</w>
f ake</w>
experim ento</w>
experim ent</w>
exp ect
exist encia</w>
ex hi
ex amen</w>
evit ar</w>
estu vo</w>
estadouniden se</w>
establish ment</w>
est é</w>
est er</w>
est auran
estauran ts</w>
espe cial</w>
es er</w>
es ch
es cent
erzäh lt</w>
errei cht</w>
er weit
er ven
er seits</w>
er ig
enti re</w>
ent stehen</w>
energ ía</w>
energ y</w>
end um</w>
en viron
en joy</w>
en em
en cy</w>
em en</w>
em at
elec tr
el os</w>
el em
ej ército</w>
einz ig
einfa cher</w>
eig ent
ei ther</w>
ei l</w>
eg er</w>
eg as</w>
edi ficio</w>
ed ly</w>
económi ca</w>
ech ten</w>
ec k</w>
eb ro</w>
ear ch</w>
e wise</w>
e k</w>
du stri
dro p</w>
dra ft</w>
document os</w>
diri gi
direc tion</w>
dici embre</w>
dic os</w>
dic en</w>
di sease</w>
di seas
di gt</w>
di er</w>
di cho</w>
develop ment</w>
dest ru
des af
den ke</w>
demu estra</w>
demokra tische</w>
democra cy</w>
demo strar</w>
dem ócra
dej ar</w>
dej a</w>
de o</w>
de ed</w>
dat o</w>
dar um</w>
d ying</w>
d ul
d ou
d or</w>
d aba</w>
curren cy</w>
cu ya</w>
cu m
cri mes</w>
cre ated</w>
cre ar</w>
cre ación</w>
corpor ation</w>
contac to</w>
constitu tional</w>
conflic t</w>
conduc ted</w>
concep to</w>
con c
compr en
compr a</w>
compan ies</w>
commun ity</w>
com fortable</w>
com enz
com ent
col or</w>
co vered</w>
co st</w>
cle arly</w>
cla im</w>
cier ta</w>
ci ties</w>
ci t
ci es</w>
ci entos</w>
ci ento</w>
ci en</w>
chti gen</w>
cht s
chall enge</w>
ch sel
ch it
ch as</w>
ch amp
cer ta
cer ebro</w>
cer can
car gos</w>
can c
c luso</w>
c los
c ero</w>
c all</w>
bür ger
bun al</w>
bu s</w>
bu eno</w>
bu en</w>
bri ll
bor rador</w>
bis her</w>
billi on</w>
bild aus
betei lig
bet on
ber üh
ber i
beh in
be vor</w>
be finden</w>
be fahrbar</w>
baj as</w>
bah n</w>
b ra</w>
b ought</w>
b om
b ly</w>
b its</w>
añ ade</w>
av ail
avail able</w>
aus län
aus ge
aus ende</w>
auf genommen</w>
au ßerdem</w>
au l
au g
at tention</w>
ast ro
asoci ación</w>
asi s</w>
as u
as sist
as pi
arbeit ern</w>
ar my</w>
ar ms</w>
ar m
ar an</w>
appe ared</w>
aplic ación</w>
ap ren
ap poin
ap par
any thing</w>
annab is</w>
ann ed</w>
ang eg
an ges
ami entos</w>
americ ana</w>
am en
al tung</w>
al ong</w>
aj a</w>
ah ead</w>
adol escent
administ ración</w>
ad á</w>
ad ing</w>
ad ds</w>
accoun t</w>
ac k
ac a</w>
a z</w>
a fi
a 's</w>
Zu stand</w>
Z er
Z ar
Wel le</w>
Webse ite</w>
Walmar t-
W unsch</w>
Verfas sungs
Ver ein</w>
Ver antwor
V I
U S</w>
Tri bunal</w>
Tour isten</w>
To dos</w>
To do</w>
Thurs day</w>
Th eir</w>
Th e
Th an
Tem peratur
Teil chen</w>
T ories</w>
T ie
T i
T echnologi
T ay
T agen</w>
Studi en</w>
Staat san
Spiel er</w>
Sp ace</w>
Sin ne</w>
Sep tember</w>
Schne e</w>
Sais on</w>
S ur
S um
S precher</w>
S o
S m
S eiten</w>
S P
Rober t</w>
Righ ts</w>
Righ t</w>
Registri erung</w>
Regi on</w>
Reg eln</w>
Re ise</w>
Raumfahr t</w>
R estaurants</w>
R ec
Qu iz
Produ kte</w>
Pra gue</w>
Pra ga</w>
Pra g</w>
Pol onia</w>
Persön lichkeiten</w>
Par tic
P resse</w>
P ress</w>
P lat
P i
Ok tober</w>
Oc tober</w>
O f</w>
O f
O N
Neb el</w>
Na cht</w>
NK Ú</w>
N etzwerk</w>
N ational</w>
Mubar ak</w>
Mon ate</w>
Mitglied s
Mitgli ed</w>
Minist er</w>
Mexican- Americans</w>
Met er</w>
Mercur y</w>
Men gen</w>
M üs
M ein</w>
Lu x
Lit er
Lig a</w>
Licht jahre</w>
Licht bildaus
Leb ens</w>
Lab em</w>
L in
Krank heit</w>
Kor ruption</w>
Kon zer
Kamp f</w>
Kamp ag
K ü
K e
Jes ús</w>
Jerusal én</w>
J etzt</w>
Is l
Inter aktion</w>
In dustri
In cluso</w>
Ih nen</w>
ID S</w>
I l
I hr
I denti
Her r</w>
Hei m</w>
H under
H on
H is</w>
H il
H aus
Grün dung</w>
Go vern
Gesprä ch</w>
Geh ir
Geg ens
Ge füh
G i
Fre it
Fort schrit
Famili en</w>
F unk
F isch</w>
F ar
F ac
Experim ent</w>
Ergeb nis</w>
Er wachsen
Er de</w>
Entr e</w>
Ent schei
En erg
El tern</w>
Ein ige</w>
E reig
E is</w>
E T
E SA</w>
Du ma</w>
Dor f</w>
Di eser</w>
Dez ember</w>
Des halb</w>
D ort</w>
D ev
D ann</w>
Constitu tion</w>
Conserv ative</w>
Chri sti</w>
Ch or</w>
Ch ic
Ch ar
Can adá</w>
Can ada</w>
C hi
C airo</w>
C a
C E
Bohem ia</w>
Bil der</w>
Bezieh ungen</w>
Benutz er</w>
Behör de</w>
Beh in
BB C</w>
B renn
B lu
B lic
B is
B ell</w>
B eit
B ei
Aufmerksam keit</w>
Auf träge</w>
Au s</w>
Au gen</w>
Astron om
An sicht</w>
Am ts
All í</w>
Al so</w>
A ser
A nother</w>
A IDS</w>
A -
7 33</w>
3 0%</w>
20 %</w>
2 9</w>
195 6</w>
0 s</w>
- year-
Štern feld</w>
Š um
ür en</w>
ú s
ús queda</w>
öß e</w>
örder gelder</w>
öffent liche</w>
ó nom
í do</w>
é sta</w>
é roe</w>
é li
äußer st</w>
ätz e</w>
ähr en</w>
ägyp tischen</w>
äch st</w>
á tico</w>
á stico</w>
Ä n
Än derungen</w>
¿Cu á
zwei f
zu künf
zu g
zi eht</w>
zeich nen</w>
zeh n</w>
zah lt</w>
zah l</w>
z il
zil and</w>
z h
z em</w>
z ca</w>
z ado</w>
z ad
yphili s</w>
you 're</w>
ym bo
y án</w>
y ester
x -
wor se</w>
wor kers</w>
wor k
woll te</w>
wit ter</w>
wi de</w>
wh ite</w>
wer ben</w>
wen den</w>
weit erer</w>
weap on</w>
we chsel
we ak
wareh ous
warehous es</w>
wal k</w>
w u
w ill
w est
w es
w ed</w>
vu elo</w>
voll ständig</w>
vol un
vo tado</w>
vo tación</w>
vo ice</w>
visit ar</w>
virtu elle</w>
vi o</w>
vi ej
vi ce
verschied enen</w>
verkauf t</w>
vergleich sweise</w>
ver öffent
ver ur
ver tra
ver tei
ver ring
ver l
ver hin
ver g
ver besser
ven ir</w>
ve dad</w>
v et
v aya</w>
v amos</w>
ut zen</w>
usu al</w>
us s</w>
ur ora</w>
ur ity</w>
ur ing</w>
unk ten</w>
univer sidad</w>
under stand</w>
un ding</w>
un da</w>
ul y</w>
ul u</w>
uc c
ucc i</w>
u la</w>
u de</w>
tí tulo</w>
tur ned</w>
tur istas</w>
tu vieron</w>
tro tzdem</w>
tro tz</w>
tro mag
tromag ne
trav ag
transac ción</w>
trans at
tra mos</w>
tr ue</w>
tom ar</w>
tom a</w>
to day</w>
tim as</w>
tiemp os</w>
tic ally</w>
ti ous</w>
ti ally</w>
thri ller</w>
they 're</w>
ther hood</w>
than ks</w>
thal ie</w>
th us</w>
th ei
test en</w>
ten der</w>
tem per
televi sion</w>
tas k</w>
tar se</w>
tam año</w>
t y
t ori
t ent
t ema</w>
t echni
t aron</w>
t able</w>
sáb ado</w>
sug gest
succ ess</w>
stru gg
stre et</w>
stra va</w>
str al
sto od</w>
stat e-
stam men</w>
sta at</w>
st ores</w>
st ing</w>
spr ing</w>
spiel t</w>
sour ce</w>
son da</w>
som it</w>
solu tion</w>
soli ci
sol ar</w>
so vi
so f
smo king</w>
situ ado</w>
siti os</w>
sim pl
si v</w>
si li
si land</w>
si fic
si ete</w>
si eben</w>
si cher
sh ort</w>
sh are</w>
sexu ally</w>
servi ces</w>
sen ci
sel y</w>
sel ection</w>
sel ección</w>
seg uros</w>
seg uro</w>
se ven</w>
se k</w>
se d
scienti fic</w>
schwi eri
schwieri g</w>
schl af
sch ung</w>
sch rän
sch lä
samm lung</w>
sal ary</w>
sa w</w>
s wi
s un
s now
s la
s hu
s eh
s ar</w>
rápi do</w>
rápi d
rápid amente</w>
rul e</w>
rou bor
roubor st</w>
ro und</w>
ro -
ri vers</w>
ri ere</w>
ri ed</w>
ri do</w>
ri a</w>
reuni ón</w>
retur n</w>
resul t</w>
restric ciones</w>
restauran ts</w>
rest os</w>
responsab ilidad</w>
respon sibility</w>
resear chers</w>
republic anos</w>
represent antes</w>
rema ined</w>
rel ation
relation ship</w>
rei f
rei ben</w>
regul ar</w>
register ed</w>
regar ding</w>
recon oc
rech nen</w>
recei ve</w>
rec lam
re ve
re str
re sist
re publi
republi kan
re gu
re ds</w>
raz ones</w>
rations behörde</w>
ra mi
ra di
r ü
r ö
r z
r ty</w>
r lo</w>
r ing</w>
r er</w>
r ent</w>
quiz á</w>
quier o</w>
quer ía</w>
qu ite</w>
pág inas</w>
publi shed</w>
pu s</w>
pu estos</w>
pu eda</w>
prov ech
prot eger</w>
prot ect</w>
propi edad</w>
promis ed</w>
prohibi ción</w>
prohi bido</w>
progres s</w>
program me</w>
profundi dad</w>
prof essor</w>
prof esor</w>
pro z
pro to
pro puesta</w>
pro pag
pro p
pro min
pro h
proh í
princip almente</w>
primer as</w>
pri mar
previ sto</w>
posi tivo</w>
pos ing</w>
polí tico</w>
pol lu
po wer
po ver
po plat
poplat ky</w>
po der
po bre
pobre za</w>
pl aza</w>
pl ant</w>
pi e
physi ci
physi c
ph ans</w>
perman ente</w>
perfect amente</w>
per mite</w>
per k</w>
pequeñ os</w>
pequeñ as</w>
pas sing</w>
pas ada</w>
partic les</w>
partic le</w>
par t
p ush
p ie</w>
p hi
p ass</w>
ovi ch</w>
our selves</w>
ou is</w>
ou d</w>
ori ent
ori da</w>
or ías</w>
or phans</w>
or ing</w>
or ar</w>
on nen</w>
on i
on etheless</w>
om ni
om a</w>
ol óg
ol z</w>
ol e
oh or
ocra tic</w>
oc rático</w>
oc cur
oc cident
oc ca
occa sion</w>
o to</w>
o the
o il</w>
o g
o ffered</w>
nt ario</w>
norm ativa</w>
nor u
nor te</w>
non -
no v</w>
no twen
ni emals</w>
neces ariamente</w>
ne tic</w>
nah e</w>
n ütz
mög licherweise</w>
mög lichen</w>
musulman es</w>
muni ci
mul ti
mu sic</w>
mu estran</w>
mu erte</w>
mp li
montañ as</w>
mo ve</w>
mis mos</w>
migran ts</w>
mi x
mi siles</w>
mexicano- estadounidenses</w>
mes ser</w>
merc ados</w>
mer n</w>
mar co</w>
mani fi
mandat ory</w>
man tiene</w>
mac enes</w>
ma ster</w>
ma inly</w>
ma fia</w>
ma d</w>
ma ane</w>
m ü
m eines</w>
m ass</w>
lö sung</w>
län ger</w>
lu b</w>
low er</w>
loo ks</w>
logr ado</w>
lo sen</w>
lo h
llev ar</w>
llev an</w>
lic a</w>
liber tad</w>
liber sek</w>
liam s</w>
li za</w>
li o</w>
li f
li cht</w>
li bre</w>
leg t</w>
leg aliz
lead ing</w>
lead er</w>
le jos</w>
le isch</w>
laun ch</w>
las er</w>
lar d</w>
langwei lig</w>
lam y
labor al</w>
lab our</w>
kra ft</w>
kon zentri
kon tak
kom men
ko v
kno ws</w>
klär ung</w>
kl eine</w>
kl ei
kl asse</w>
kil ómetros</w>
kel ey</w>
kandi dieren</w>
kanadi schen</w>
k ürz
k ü
k ilomet
k -
jun tos</w>
jud íos</w>
jour ney</w>
j ährige</w>
j ordan
j ene</w>
itu d</w>
it ect
it al
ist ischen</w>
ist isch</w>
issu es</w>
isra eli
isch -
is mo</w>
is ette</w>
is a</w>
ir á</w>
ir ali</w>
intro du
interes antes</w>
inter és</w>
int ento</w>
ini tiative</w>
ini cio</w>
ingl és</w>
ingen ier
ing er
infrarro jos</w>
inform ation</w>
individu als</w>
individu al</w>
indepen diente</w>
in qui
in king</w>
in forme</w>
im pul
ilom eter</w>
illeg alen</w>
il lo</w>
il les</w>
il an
ilan dia</w>
ig nor
ig n
ier te</w>
ier on</w>
identi ty</w>
id sch
id dle</w>
i ds</w>
hä re</w>
huérf anos</w>
ho ff
ho ch
him ovic</w>
hi elt</w>
heu tigen</w>
he al
han dic
hal t</w>
hab ría</w>
hab rá</w>
h éroe</w>
h ätten</w>
h ung
h eter
heter osexu
h eb
h as
gä be</w>
gu ten</w>
größ te</w>
gra vedad</w>
gr ün
gr ad
gon or
go t</w>
glei chen</w>
gew isse</w>
get ting</w>
gesam ten</w>
ges prochen</w>
ger ung</w>
genann t</w>
gen e
gemein nütz
gem el
gelangwei lt</w>
gel eg
gel assen</w>
gef äl
geb or
geb lich</w>
geb il
ge worden</w>
gar anti
gan ze</w>
gan istán</w>
g le</w>
g ave</w>
g an</w>
führ er</w>
funcion a</w>
fuer zas</w>
fron t</w>
fre qu
form ed</w>
for dern</w>
for ces</w>
fo ur
fl ä
fir m</w>
finan cier
fin es</w>
fin ales</w>
fig ure</w>
feel ings</w>
feel ing</w>
fas sen</w>
fas ci
famili ar</w>
fail ed</w>
fabric ante</w>
fa ci
f lus
f ile</w>
f eu
f estival</w>
f elt</w>
f eb
extranj ero</w>
expl ained</w>
experi ence</w>
ex travag
ex presión</w>
evi d
every where</w>
europe a</w>
eu ms</w>
et en
et c</w>
et ap
estric ta</w>
est ro</w>
est ra
esper anza</w>
esc rit
esc ala</w>
es qu
es pi
erven ohor
erklär te</w>
er y</w>
er mor
er lau
equi p
environ ment</w>
enth alten</w>
ent ra</w>
ens ores</w>
enor mes</w>
eni x</w>
eng ine
eng aged</w>
encontr ado</w>
enci ma</w>
en zen</w>
en vi
en se</w>
en cuesta</w>
empres arios</w>
empe ñ
em an</w>
eli min
elev adas</w>
elek tromagne
electromag netic</w>
electromag n
el s
einzel nen</w>
ein heit
ehemal ige</w>
egip cios</w>
eg na</w>
ef an</w>
ed ed</w>
ech te</w>
ech as</w>
ech an
ec tual</w>
ec tive</w>
ec s</w>
ebo ok</w>
eben so</w>
eb el
eb ecs</w>
ear th</w>
e yes</w>
e uro</w>
e ken
e das</w>
e au</w>
e asi
e as
eas y</w>
durch zusetzen</w>
durch geführt</w>
dro ga</w>
dr ía</w>
dr it
dr es</w>
divi ded</w>
dis pu
dis cu
dis capacidad</w>
differ ences</w>
difer encias</w>
di rty</w>
di pu
di endo</w>
di ed</w>
di cht</w>
det ect
dest ro
dest in
dese an</w>
desarro llo</w>
desaf ío</w>
des c
derarti ge</w>
der ten</w>
dep th</w>
demócra tas</w>
demostr ado</w>
democra tic</w>
democra cia</w>
demand ed</w>
del ante</w>
dej ado</w>
def ensores</w>
deber ían</w>
de u
de ath</w>
dau ghter</w>
dan ovich</w>
da her</w>
d é
d rei
d ney</w>
d ingungen</w>
d ate</w>
cán cer
cáncer es</w>
cámar as</w>
cu mpli
cu bier
crí ticos</w>
cri me</w>
cre o</w>
cre ating</w>
cre ado</w>
cosmon áutica</w>
corpor ación</w>
converti rse</w>
contin ue</w>
consu mo</w>
constru ir</w>
constru cción</w>
consider a</w>
conn ected</w>
conflic to</w>
conduc tores</w>
con vers
con oce</w>
con ci
con ce
compl ain
compar ed</w>
comer cio</w>
com unidad</w>
com ité</w>
com ing</w>
com er</w>
coll abor
co t
co oper
clu bs</w>
ck ed</w>
cip al</w>
cientí ficos</w>
ci viles</w>
cht ungen</w>
ch oir</w>
ch inos</w>
ch -
cent ímetros</w>
cent r
cel ona</w>
cat ed
car ry</w>
cap az</w>
canti dades</w>
campañ a</w>
campaig n</w>
cam pe
cal end
c en</w>
c ast
c aj
busin ess
bus car</w>
bus ca</w>
bu dget</w>
bre it
bra himovic</w>
br ü
bo und</w>
bli othe
bi et</w>
beton t</w>
bet re
besch wer
bes uchen</w>
bes itzen</w>
bene ficio</w>
bel ow</w>
behand elt</w>
begin ning</w>
be k
be am
bar ri
ban qu
bah nen</w>
ba idsch
b on
b em
b all
b ab
az ilandia</w>
ay ev
aver age</w>
aument ar</w>
auf en</w>
au ßer
att le</w>
ativ es</w>
ativ en</w>
ati sti
at 's</w>
as ser</w>
as a</w>
arti ge</w>
ari dad</w>
ar cha
aqu avit</w>
apor tar</w>
apar ece</w>
any one</w>
anst alt
angeneh m</w>
ang s
ander s</w>
and al</w>
anal ysi
an unci
an schließ
an aliz
amoun ts</w>
amb os</w>
amb ito</w>
am ura</w>
altitu des</w>
all -
alisi erung</w>
alisi ert</w>
alis ed</w>
alim ent
aliforni a</w>
ali vi
ali dades</w>
ali ban</w>
alem án</w>
alcan zar</w>
al te</w>
al macenes</w>
al low</w>
al eza</w>
al ed</w>
akzep tiert</w>
akzep tieren</w>
ak u</w>
ag on
ag ernes</w>
ag ency</w>
ag egen</w>
aff a</w>
afect a</w>
af f</w>
adul ts</w>
adolescent es</w>
administ ration</w>
ad en
ad ecu
ad ded</w>
activi sts</w>
activ ity</w>
acti tud</w>
ach i
acc eso</w>
acc es
ac ques</w>
ac ked</w>
ac er
abo ve</w>
abi lity</w>
ab ge
a provech
a prob
a p</w>
Z w
Z ulu</w>
Z lat
Z ico</w>
Z egna</w>
Z ambito</w>
Z K</w>
You Tu
YouTu be</w>
Y u</w>
Y et</w>
Y a</w>
Wäh lern</w>
Wis senschaft
Wil liams</w>
Wil lard</w>
Wiki Le
WikiLe aks</w>
Wh o</w>
Wel che</w>
Vo danovich</w>
Verha ig</w>
Ver stän
Ver ordn
Ver bot</w>
VI H</w>
V it
Unterneh mer</w>
Unter schied</w>
US- Dollar</w>
U z
U C
UC A</w>
Tri fi
Trans aktionen</w>
Trans aktion</w>
To chter</w>
Th ema</w>
Telesk ope</w>
Tel nice</w>
Technologi en</w>
Tat sache</w>
Taly sh</w>
T ürk
T witter</w>
T rouborst</w>
T om
T imes</w>
T aliban</w>
T T</w>
Sych ev</w>
Sy dney</w>
Swa ziland</w>
Swa siland</w>
Su pre
Su azilandia</w>
Stu die</w>
Stim m
St ück</w>
St unde</w>
St efan</w>
St au
St atisti
Sprach kenntnisse</w>
Spi egel</w>
Sper mon</w>
Sp it
Sp an
Sou th</w>
Sm ith</w>
Sel bst</w>
Seg unda</w>
Se an</w>
Sci ence</w>
Schul e</w>
Sch olz</w>
Sch luss</w>
SP A
S vit
S quare</w>
S pr
S pen
S ohn</w>
S eine</w>
S ebel
S an
R om
R echn
R N</w>
Quiz ás</w>
Qu ebecs</w>
Pro f</w>
Pri me</w>
Pre sidente</w>
Pre is</w>
Pom pe
Pol o</w>
Pol en</w>
Plat z</w>
Pho enix</w>
Par lam
Palest ina</w>
Pal as</w>
Pak istán</w>
P ushk
P lu
P libersek</w>
P ay
Or lic
Or bit</w>
Ok amura</w>
O strava</w>
O r</w>
O ntario</w>
O UCA</w>
O SPA
Nor wegen</w>
Nor weg
Nor m
Neb ula</w>
Na thalie</w>
Na cher</w>
N un</w>
N onetheless</w>
N och</w>
N eza</w>
N eg
N atur</w>
N ahen</w>
Müs lü
Män nern</w>
Män ner</w>
Muse o</w>
Mon aten</w>
Mon at</w>
Moham ed</w>
Mit tel</w>
Mit te</w>
Mirz ayev
Min der
Mig rationsbehörde</w>
Mexik os</w>
Mensch heit</w>
Men dez</w>
Medi o</w>
Medi en</w>
Mar ke</w>
Mann ings</w>
Mann ing's</w>
Mak aro
M uni
M iddle</w>
Lö sung</w>
Lu ft</w>
Lon dres</w>
Lichtbildaus weis</w>
Liber ec</w>
Li v
Li cht</w>
Letz tere</w>
Lar son</w>
L ouis</w>
L isette</w>
L ik
L abor
Künst ler</w>
Kü ken</w>
Kun st</w>
Kul tur
Ku wait</w>
Kri eg
Kre uz
Kre is</w>
Kr ise</w>
Kosmon au
Kontro llen</w>
Kontro ll
Kon fli
Ke pler</w>
Kap isa</w>
Kan sas</w>
Kan ada</w>
K is
K ilometer</w>
Ju maane</w>
Ju de
Janu ar</w>
Jahrhunder t</w>
J ap
J an</w>
J affa</w>
J acques</w>
Islam isten</w>
Isl amic</w>
Institu ts</w>
Ini tiative</w>
Inform ationen</w>
Industri e</w>
Indi ana</w>
In fraro
In fektionen</w>
Ih r</w>
I st</w>
I gor</w>
I brahimovic</w>
I I</w>
Hän d
Hu man</w>
Hu man
Ho y</w>
Ho ch
Han del</w>
HI V-
H ym
H y
H ilfe</w>
H e
Groß teil</w>
Gra cias</w>
Goo gle</w>
Gesetz es
Gesch äf
Gener ation</w>
Gehir n</w>
Gegens atz</w>
Gedan ken</w>
Geb urt</w>
Ge ely</w>
G illes</w>
G en
G ast
G an
G alax
Fre eman</w>
Fr üh
Forsch ung</w>
For mer</w>
Fo to</w>
Fil m
Fern sehen</w>
Fat ah</w>
Famili en
Fac ebook</w>
F u
F rei
F eld</w>
F as
F agernes</w>
F ach
F E
FE D</w>
F C</w>
Europä ischen</w>
Europe a</w>
Est amos</w>
Ent wurf</w>
Engli sh</w>
E very
E ben
E ar
Di dier</w>
Dev oir</w>
Des champ
Den ken</w>
De fin
D re
D is
D an</w>
D abei</w>
Cor pus</w>
Conserv ador</w>
Com mittee</w>
Com i
Chi ef</w>
Canadi an</w>
Ca esarea</w>
CE RN</w>
C eres</w>
C arlo</w>
C am
C alifornia</w>
C ZK</w>
C OSPA
C I
Bundes staaten</w>
Bu ck</w>
Bro therhood</w>
Brenn an</w>
Br no</w>
Bos on</w>
Bo yle</w>
Bo ston</w>
Bo eken
Blic k</w>
Blan c</w>
Bild ungs
Bil dern</w>
Bil d</w>
Bi bliothe
Beri cht</w>
Ber keley</w>
Ber eit
Ber eich</w>
Beam te</w>
Be zeichnung</w>
Be oba
Bar celona</w>
Bar ack</w>
Bal four</w>
B rit
B ec
B aku</w>
Azerbai yán</w>
Aser baidsch
Ari zona</w>
Ar chit
Ap pi
Ant wor
An na</w>
Al though</w>
Ak tu
Af ganistán</w>
Ac tualmente</w>
Ab stimmung</w>
Ab geordn
A y
A v
A urora</w>
A sh
A mt</w>
A N</w>
9 0%</w>
8 1</w>
8 0%</w>
7 9</w>
7 1</w>
7 0%</w>
6 5</w>
6 %</w>
5 000</w>
5 -
4 -
4- 0</w>
201 8</w>
200 3</w>
2 34</w>
2 20</w>
199 8</w>
199 1</w>
197 9</w>
196 5</w>
196 4</w>
19 37</w>
19 33</w>
19 0
18 0</w>
16 0</w>
13 6</w>
13 %</w>
11 %</w>
1 7</w>
1 3</w>
1 %</w>
-year- old</w>
- 1
ů v</w>
üs sel</w>
überzeu gt</w>
über trag
über all</w>
ü b
ú sta
ústa v</w>
ört lichen</w>
öh ne</w>
ö sen</w>
ö s
ös si
ö n</w>
ö ch
óg ico</w>
í r</w>
éli te</w>
éc ni
é qu
équ els</w>
é fon
än gt</w>
än ger</w>
än de</w>
ähn lich</w>
ä um
ä llen</w>
á ser</w>
Á frica</w>
¿Cuá les</w>
¿ no</w>
¿ Se</w>
¿ Es</w>
zus ätz
zurück ge
zi p
zi em
ziem lich</w>
zer -
zeit gen
zeitgen össi
z ed</w>
z ap
yester day</w>
y n
x ury</w>
x is</w>
wür fe</w>
wär en</w>
wäl te</w>
worl d-
wor st</w>
wor d</w>
won 't</w>
wom an</w>
woll ten</w>
wo ul
wissenschaft liche</w>
wirk ungen</w>
win ter</w>
win ner</w>
wieg end</w>
wichti gen</w>
wichti ge</w>
wi der
wi cz</w>
whe el
wer ten</w>
well -
weit eren</w>
weit er
weit e</w>
weit aus</w>
weigh tl
weightl ess
weightless ness</w>
weg s</w>
we m</w>
we ek
war zen</w>
war n
ví c
vuel ta</w>
voll kommen</w>
vol vi
vo tar</w>
vo tan</w>
vo c
vivi endo</w>
visi ted</w>
visi ble</w>
vi er
vi dez</w>
versi ch
verschied en
vers al</w>
verdi ent</w>
verantwor tlich</w>
ver tre
ver fas
ver bin
ver ano</w>
ven dedores</w>
vari ous</w>
v öl
v ital</w>
v ino</w>
v inc
v esti
v arias</w>
v an</w>
v ale</w>
uti liza</w>
usu ally</w>
us w</w>
unter wegs</w>
unter nehmen</w>
unser em</w>
unk el
universit arios</w>
univer so</w>
uni ties</w>
uni on</w>
under standing</w>
und est
undest ag</w>
un er
un eingesch
un e</w>
ul tim
ul osa</w>
ul es</w>
ul ation</w>
u t</w>
u red</w>
términ o</w>
typ ical</w>
tur n</w>
tur es</w>
tu red</w>
tu re
trä gt</w>
trä gen</w>
tri p</w>
tras lad
tranj eros</w>
tr o</w>
tr a</w>
tor no</w>
tor ney</w>
tor en</w>
tom ó</w>
tiv it
tiv es</w>
tic amente</w>
ti zen</w>
ti ma</w>
ti llas</w>
ti erra</w>
ti e
ti cias</w>
throu gh
through out</w>
thre e-
ther e's</w>
thei d</w>
th inking</w>
th ilfe</w>
testi fied</w>
testi fic
test ing</w>
ter t</w>
ter ri
ter in</w>
teni endo</w>
ten erse</w>
temper ature</w>
teles kop</w>
tel éfon
tei le</w>
te ur
te quil
tequil la</w>
te enag
teenag ers</w>
tar ea</w>
tant as</w>
tak ing</w>
t- wing</w>
t ón</w>
t écni
t wo
t wi
t ty</w>
t ting</w>
t ete</w>
t echn
t atsächlich</w>
t ant</w>
t adas</w>
sur gi
superfici e</w>
sup on
suici de</w>
suf fici
sub mitted</w>
su elen</w>
su el
su bur
stud y</w>
stric t</w>
stol en</w>
stell te</w>
stell ation</w>
stat ak
statak re
stan cias</w>
stan cia</w>
staat lichen</w>
st om
st off
st iz
st aff</w>
spre ad</w>
spr ün
spr ü
spo k
speci fic</w>
spe k
sp üren</w>
sp ital</w>
sp ann
sozi alen</w>
sozi ale</w>
sor gt</w>
sol d</w>
soci ation</w>
so la</w>
so l</w>
so g</w>
so bor
so ber
sk é</w>
sir ve</w>
sing ers</w>
sindic atos</w>
simpl emente</w>
sicht s
si fi
si enten</w>
si des</w>
shor tly</w>
sho wn</w>
sho ul
sho es</w>
sh équels</w>
sh el
sh ek
shek els</w>
sh aria</w>
sexu ell</w>
ser n</w>
sens ors</w>
sens ores</w>
sen ador</w>
sen ado</w>
sem bly</w>
sel s</w>
sel bst
sei en</w>
secut ors</w>
sec on
se ems</w>
schn it
schlim m
schle cht</w>
schlaf en</w>
schie de</w>
sch ü
sch ä
sch utz</w>
sch lag</w>
sc enes</w>
sat z</w>
san it
sal ud</w>
sal a</w>
sa ve</w>
s í
s ymbo
s ver
s piel</w>
s or</w>
s ligh
s etzt</w>
s et
set tl
s ent</w>
s ales</w>
russi sche</w>
rub los</w>
ro jo</w>
rit eri
riqu eza</w>
ri v
ri st
ri s</w>
ri es</w>
ri eben</w>
ri chtig</w>
resul ts</w>
respon sable</w>
respe to</w>
resp et
resp ecto</w>
resol ution</w>
res puesta</w>
requi re</w>
requ ests</w>
relativ ely</w>
rel ativ</w>
rel ating</w>
rel ated</w>
reich end</w>
rei chen</w>
regul ation</w>
regul ated</w>
reg ime</w>
reg el
refu se</w>
refer encia</w>
recog ni
recibi ó</w>
reci entemente</w>
reci ente</w>
reci ben</w>
rech az
rec ur
reas ons</w>
re y</w>
re vista</w>
re vi
re ste</w>
re por
re min
re ly</w>
re fl
re comi
re ce</w>
re al
ran ken
ran ia</w>
ran gehö
ra í
ra mos</w>
ra gen</w>
ra g</w>
ra ba</w>
r ück
r ían</w>
r und</w>
r on</w>
r ada</w>
qui si
questi ons</w>
quer emos</w>
qued an</w>
qu o
qu eri
qu ality</w>
pur su
pur ch
puer to</w>
puer ta</w>
pu li
pu es</w>
pró stata</w>
prác tica</w>
provi des</w>
prot estas</w>
prot agon
protagon ista</w>
prohí be</w>
proc es
proc edi
pro of</w>
princi ples</w>
primer o</w>
pri ma
prima vera</w>
pri ces</w>
presiden cial</w>
presi dencia</w>
present a</w>
pregun tó</w>
prec ed
pre tty</w>
pre supuesto</w>
pre ch
pre cau
precau ción</w>
prak tisch</w>
power ful</w>
poten cial</w>
posi tiva</w>
posi bilidad</w>
posi bili
posibili dades</w>
porta voz</w>
pol vo</w>
po sit
po dido</w>
play ing</w>
play ers</w>
plat a
pl ans</w>
pist ola</w>
pi x
pi ons</w>
pi ed</w>
physi cal</w>
phi c</w>
permiti rá</w>
perió dico</w>
perio di
per mi
pe lig
pelig ro</w>
pe li
pe ace</w>
pati ent</w>
pat ches</w>
parti da</w>
par ecen</w>
pag o</w>
pack aging</w>
pa z</w>
pa in
p on</w>
p il
p ant
pant al
ou ver
ori dad</w>
organisi erte</w>
opport unities</w>
oport unidades</w>
opini ón</w>
opini ons</w>
op ol
op h
on able</w>
on 's</w>
ológ ica</w>
olog ische</w>
oli ente</w>
ol der</w>
offizi ellen</w>
offici ally</w>
offic er</w>
occu r</w>
occident ales</w>
oc asi
ocasi ones</w>
oblig ación</w>
o tor
o th
o t</w>
o re
o jos</w>
o ffering</w>
o ds</w>
nuest ras</w>
nu eve</w>
nor th</w>
nor mas</w>
nomin ated</w>
niñ o</w>
ning uno</w>
neu es</w>
ner halb</w>
nei gh
necess ary</w>
necesit an</w>
neces arios</w>
nati onal</w>
nat ür
nam es</w>
nam ed</w>
n äh
n ac
mú sica</w>
my self</w>
muse os</w>
mus sten</w>
mus ste</w>
mu t</w>
movi e</w>
mon et
mon d</w>
modi fic
moder no</w>
mo ving</w>
mo verse</w>
mo ved</w>
mo bili
mit tl
mit ten</w>
mit es</w>
mit ad</w>
mis sed</w>
min dest
mindest ens</w>
milli ons</w>
militär ischen</w>
migra tion</w>
mi d-
mexikan ischen</w>
mexic ano</w>
met ro
men ti
meister eien</w>
medi ante</w>
meas ure</w>
me ist</w>
me et</w>
me at</w>
mat ch</w>
mas a</w>
mark ets</w>
mar cha</w>
man tequilla</w>
man tener</w>
mal oliente</w>
mal erweise</w>
ma chte</w>
ma chine</w>
m te</w>
m ing</w>
m et</w>
m echan
m adores</w>
m ado</w>
lö sen</w>
lí mites</w>
län der</w>
lus s
luch ar</w>
lu xury</w>
ls bad</w>
low ns</w>
low est</w>
los s</w>
long itud</w>
lon ge
loh n</w>
lo k
llev amos</w>
lleg ue</w>
liter ature</w>
lin ie</w>
lim pi
lie ß</w>
lic ka</w>
lic ens
li ved</w>
li ger
lev anta</w>
ler weile</w>
lei cht</w>
leg alización</w>
le u
le t</w>
laun ched</w>
lat ter</w>
lang fri
lag ern</w>
labor atory</w>
l áser</w>
l mente</w>
l eh
l ayer</w>
l ac
kü m
kur ren
kontrol lieren</w>
ko v</w>
knowled ge</w>
kl ar</w>
kl agt</w>
ken nung</w>
kehr t</w>
ke ep</w>
kauf t</w>
k n
k i</w>
k ey</w>
k et</w>
k ern</w>
k el</w>
k as</w>
k amp
k am
jü dischen</w>
jur is
ju sto</w>
ju st
ju i
jui cio</w>
ju dici
jour n
jo in
je tillas</w>
je dem</w>
jah r</w>
j ungen</w>
j ung</w>
j etz
it ely</w>
it ali
ist e</w>
ish ed</w>
is mus</w>
is m</w>
is er</w>
ir man</w>
ir ing</w>
invol ved</w>
inter view</w>
inter ven
inten ción</w>
insur ance</w>
ins ul
ins pi
inici ado</w>
ingra videz</w>
ing er</w>
infr ing
indepen dent</w>
increas ingly</w>
in sp
in migración</w>
impedi r</w>
impac t</w>
im pro
im posible</w>
im por
im ed</w>
ik istan</w>
ih eit</w>
igu al
igual dad</w>
ier ung</w>
ier a</w>
id ed</w>
i za</w>
i eta</w>
i di
i ble</w>
i P
iP ad</w>
hör en</w>
hö her
hö ch
hund reds</w>
hu bi
hubi era</w>
hop ing</w>
hol y</w>
hol ds</w>
ho spital</w>
ho hen</w>
ho he</w>
ho ffen</w>
hing egen</w>
high est</w>
herr scht</w>
heraus zu
her um</w>
her aus</w>
har dly</w>
happ en</w>
hand eln</w>
hac ía</w>
habitu ales</w>
hab l
ha fte</w>
h öh
h t</w>
h il
h em
größ eren</w>
gre ater</w>
gran d
grad u
gra vity</w>
gra ve</w>
gra cia</w>
gobier nos</w>
glau ben</w>
gl ück
gi r
gew onnen</w>
get ö
gest os</w>
gest ern</w>
geri cht
gener ación</w>
gend lichen</w>
gemel det</w>
gel ingt</w>
gebil det</w>
ge boten</w>
ge ber</w>
gan zen</w>
gan os</w>
gan gs</w>
g ru
g or
g one</w>
g no
g ingen</w>
g ile</w>
führ ten</w>
fü llt</w>
físi co</w>
físi ca</w>
funktion iert</w>
fun ción</w>
fu mar</w>
fu madores</w>
fu ente</w>
fre m
fre cht
französi schen</w>
fra ude</w>
fra ud</w>
fra gte</w>
fra caso</w>
fotogra fi
fotogra f
forder ten</w>
for men</w>
for man</w>
follow ed</w>
folgen den</w>
fo re
fli cht</w>
fl ying</w>
fis cal</w>
financi era</w>
fin ish</w>
fin ement</w>
fil tra
fic ar</w>
fi re</w>
ff nung</w>
fas hi
f illed</w>
f em
f echa</w>
f ans</w>
f angen</w>
f a</w>
extravag ante</w>
explic ó</w>
exist ing</w>
exist iert</w>
ex tra</w>
evi dence</w>
ev al
europä ische</w>
europe o</w>
eu er
et tes</w>
estudi ante</w>
establish ed</w>
estab le
est án
est at
especi aliz
esp ect
esc enas</w>
es se</w>
es pal
es man</w>
es fuer
erwar ten</w>
erle i</w>
erken nen</w>
erig keiten</w>
erhöh t</w>
erh ält</w>
er wäh
er kran
er ho
er ci
entre vista</w>
ent y</w>
ent or
ent gegen
ent er
ent ado</w>
eng añ
enfr ent
encar cel
en si
en om
en ken</w>
en force</w>
en ero</w>
en ed</w>
en cant
em pu
em ig
em ical</w>
em baj
elo sigkeit</w>
ell ers</w>
electr óni
elect ed</w>
el ly</w>
el as</w>
el ación</w>
el abor
ek el</w>
einheit liche</w>
ein zu
ein gesetzt</w>
eigent liche</w>
educ ación</w>
ed s</w>
ed onia</w>
ect ing</w>
ect a</w>
ec kt</w>
eb y</w>
eb a</w>
ear lier</w>
e cido</w>
e an</w>
dó nde</w>
druck t</w>
dro gas</w>
dra w</w>
dr ink</w>
dol or</w>
do w
do or</w>
diseas es</w>
discus sion</w>
discipl ina</w>
dis cre
direc tamente</w>
dimensi onal</w>
dificul t
di str
di sp
di entes</w>
di cha</w>
di ch</w>
di ag
det ección</w>
det ails</w>
dese o</w>
descu bri
descri be</w>
des estim
des enc
des empeñ
der ro
der ed</w>
der echas</w>
depen de</w>
denomin ación</w>
dem anda</w>
degre es</w>
defin i
def ence</w>
declar ó</w>
deci sion</w>
deci ded</w>
dec kt</w>
dec ades</w>
deb ate</w>
de vi
de uti
de por
dau er
dat en</w>
dar unter</w>
dan ach</w>
da ción</w>
d ust</w>
d i</w>
d ge</w>
culp able</w>
cul ar</w>
cuid ado</w>
cuesti ones</w>
cual quiera</w>
cu yos</w>
cu sto
cu ar
cu ad
cuad ros</w>
cru ci
creci miento</w>
coun ter</w>
coun ter
cosmonau ta</w>
cor to</w>
cop y
contr ario</w>
continu es</w>
contin úa</w>
constitu tion</w>
constitu cional</w>
const elación</w>
consider ando</w>
consegu ido</w>
consecu encia</w>
conoci dos</w>
conoci do</w>
conoci da</w>
confi anza</w>
concre te</w>
con vinc
con stellation</w>
con sist
con sequ
con sejo</w>
con oc
con finement</w>
compr ador</w>
complic ado</w>
complain ts</w>
compl ain</w>
compet encia</w>
compar ativ
compar ación</w>
comp le
comer ci
com promis
com pañ
com mitted</w>
com enta</w>
collabor ation</w>
colegi o</w>
coh etes</w>
co la</w>
co 's</w>
clas si
clar amente</w>
cir cul
ci tizen</w>
ci ma</w>
ci lmente</w>
ci fr
ci encia</w>
chti g
char ges</w>
char ge</w>
chall eng
ch i
ch ance</w>
caus ed</w>
car ried</w>
car rera</w>
car o</w>
car ne</w>
cap a</w>
cant antes</w>
candid atura</w>
candi dato</w>
can do</w>
can ciones</w>
can adi
campe ones</w>
cambi ar</w>
cam eras</w>
ca jetillas</w>
ca er</w>
c tur
c tions</w>
c rania</w>
c enti
c ens
c ement</w>
c asi
c annabis</w>
bu y</w>
bro ke</w>
bra chte</w>
br ings</w>
bo l</w>
bo ard</w>
blic k</w>
bli eben</w>
blem ente</w>
blan co</w>
bl ed</w>
bitco in</w>
bir ge</w>
big gest</w>
bi ó</w>
bewus st</w>
betei ligt</w>
bet rug</w>
bestä tigt</w>
bestimm ten</w>
best immt</w>
beri chtet</w>
ber n</w>
ber eich</w>
ber ech
benefici os</w>
bene fit</w>
ben ö
ben en</w>
ben ef
behör den</w>
behaup tet</w>
beg ren
beein flus
be zahlt</w>
be oba
be li
be kämpfen</w>
be au
bau en</w>
bat h</w>
bas s
banqu eros</w>
ban kers</w>
ban cos</w>
bal d</w>
ba u</w>
b ün
b úsqueda</w>
b ús</w>
b utter</w>
b ing</w>
b all</w>
b ack
az ón</w>
ay ing</w>
ay 's</w>
aw are</w>
av y</w>
av anz
auto cra
auth ority</w>
aut ónom
aus zu
aus reichend</w>
aus ch</w>
aument ada</w>
aug mented</w>
auf zu
auf e</w>
audi tors</w>
au ßer</w>
au tor</w>
au tom
au stral
au er</w>
ativ as</w>
ati tis</w>
ati onalen</w>
aten ción</w>
at tra
at mosp
at ar</w>
astron autics</w>
ast ero
asp ectos</w>
asi a</w>
as un
as si
as os</w>
as esor</w>
as e
arti stas</w>
arri ba</w>
arqu e
arch i
ar s
ar mente</w>
ar me</w>
ar los</w>
ar ity</w>
aqu ella</w>
aqu el</w>
appe ar</w>
appe ar
app lies</w>
ap proxim
antigu os</w>
anti gua</w>
anti -
ant emente</w>
ans wer</w>
announ ced</w>
an ten</w>
an nen</w>
an jah
an den</w>
an aly
an 's</w>
amoun t</w>
amer as</w>
am pions</w>
am igo</w>
am end
alisi eren</w>
ali ties</w>
alco hol</w>
alcal de</w>
al though</w>
al ter</w>
al istas</w>
al d</w>
al -
ak ing</w>
ain ing</w>
ah í</w>
ah r</w>
ah or
ag ue</w>
ag rí
ag gres
ag er</w>
ag encia</w>
ag a</w>
aff ect</w>
af ghan
af ford</w>
adop tion</w>
adop ción</w>
adel ant
add ress</w>
ad verti
ad ura</w>
ad or
ad mitted</w>
ad ap
actu ales</w>
activi dad</w>
aco stum
acc used</w>
acab ar</w>
ac y</w>
ac ular</w>
ac t</w>
ac edonia</w>
ac al
aburri rse</w>
absur d</w>
absolu t</w>
absol ut
abier to</w>
ab st
ab legen</w>
a ven
a th
a jo</w>
Zigaret ten</w>
Zigaret ten
Zeit raum</w>
Z weiten</w>
Z wei
Z ur</w>
Z ur
Z eu
Z eh
Z ah
Yor ker</w>
X I
XI X</w>
Wissenschaft ler</w>
We 're</w>
W est</w>
W eit
Vor sitzende</w>
Vi elleicht</w>
Vertre ter</w>
Vertei digung</w>
Verk auf</w>
Verfas s
Ver sammlung</w>
Ver letz
Ver kauf
Ver gleich</w>
Ver bün
Ver bin
Unter such
Unter schiede</w>
Un sere</w>
Un der</w>
Um gebung</w>
Um frage</w>
U hr</w>
U d</w>
U crania</w>
Türk ei</w>
Tä tigkeit</w>
Tor y-
Ther efore</w>
Ther e's</w>
Th us</w>
Temperatur en</w>
Teh ran</w>
Teh erán</w>
Teh eran</w>
Ta j
T ut
T r
T ages</w>
T ad
T O</w>
Sü d
Sz enen</w>
Städ ten</w>
Stre et</w>
Straßen klasse</w>
Statisti k</w>
Stad t
St atus</w>
Spi eg
Spen den</w>
Son n
Soci edad</w>
Sicher heits
Si empre</w>
Sh aria</w>
Servi ce</w>
Sen ator</w>
Sci enti
Schwi erigkeiten</w>
Schwer elosigkeit</w>
Schwarz markt</w>
Schmer zen</w>
Sch u
Sch rit
Sch ekel</w>
Sch aria</w>
Satur day</w>
Sam stag</w>
Sa che</w>
S ólo</w>
S ti
S port
S ovi
S he</w>
S eñ
S ea</w>
S at
S C
Rom an</w>
Rich ard</w>
Ri cht
Res earch</w>
Regi ón</w>
Reg isse
Reg el
Raumfahr t
Rak ieta</w>
Rak eten</w>
R adi
R M</w>
Prü fung</w>
Proje kte</w>
Program m</w>
Pro vin
Pro statakre
Privatkap ital</w>
Prinzi p</w>
Poli tiker</w>
Pol and</w>
Po ten
Pl an</w>
Parlam ent</w>
Par ece</w>
Palestini an</w>
Pa pi
P or
Organ iz
On ly</w>
Observ atory</w>
Observ atori
O der</w>
Nor way</w>
Nor te</w>
Nie der
Net anjah
Neb ulosa</w>
N ob
N ationen</w>
Müslü mov</w>
Mög lichkeit</w>
Mu si
Mu chos</w>
Mor e</w>
Mo st</w>
Militä rangehö
Mig ration</w>
Meteor-1 A</w>
Meteor- 2</w>
Menschen rechte</w>
May or</w>
May be</w>
Mat eri
M äd
M and
M ag
M acedonia</w>
Liber alen</w>
Leit er</w>
La w</w>
L ohn</w>
L aut</w>
L am
Kö nig</w>
Kur zem</w>
Kun st
Kri min
Konz erte</w>
Kon kurren
Kom mission</w>
Kol legen</w>
Kin dern</w>
Kar riere</w>
Kampag ne</w>
K örper
K ä
K ranken
K eck</w>
Jude a</w>
Jedličk ův</w>
Jedličk a-
Jed licka</w>
Je der</w>
Jap an</w>
Janu ary</w>
Jahrhunder ts</w>
Jahr zeh
J ust</w>
J ud
J i
J CR</w>
Islam ists</w>
Ira k</w>
Intern et
Inter nacional</w>
Inter esse</w>
In stru
In migración</w>
Ihr er</w>
Identi t
I' d</w>
I ts</w>
Höhen lagen</w>
Hym ne</w>
Ho ffnung</w>
Hin sicht</w>
Hin blick</w>
Higg s-
Her r
Her manos</w>
Hei m
Hamas -
H ouse</w>
H eute</w>
H ead</w>
H e's</w>
Gren zen</w>
Gra d</w>
Gr and</w>
Govern ment</w>
Gewerk schaften</w>
Gesetz en</w>
Ges icht</w>
Geri cht
Gener al</w>
Gel d
Geh ei
Geg en
Gef ahr</w>
G ran
G ouver
G olf
Führ ungs
Funk tion</w>
Freit ag</w>
Fran zösi
Fran cia</w>
Fr ü
Fl orida</w>
Famili e</w>
Fahr er</w>
Fahr bahnen</w>
F ällen</w>
F alle</w>
F ak
Exist enz</w>
Ex tranjeros</w>
Est á</w>
Est im
Ereig nisse</w>
Er fol
Entschei dung</w>
Energ ie</w>
Ein wohner</w>
ES O</w>
E se</w>
E ing
E -
Durch messer</w>
Dur ch</w>
Dro gen</w>
Dokum ente</w>
Direc tor</w>
Deschamp s</w>
Der echos</w>
Demo kratie</w>
Dem ocratic</w>
Dec ember</w>
D utz
D rivers</w>
D an
D a</w>
Comi sión</w>
Col or
Cha os</w>
Cent ro</w>
Cent er</w>
COSPA R</w>
CI A</w>
C oo
C au
C ada</w>
C L
Bürger meister</w>
Bü cher</w>
Bundes staat</w>
Brus sels</w>
Bran che</w>
Br üssel</w>
Bohemi an</w>
Boeken berg</w>
Bo tschaft</w>
Bitco ins</w>
Bis her</w>
Bil dung</w>
Bibliothe k</w>
Bezir ks
Besch werden</w>
Bes uch</w>
Bereit s</w>
Behin derungen</w>
Beg in
Befür wor
Bed ingungen</w>
Be zug</w>
Be ispielsweise</w>
B undestag</w>
B re
B or
B el
B as
B ab
Aus wirkungen</w>
Au to
As sociation</w>
As sembly</w>
Archit ek
Ander erseits</w>
Ander e</w>
An zahl</w>
An tes</w>
An teil</w>
An kl
Am érica</w>
Algun os</w>
Al le</w>
Al ex
Afri can</w>
Ac adem
Ab end</w>
A utor</w>
A sia</w>
A re</w>
A bo
9 0</w>
7 5</w>
4 6</w>
3 D</w>
3 2</w>
199 0</w>
196 0</w>
19 th</w>
19 8
1 7%</w>
1 2
0 th</w>
0 's</w>
- jährige</w>
- J
' ll</w>
š varc</w>
Ş irali</w>
ř í</w>
ď a</w>
Č ervenohor
Červenohor ské</w>
ütz t</w>
ür de</w>
ün f
ück en</w>
übertrag baren</w>
über nehmen</w>
ü r</w>
ü ll
ü edad</w>
ü bt</w>
ölk er
óni mo</w>
ístic a</w>
íni ce</w>
í blic
én d
énd um</w>
éc tri
éc adas</w>
é tico</w>
é lites</w>
é l
é al</w>
äuß ert</w>
ästin ensi
ästinensi schen</w>
äl fte</w>
äh igkeit</w>
ä st
ä re</w>
ä le</w>
ä he</w>
ä ft</w>
ä cht
áni mo</w>
ánd al
án tica</w>
á ďa</w>
á ticas</w>
á tica</w>
á stic
á mica</w>
á li
á k</w>
á frica</w>
É ste</w>
É sta</w>
Ä rz
¿ Ten
¿ O</w>
¿ No</w>
¿ H
° C</w>
zü glich</w>
zäh lige</w>
zweif ellos</w>
zw angs
zwangs läufi
zwangsläufi g</w>
zurückge kehrt</w>
zun ächst</w>
zun eh
zug äng
zu vor</w>
zu fri
zer stör
zei tige</w>
zahl reiche</w>
z usammen
z one</w>
z es</w>
z entr
z ene</w>
z ada</w>
z a
ym ous</w>
y m</w>
y i
y ente</w>
wu chs</w>
writ ten</w>
wr ong</w>
wr ong
woul dn't</w>
wor fen</w>
wichtig ste</w>
wheel cha
west lichen</w>
wer fen</w>
wen ige</w>
well en
wel cher</w>
wei ght</w>
wei ch
weak ness</w>
we t</w>
wat ch</w>
wal tschaft</w>
wah len</w>
wachsen de</w>
w y</w>
w esen</w>
w ann</w>
w and</w>
w and
w an
w ahren</w>
völ lig</w>
vorher igen</w>
vorbereit et</w>
vor zu
vor han
vorhan den</w>
vor aus
volu me</w>
vo tó</w>
vo ter</w>
vo cab
vocab ul
vivi do</w>
visi ta</w>
vier no</w>
viaj es</w>
vi gil
vi erten</w>
vi e</w>
vi das</w>
vi a</w>
verur sa
versu che</w>
versich ert</w>
verschied ener</w>
vers prochen</w>
verring ern</w>
vermu tlich</w>
verkauf en</w>
verhin dern</w>
verfü gen</w>
verdi enen</w>
ver ändern</w>
ver wendet</w>
ver treten</w>
ver th
verth eless</w>
ver stär
ver stor
ver stehen</w>
ver sión</w>
ver dad</w>
vent ure</w>
ven ue</w>
ven der</w>
ven de</w>
ve au</w>
v ín
v ían</w>
v os</w>
v est
v eg
v ac
utiliz ar</w>
utiliz ado</w>
ut ch</w>
usu arios</w>
usu ario</w>
us ers</w>
us e
us able</w>
urban o</w>
ur z</w>
ur ts
ur sprün
unter schei
uni versal</w>
uni ons</w>
ungs st
ungs los</w>
uneingesch ränkt</w>
under stood</w>
un zählige</w>
un t
un like</w>
un ity</w>
un gewöhn
un ge
un ds</w>
un comfortable</w>
un ately</w>
um geben</w>
ul ación</w>
ud áfrica</w>
u pon</w>
u g
u es</w>
u chte</w>
u bi
tí pic
términ os</w>
tz t</w>
two -
twi ce</w>
ture llen</w>
tu des</w>
ts ächlich</w>
tro u
tro pas</w>
tre ffen</w>
transpor te</w>
transat lan
tran si
tradi tional</w>
trabaj ando</w>
tra tado</w>
tra ining</w>
tra g</w>
tr éal</w>
tr ág
tr on
tour ists</w>
tor y</w>
tor way</w>
tivit äten</w>
tiv as</w>
tig ung</w>
tien da</w>
ti tle</w>
ti ger</w>
ti embre</w>
ti da</w>
thro w</w>
ther ed</w>
ther eby</w>
the at
theat re</w>
th ou
thou ghts</w>
th ic
thic k</w>
th at's</w>
terror istas</w>
territ ory</w>
ter rá
ter cer</w>
teni dos</w>
ten drá</w>
temperatur as</w>
temperatur a</w>
teléfon o</w>
teles k
te ci
te atro</w>
tar ía</w>
tar á</w>
tan gi
ta p</w>
ta ined</w>
t ú
t ö
t é</w>
t äu
t ora</w>
t ni
t ausende</w>
t aly
taly sh
sí fi
sífi li
sífili s</w>
symbo li
sus p
surro unding</w>
surro unded</w>
sur vive</w>
sur ge</w>
suppor ters</w>
super ior</w>
sup p
sum mer</w>
success ful</w>
succe ed</w>
sub vención</w>
sub st
su ff
su eñ
sueñ o</w>
su ele</w>
su cio</w>
stütz ung</w>
stär ker</w>
stär k
studi es</w>
strugg le</w>
stren ger</w>
stran ge</w>
stra h
stra frecht
str ö
stop ped</w>
stim mt</w>
stim men</w>
stic e</w>
stell ten</w>
stat e's</w>
star ía</w>
star ting</w>
star ke</w>
stand s</w>
stand ard</w>
stam mt</w>
st ück
st y</w>
st ill
still stand</w>
st ieg</w>
st ers</w>
st ei
st ati
stati stic
st ated</w>
st ab
spor ts</w>
spok esman</w>
special ist</w>
sp here</w>
sp end</w>
sor gen</w>
son gs</w>
sol ve</w>
sobre vivir</w>
so und</w>
so spe
so genann
so br
sm elly</w>
sm ell</w>
sligh tly</w>
sle ep</w>
siv ely</w>
siti o</w>
simil ares</w>
sili en</w>
signifi can
significan t</w>
sid ents</w>
sic ología</w>
si ven</w>
si mul
si lla</w>
si g</w>
si eren</w>
si ente</w>
si ch
shoul ders</w>
sho ck</w>
shel ves</w>
sh ops</w>
sh ar
serv es</w>
ser ver</w>
ser krank
sens ación</w>
sen si
sen se</w>
sen ator</w>
sei lle</w>
sed lo</w>
secre t</w>
sech s
sec urity</w>
sec tion</w>
sear ch</w>
se par
se p
sep tiembre</w>
se an</w>
scre en</w>
scienti sts</w>
schwi er
schwer en</w>
schri ften</w>
schri ft</w>
schri eb</w>
schie den</w>
schein lich</w>
schau en</w>
sch ön</w>
sch är
sch warzen</w>
sch te</w>
sch lu
sch lagen</w>
sch k
sch es</w>
sc ene</w>
sat z
sal aries</w>
s y
s per
s mus</w>
s man</w>
s lo</w>
s gesellschaft</w>
s ells</w>
s car
s aying</w>
s atis
satis f
s ang
s ahen</w>
s age</w>
s af
s ados</w>
s -F
rück sichts
rö mischen</w>
ró le
róle o</w>
ré di
rän en</w>
run ning</w>
ru ft</w>
rode a</w>
ro ff
ro c
ritu al</w>
ris ks</w>
ri ó</w>
ri gh
ri gen</w>
ri cos</w>
ri co</w>
ri c</w>
reuni r</w>
retur ned</w>
ret ten</w>
ret te</w>
restric tion</w>
restr ing
resp ecta</w>
resol ver</w>
res ort</w>
requ est</w>
republikan ische</w>
represent atives</w>
religi ous</w>
reli eved</w>
relativ amente</w>
rei b
regu li
regist rar</w>
regi ons</w>
regi erung</w>
reg re
refu gi
refi eren</w>
refer éndum</w>
refer endum</w>
redu cido</w>
recuer do</w>
recuer da</w>
recre ativo</w>
recor rer</w>
recor ded</w>
reconoci miento</w>
reconoc er</w>
recom mend</w>
recib ía</w>
reci bir
recht ler</w>
rech n
rechn ungsh
realiz ado</w>
reach ing</w>
re sume</w>
re stri
re signed</w>
re si
re pública</w>
re plac
re pl
re pe
re member</w>
re medio</w>
re ich</w>
re for
re den</w>
re chts</w>
re action</w>
raí z</w>
rami enta</w>
rais ed</w>
ra ted</w>
ra ging</w>
ra ci
ra chten
rachten s</w>
r ün
r uso</w>
r ors</w>
r ones</w>
r i</w>
r ho
rho ea</w>
r ero</w>
r eras</w>
quiz ás</w>
qued ado</w>
qu ía</w>
qu ina</w>
qu in
puer tas</w>
pue do</w>
public ado</w>
pu tting</w>
pu ed
pued an</w>
pu di
prác ticamente</w>
proz ess</w>
provo car</w>
provisi onal</w>
provi ded</w>
prot esta</w>
prot est
prot egi
prot ected</w>
propor cion
pron unci
pron to</w>
prome tido</w>
produ ce</w>
proced entes</w>
proced ente</w>
proc essing</w>
prob ar</w>
pro ven</w>
pro state</w>
pro puestas</w>
pro pios</w>
pro met
pro gno
pro be</w>
priv ada</w>
pri ority</w>
pri oridad</w>
pri ce</w>
prev é</w>
present ó</w>
present an</w>
present ado</w>
pres sion</w>
prepar ing</w>
prepar ados</w>
pre vent
pre st
pre para</w>
pre mi
pre -
pp en</w>
pover ty</w>
poten cia</w>
post erior</w>
post eri
posi tiv</w>
posi tion
por tra
por cent
pon ía</w>
pon ents</w>
pollu elos</w>
politici an</w>
po puli
po lit
po cas</w>
po bres</w>
play ed</w>
plat os</w>
plan ets</w>
plan etas</w>
pl eno</w>
pl anned</w>
pie zas</w>
pic tures</w>
pi egel</w>
pi ed
pi dió</w>
physic s</w>
photogra ph</w>
ph y</w>
ph ilosoph
pf lanz
pf er</w>
pf el</w>
pet róleo</w>
pet enzen</w>
pes or</w>
perspec tive</w>
permi tido</w>
per fe
per dió</w>
per der</w>
per ci
pay ment</w>
pay ing</w>
pat h</w>
pas sen</w>
pas sed</w>
pas sable</w>
partí cula</w>
particip ación</w>
parti ci
parti ally</w>
par lamento</w>
par all
par al
par a
paqu et
paquet ado</w>
pantal la</w>
palab ra</w>
pal ästinensischen</w>
pal ity</w>
pag an</w>
pack ungen</w>
p uso</w>
p sycholog
p ran
p per
p ilo
ovi č</w>
out come</w>
our t</w>
os sen</w>
os at
ori ums</w>
ori os</w>
organiz ar</w>
organisi ert</w>
organis mo</w>
oport unidad</w>
op ponents</w>
onal er</w>
on teci
on line</w>
on io</w>
on entes</w>
on ed</w>
on as</w>
om s</w>
om i
om ent</w>
olog ie</w>
ol vi
ol s</w>
ol l</w>
ofrec er</w>
ofici almente</w>
offizi ell</w>
off enen</w>
of rece</w>
ocur re</w>
oc ta
oblig atorio</w>
oblig ado</w>
oblig a</w>
obj etos</w>
obj ects</w>
ob ras</w>
ob ra</w>
o- N
o y</w>
o v
o st
o sidad</w>
o ks</w>
o grá
o gra
o e</w>
o dio</w>
o des</w>
o 's</w>
näh er</w>
näch ste</w>
nutz en</w>
noru eg
norueg os</w>
nom bres</w>
no ticias</w>
no tes</w>
no te</w>
niñ as</w>
ni poplatky</w>
ni e
neu r</w>
neu er</w>
neigh bo
neh mer</w>
negoci os</w>
nego cio</w>
ne v
ne o</w>
nat ure</w>
naci miento</w>
naci do</w>
nach dem</w>
n ische</w>
n ine</w>
n ete</w>
n ation</w>
n as
n amen</w>
n ad
n ación</w>
müs se</w>
míni mo</w>
mäß ige</w>
má xim
má quina</w>
mur i
muni cipal</w>
mu tual</w>
mu si
mp tom
mosp häre</w>
monit oring</w>
moder nen</w>
mod els</w>
mo s
mix ed</w>
mitt lerweile</w>
mit ät</w>
mis sing</w>
mir rors</w>
min u
min d</w>
mil k</w>
mi um</w>
mi g
mi cos</w>
mi co</w>
metro polit
met eor
mer t</w>
mer cial</w>
ment en</w>
ment ator</w>
ment 's</w>
men tion</w>
men tiert</w>
men su
men s</w>
men or</w>
mel den</w>
mej ora</w>
medizin ischen</w>
me ant</w>
may o</w>
mat ters</w>
mat ches</w>
manufactur er</w>
manifi esto</w>
manifest ación</w>
mani pul
man n</w>
man de
man aged</w>
ma ß
m ó
m än
m ein
m eda</w>
m ec
m atic</w>
m ala</w>
lü gen</w>
läu tert</w>
län dern</w>
lu stra
lu e</w>
long -
long- term</w>
lob by</w>
lo y
lo ws</w>
lo v</w>
lo sigkeit</w>
lo ons</w>
lo gra
logra r</w>
lo ad</w>
lleg ó</w>
ll ed</w>
ll amente</w>
liz enz
lin ks</w>
limit s</w>
limit ar</w>
lik ewise</w>
ligen ce</w>
lie f</w>
lich st</w>
liam ent</w>
li ten</w>
li sta</w>
li alen</w>
lev els</w>
ler nen</w>
lei dung</w>
legi ti
lear n</w>
le y
le che</w>
le ads</w>
le a
law yers</w>
lau b
lat est</w>
lar ga</w>
land s
lan ger</w>
lam in
l ten</w>
l es
l eng
leng th</w>
l ect
l ados</w>
künst lich</w>
kur z</w>
kul turellen</w>
ks giving</w>
kre bs</w>
kr ise</w>
kov nipoplatky</w>
konzentri eren</w>
konserv ativen</w>
ko va</w>
ko sten</w>
kl ingt</w>
kl einer</w>
kl agen</w>
ken nen</w>
ke ep
k örper
k ö
k u
k tor</w>
k tions
k o</w>
k le</w>
k eln</w>
jur í
jun ge</w>
jug adores</w>
jud ío</w>
jud ge</w>
ju ez</w>
ju di
join t</w>
je des</w>
j uni
j eron</w>
j enen</w>
j ar
j am
itz t</w>
itect ura</w>
it et</w>
it er</w>
it ario</w>
it als</w>
islam ista</w>
islam ist
is ed</w>
is ches</w>
ir ía</w>
ir sch</w>
ir s</w>
ir lo</w>
introdu ce</w>
interpre tation</w>
interpre tación</w>
internati onale</w>
interes ante</w>
inter rum
intent ado</w>
inten ded</w>
int eg
institu ción</w>
institu ciones</w>
inst ead</w>
inst an
inst al
insp ectores</w>
insk ay
inskay a-
inskaya- 10</w>
inqui et
inmigran te</w>
ini o</w>
inger ab
ingenier o</w>
influ encia</w>
inf anti
inclu i
inclu de</w>
in vierno</w>
in ti
in si
in men
in ken</w>
in justi
in habit
in en</w>
in dert</w>
in d
in -
impres sion</w>
impl em
imp lica</w>
im prin
im presión</w>
im presion
illeg ale</w>
ill s</w>
ill ing</w>
ileg al</w>
il u
ik istán</w>
ig t</w>
ier ter</w>
identi fic
ic kt</w>
i re
i co's</w>
i chts</w>
i as</w>
hör ung</w>
höh ung</w>
höch sten</w>
hän gt</w>
hunder t</w>
human ity</w>
hu mill
hu mili
hu mano</w>
hu bier
hubier an</w>
hol es</w>
hoff e</w>
hin zu
high -
her steller</w>
her ramienta</w>
her manos</w>
he utzutage</w>
he ads</w>
haup tsächlich</w>
handic app
handicapp ed</w>
hand s</w>
hand lungen</w>
hac erse</w>
habitu al</w>
hab lar
hab i
hab erse</w>
h ú
h ur
h ne</w>
h kova</w>
h inter
h eri
h aus</w>
h ad
gui de</w>
grup pen</w>
gro wing</w>
gro tes
gres sman</w>
gre en</w>
gre at
gr ü
govern or</w>
govern ments</w>
gol pe</w>
gobern ador</w>
glück lich</w>
glob os</w>
gi ves</w>
gh ting</w>
gh an</w>
gewöh nt</w>
gewi esen</w>
gewi cht</w>
gew alt</w>
get reten</w>
gesetz lich</w>
gesell schaftlichen</w>
gesch ickt</w>
gesch af
geri chtet</w>
ger ne</w>
gener aciones</w>
gen res</w>
gen de</w>
gen cy</w>
gemä ß
gemeinnütz ige</w>
gemein sam
gel ungen</w>
gel ten</w>
gel an
gelan gt</w>
geh enden</w>
gegen wär
geg ens
gef angen</w>
gebor enen</w>
geb ühren</w>
geb oren</w>
geb enden</w>
ge plant</w>
ge kauft</w>
galax ies</w>
galax ias</w>
gab eg
gabeg es
g ünst
g s
g entes</w>
g eist
g atorio</w>
g am
g all
füh len</w>
för dern</w>
físi cos</w>
fá cilmente</w>
fur ther</w>
fun dam
fun d-
fund- rais
fu hr</w>
fru it</w>
fronter a</w>
frei en</w>
frecu ente</w>
fre ed
freed om</w>
franc és</w>
fra gt</w>
fra gen</w>
fotograf ías</w>
foreig ners</w>
for ts</w>
for man
fon dos</w>
fon do</w>
fo cus</w>
fl exi
fl es
fles h</w>
fiz iert</w>
fiz ieren</w>
fir ma</w>
financi ación</w>
fin e</w>
fin almente</w>
fin ally</w>
fic ti
fi xi
fi gu
fi ghting</w>
fi f
fi ce</w>
fi can</w>
fer encia</w>
feh len</w>
feb rero</w>
fe es</w>
fe ed</w>
fe der
fam osa</w>
fal se</w>
fal schen</w>
fail ure</w>
fahr ung</w>
fac to</w>
f ps</w>
f om
extranj eros</w>
expres ado</w>
expl ain</w>
experi encia</w>
exper to</w>
ex tor
ex cel
excel ente</w>
ex ag
evid ente</w>
eval u
eu ten</w>
eu erung</w>
eu er</w>
etz ung</w>
et ten</w>
et o's</w>
et 's</w>
están dar</w>
estim ated</w>
esti c</w>
estat ales</w>
est ilo</w>
est aría</w>
est ará</w>
est anter
estanter ías</w>
est ad
ess ed</w>
esper ar</w>
esper an</w>
especi alizado</w>
espe kt</w>
espe jos</w>
esp ec
esfuer zos</w>
esc lav
esc ena</w>
esc al
es pesor</w>
es hkova</w>
es encia</w>
es con
escon de</w>
es '</w>
ern ähren</w>
ern st
ermor det</w>
erle bt</w>
erlau bt</w>
erklär en</w>
erken nung</w>
erinn ert</w>
erhöh te</w>
er ía</w>
er schien</w>
er neu
er läutert</w>
er kannt</w>
er ie</w>
equip amiento</w>
enz os</w>
entr y</w>
entor no</w>
ent würfe</w>
ent spricht</w>
ent rum</w>
ent reg
ent ina</w>
ent ender</w>
ent as</w>
ens ure</w>
ens oren</w>
engine er</w>
enfr enta</w>
end lich</w>
encuent ren</w>
enag er</w>
en ischen</w>
en heit</w>
en gen</w>
en for
en ess</w>
en dia</w>
en able</w>
empez ó</w>
empe zar</w>
emo tional</w>
embaj ada</w>
em por
em pi
em paquetado</w>
ell ent</w>
ell ed</w>
eli te</w>
elem entos</w>
electromagn ético</w>
elector ales</w>
elect ric</w>
elec ción</w>
el éctri
el ter
el es</w>
el ds</w>
ek toren</w>
einfa chen</w>
einfa che</w>
ein heit</w>
ein deuti
ei ved</w>
ei chen</w>
ed ing</w>
ed ens
eci ó</w>
easi ly</w>
ear s</w>
e ye</w>
e o</w>
e fre
e de</w>
e at</w>
e ase</w>
e ar</w>
du ty-
du do
drück en</w>
dro pped</w>
dri ve</w>
dr ängt</w>
dr ängen</w>
dor mir</w>
don ations</w>
don aciones</w>
dom estic</w>
doll ars
dollars /
dollars/ hour</w>
dn is</w>
distr ito</w>
dis posi
dis fru
direc tora</w>
direc to</w>
direc tly</w>
direc t</w>
dire kt</w>
dipu tado</w>
diplom ati
dig keit</w>
dificult ades</w>
difficul ty</w>
difficul ties</w>
differ ence</w>
dien st</w>
di vers
di stin
di scher</w>
di sche</w>
di enen</w>
di das</w>
di chos</w>
di ab
determin ar</w>
det eri
det er</w>
desig ner</w>
desig ned</w>
desenc aden
desc en
des per
des er
der schaft</w>
der ly</w>
der echa</w>
depen diente</w>
den unci
demu estran</w>
dem ocrático</w>
dej aría</w>
def ender</w>
dedic ados</w>
dedic ado</w>
deci de</w>
dec kung</w>
deber á</w>
deb ía</w>
de lic
de ep</w>
dar y</w>
dar se</w>
dar m
dan k</w>
dam als</w>
dam age</w>
da y's</w>
da fri
da chte</w>
d ó</w>
d écadas</w>
d op
d lichen</w>
d agegen</w>
cámar a</w>
cumpli r</w>
culp ables</w>
cul ta</w>
cuer po</w>
cu red</w>
cu bri
cu ales</w>
cruci fixi
cri tics</w>
cre ada</w>
cour ts</w>
coun tr
cosmon aut</w>
cos mos</w>
cos mic</w>
correc ta</w>
convers ación</w>
conver tido</w>
conven i
contro lar</w>
contro la</w>
contr aria</w>
cont ag
constru yó</w>
const antemente</w>
consider an</w>
consider ado</w>
consider adas</w>
conserv adores</w>
consecu encias</w>
conoci miento</w>
confir ms</w>
confir med</w>
confir mar</w>
confi dence</w>
concre tamente</w>
conclu sión</w>
concer ns</w>
con vierte</w>
con junto</w>
con du
con dado</w>
con curso</w>
con cierto</w>
comun ic
complic ated</w>
complet amente</w>
comparativ ely</w>
comi sión</w>
comer cial</w>
comenz ó</w>
comb at</w>
com mon</w>
com mercial</w>
com fort</w>
col our</w>
col lege</w>
co ste</w>
co pa</w>
co her
co cin
co che</w>
clos ed</w>
cla ve</w>
ck y</w>
ck et</w>
ck e</w>
civi li
cir c
cin emat
cigar ettes</w>
cifr as</w>
ci ting</w>
ci elo</w>
ci almente</w>
chten berg</w>
cht el
chines ischen</w>
che ap</w>
char ts</w>
char ac
chang ing</w>
cha in</w>
ch ter
ch ol
ch ing</w>
ch inas</w>
certific ates</w>
certa inly</w>
cercan o</w>
cer e
centi metres</w>
ce ase
cease fire</w>
caus ing</w>
cau ght</w>
cated rático</w>
cat s</w>
cas h</w>
care ful</w>
care er</w>
car go</w>
car acter
car a</w>
capaci ty</w>
cap tured</w>
canc ers</w>
canadi enses</w>
can ción</w>
can cer
can 't</w>
cab eza</w>
ca os</w>
c rédi
c ing</w>
c ell</w>
c alls</w>
c alle</w>
c af
bu yer</w>
bro ad
bre ak</w>
bran ds</w>
bra uchen</w>
br ing
bos ons</w>
bos ones</w>
bo hem
bo den</w>
blic kt</w>
blic al</w>
ble -
bl äh
bl au
bl as
bir gt</w>
bil det</w>
bi en
bi da</w>
bi blical</w>
bet ri
best ra
best ehen</w>
besser ung</w>
besonder en</w>
beschäf tigt</w>
besch reibt</w>
bes ucht</w>
bes etz
bereit et</w>
ber t</w>
ber ia</w>
ber ater</w>
benef its</w>
bem ühen</w>
bel ast
beit ragen</w>
behaup ten</w>
behand eln</w>
beg in</w>
beg annen</w>
bec om
beau ty</w>
beam te</w>
be züglich</w>
be zeichnet</w>
be zeichnen</w>
be lieb
be kommen</w>
be fassen</w>
bar reras</w>
bar atos</w>
ban anas</w>
bal loons</w>
bab y</w>
ba ño</w>
ba sta</w>
ba sis</w>
ba sic</w>
ba sic
b íblic
b ruch</w>
b ou
b ist</w>
b emer
añ a</w>
az go</w>
av es</w>
auto bús</w>
aus wirken</w>
aus setzung</w>
aus schließlich</w>
aus sch
aus piel
aus gestellt</w>
aul i</w>
au ßen</w>
att acked</w>
atra p
atmosp here</w>
ati onal
at titu
at s</w>
at oren</w>
at er
at ch</w>
at as</w>
at al</w>
at a
asun to</w>
ast ic</w>
aseg ura</w>
as sung</w>
as sume</w>
arti fici
arri ved</w>
arqu itectura</w>
ari an</w>
ari al</w>
argu e</w>
archa e
arch it
arab ische</w>
ar rest
ar re
ar ista</w>
ar ist</w>
ar f</w>
appoin tment</w>
applic ations</w>
appear ance</w>
apar tment</w>
apar theid</w>
apar i
ap pro
ap ons</w>
ap aci
antigu o</w>
antigu as</w>
anter i
ant age</w>
anschließ end</w>
ann ing</w>
anges ichts</w>
angeg riffen</w>
ange kommen</w>
analysi ert</w>
an ía</w>
an sehen</w>
an i</w>
an en</w>
an de</w>
amen aza</w>
am t</w>
am in</w>
all i</w>
all gem
all eg
aliment ación</w>
aleman as</w>
al tura</w>
al tet</w>
al tern
al tas</w>
al isten</w>
al ing</w>
al eg
ak tive</w>
ak ov</w>
ak ed</w>
aj es</w>
ah men</w>
agu j
agu as</w>
ag te</w>
ag rad
ag enda</w>
ag enci
ag an</w>
afir man</w>
aff ung</w>
aff ected</w>
adv antage</w>
adul tos</w>
adop ted</w>
adol esc
ado w</w>
adelant ado</w>
ad qui
ad ora</w>
acus ado</w>
actu alidad</w>
activi dades</w>
acostum br
achi eved</w>
acep te</w>
acep tan</w>
acces sible</w>
acc ess</w>
ac udi
ac tive</w>
ac tiva</w>
ac ted</w>
ac qu
ac onteci
ac om
ac knowled
ac ados</w>
aburri do</w>
absolu to</w>
absolu te</w>
abri l</w>
abor dar</w>
abog ados</w>
abl eh
abi lidad</w>
abhän g
ab geschlossen</w>
ab gel
a imed</w>
a im</w>
a il</w>
a id</w>
a ero
a cht
Zlat an</w>
Zi vil
Zentral ban
Z elle</w>
Z eiten</w>
Y our</w>
Währ ungen</w>
Währ ung</w>
Woh n
Wirt schafts
Wirt schaft
Wir d</w>
Wh ich</w>
Wettbewer b</w>
Weltraum teleskop</w>
Weltra um</w>
Webse iten</w>
We apons</w>
War um</w>
Wahr heit</w>
Wah l</w>
Waffen stillstand</w>
W ürde</w>
W ladimir</w>
W ill</w>
W all</w>
Vor schlag</w>
Vor aussetzung</w>
Vol vo</w>
Vol ks
Vier nes</w>
Vi sionen</w>
Vi rus</w>
Vertei dig
Verstän dnis</w>
Verbin dung</w>
Verantwor tung</w>
Ver än
Ver gabeges
Ver fahren</w>
Ver brechen</w>
Ver besserung</w>
Ver anstalt
V ia</w>
V an</w>
Ur spr
Unter stützung</w>
Um lauf</w>
US- amerikanischen</w>
US- amerikanische</w>
U sti</w>
U l
Turk men
Turk ey</w>
Tur quía</w>
Trifi d</w>
Tra chtenberg</w>
To day</w>
The ater</w>
That 's</w>
Than ksgiving</w>
Th emen</w>
Ter ror
Ter eshkova</w>
Telesk ops</w>
Telesco pio</w>
Te enager</w>
Tay ikistán</w>
Taly schen</w>
T ränen</w>
T rup
T oler
T ex
T echni
T atsächlich</w>
T al</w>
T age</w>
T V</w>
Sü dafri
Svit avy</w>
Su p
Städ te</w>
Straßen meistereien</w>
Straßen bau
Stim men</w>
Stim me</w>
Stern bild</w>
Ster ne</w>
Staatsan waltschaft</w>
Staats bürger
St ör
St one</w>
St ellen</w>
St ell
St art
Spit zer-
Spieg el
Spi r
Spi el</w>
Spe zi
Son de</w>
Soci ety</w>
Sicher heit</w>
Si beria</w>
Sh am
Sen at</w>
Selbst mor
Sebel ev</w>
Schwarz geld</w>
Sch wä
Sch wellen
Sch uld</w>
Sch nur</w>
Sch l
Sch auspiel
ST Is</w>
ST I</w>
SC C</w>
S í</w>
S varc</w>
S udáfrica</w>
S ra</w>
S ho
S ha
S ek
S econ
S ec
S ar
S and
S S
S M</w>
Ru bel</w>
Ro tter
Ro t</w>
Regier ungs
Regier ungen</w>
Reg u
Rech ts</w>
Rech te</w>
Rec ently</w>
Re is
Re fer
Re ci
Re aktionen</w>
Rau cher</w>
R ing</w>
R espekt</w>
R en
R ahmen</w>
R AN</w>
Q atar</w>
Pushk inskaya-10</w>
Psycholog ie</w>
Präsident en
Provin z</w>
Privatkap itals</w>
Pra vo</w>
Pr á
Pol y
Po st</w>
Plan ck</w>
Physi ker</w>
Pf lege</w>
Per son
Pe king</w>
Par tido</w>
Par is</w>
Palli ative</w>
Palest ine</w>
PS A</w>
P unkten</w>
P sicología</w>
P on
P flicht</w>
P auli</w>
Organiz ación</w>
Observatori um</w>
Observ atorio</w>
Obje kte</w>
ON G</w>
O tros</w>
O thers</w>
O st
O pfer</w>
O m
O hne</w>
Nu estra</w>
Norw egi
Norw ay's</w>
Norm almente</w>
Nor den</w>
Ni eto's</w>
Neg ro</w>
NK U</w>
NA TO</w>
N utz
N ur</w>
N ev
N eben</w>
N asa</w>
N am
Muse en</w>
Mor gen</w>
Mon tréal</w>
Mo un
Mo del</w>
Mit arbeitern</w>
Min dest
Militärangehö rige</w>
Mi o</w>
Mex ico's</w>
Meteor- 2
Mein ungs
Mein ungen</w>
Mehr heit</w>
Mas se</w>
Mas chine</w>
Mar seille</w>
Mar s</w>
Mar ken</w>
Man agement</w>
Makaro v</w>
Ma y</w>
Ma x</w>
Ma i</w>
M är
M oment</w>
M es
M ei
M ehr</w>
M c</w>
M aler</w>
Luft ball
Lie der</w>
Lebens mittel
Le ague</w>
Lab or</w>
L öhne</w>
L áďa</w>
L ob
L o
L iz
L iste</w>
L euten</w>
L et's</w>
L eist
L ater</w>
L as
L agen</w>
Krieg s
Kreb sgesellschaft</w>
Kreb serkrank
Krank heiten</w>
Kor an</w>
Konkurren z</w>
Konfli kt</w>
Kon tak
Kon serv
Kon gres
Kom petenzen</w>
Kn ínice</w>
Kl ein
Kis lov</w>
Kap ital</w>
Kan di
K ürz
K ämp
K och</w>
K leidung</w>
K h
K au
K ameras</w>
Ju gendlichen</w>
Ju den</w>
Ji ří</w>
Jes en
Je ws</w>
Jahr es</w>
J or
J oe</w>
J a</w>
Islam ist</w>
Ir on</w>
Intern ationalen</w>
Intern ational</w>
Inter pre
In st
In s
In dia</w>
In deed</w>
Il lustra
Identit ät</w>
Ide en</w>
I' ve</w>
I mag
I -
Händ ler</w>
Hol y</w>
Hist ory</w>
Hist oria</w>
Higgs- Boson</w>
Her odes</w>
Haupt stadt</w>
Hamas 's</w>
H älfte</w>
H om
H it
H is
H irsch</w>
H inter
H ier
H eld</w>
H au
Gre at</w>
Gr öße</w>
Gouver neur</w>
Ges am
Ger uch</w>
Gemein den</w>
Gehei m
Geg ner</w>
Gefüh l</w>
Gef ängnis</w>
Geb äu
Ge w
Ge is
Ge biet</w>
Gaz ast
Gast arbeiter</w>
G ot
G one</w>
G las
G l
G esten</w>
Führ ung</w>
Führ er</w>
Föder alen</w>
Fu ß
Fri edens
Fran ce</w>
Fr üher
Fortschrit te</w>
Forsch ungen</w>
For m
Fi lialen</w>
Febru ary</w>
Febru ar</w>
Fe der
F ördergelder</w>
F und</w>
F leisch</w>
F ingerab
F estival</w>
F est
Europä ische</w>
Europe o</w>
Est atal</w>
Est as</w>
Es sen</w>
Er st
Er klärung</w>
Er höhung</w>
Er d
Ent onces</w>
En try</w>
Ein richtung</w>
Egypti ans</w>
Ear th</w>
ET S</w>
E very</w>
E t
E rachtens</w>
E liten</w>
E hr
E h
Durch schnitt</w>
Durch führung</w>
Dre hor
Doll ars</w>
Do es</w>
Di re
Di kt
Deut sche</w>
Des pite</w>
Den noch</w>
De par
De li
De f
Da zu</w>
Da für</w>
D utch</w>
D ue</w>
D u</w>
D ra</w>
D et
D em</w>
D eb
D at
Coun ty</w>
Constitu ent</w>
Com mission</w>
Chin esen</w>
Cha irman</w>
Ch ef</w>
Ch ampions</w>
C é
C ourt</w>
C lub</w>
C entre</w>
C are</w>
C an</w>
C al
Bürger rechtler</w>
Bur ger</w>
Bu endia</w>
Bu ch</w>
Brus elas</w>
Bo th</w>
Bo t
Bo sonen</w>
Bo ard</w>
Beweg ung</w>
Besch äf
Bes onder
Ber lin</w>
Ber ater</w>
Beit rag</w>
Begin n</w>
Befürwor ter</w>
Bed enken</w>
Be weise</w>
B le
B is</w>
B in
Azerbai jan</w>
Av ant
Australi en</w>
Aust ausch</w>
Aus leg
Auf lösung</w>
Au ge</w>
At mosphäre</w>
Astron áutica</w>
Astron autics</w>
Aserbaidsch ans</w>
Ar ten</w>
Ar t-
Ar my</w>
Ar mut</w>
Appi an</w>
Antwor t</w>
Ant onio</w>
Angel ovič</w>
An walt</w>
An sichten</w>
An nahme</w>
An hörung</w>
An erkennung</w>
An deren</w>
Amts zeit</w>
Af ghan</w>
Abo ve</w>
A id
2 7
2 4
1 000</w>
-J ährige</w>
​ ​
Šum perk</w>
Šum per</w>
üs sig</w>
üs sel
ür ze</w>
ück si
übri g</w>
überzeu gen</w>
über wiegend</w>
über nahm</w>
über listen</w>
ü ste</w>
ü se</w>
ü ben</w>
últim as</w>
ú til</w>
ú t
út bol</w>
ú car</w>
öffent licher</w>
öffent lich</w>
öff nen</w>
óp timas</w>
ó ximo</w>
ó men
ómen o</w>
ñ a</w>
ín dice</w>
í x
íx eles</w>
í s</w>
í o
í k</w>
ér pre
érpre tes</w>
ér ald</w>
én eros</w>
él è
élè ne</w>
é ticos</w>
é re
é g
ég ie</w>
è re-
ère- des
ère-des -
ère-des- Pra
ère-des-Pra i
ère-des-Prai ries</w>
äu me</w>
äu fe</w>
äst ina</w>
är en</w>
äl testen</w>
äl ter</w>
äl t
ähn elt</w>
ägyp tische</w>
ä ts
ä hi
ähi g</w>
ándal o</w>
ág ri
ágri mas</w>
ác ter</w>
á ticos</w>
á sica</w>
á nea</w>
á menes</w>
á mb
á l</w>
á l
Über reste</w>
Ü bri
Übri gens</w>
Ü bel</w>
É l</w>
¿Cu án
¿ cómo</w>
¿ Por</w>
¿ Po
¿ El</w>
zäh len</w>
zy ck
zusätz liche</w>
zusam mens
zul ú</w>
zul wen
zul ande</w>
zukünf tiger</w>
zufri eden</w>
zu h
zu gute</w>
zu gun
zugun sten</w>
zo la</w>
zip lin</w>
zi vil
zi mier
zimier z</w>
zi elle</w>
zi al</w>
zh ar</w>
zeu gt</w>
zeu gen</w>
zeu g
zeitgenössi sche</w>
ze w
zew ski</w>
zah u
zahu alco
zahualco yo
zahualcoyo t
zahualcoyot l</w>
zad i</w>
zad e
zade h</w>
z weite</w>
z na</w>
z ing</w>
z ieren</w>
z ero</w>
z ens</w>
z em
z ehr
z ech
z ann
zann e</w>
z an</w>
z ación</w>
yst wo</w>
yp en</w>
yo ur
your self</w>
yn th
ynth ia</w>
ym cz
ymcz as
ymczas ow
ymczasow y</w>
ych nov</w>
y so
y p</w>
y one</w>
y no
yno j
y ment</w>
y land</w>
y entes</w>
y endo</w>
y dar</w>
y cz
ycz ne</w>
y ce</w>
y as</w>
x ist
x es</w>
wä s
wäs ser
writ ers</w>
writ e</w>
worl ds</w>
work place</w>
woh nern</w>
woh n
woh l
wo gen</w>
wirt schafts
wirt schaft
win ning</w>
win det</w>
wil lig</w>
wil d</w>
wieder hol
wichti ger</w>
wi fe</w>
wi esen</w>
wi der</w>
wi ch</w>
wh er
wh at
wes entlich</w>
wen dungen</w>
wel chen</w>
weigh ed</w>
weich ungen</w>
we d
we b
we ar</w>
wat i</w>
warz ystwo</w>
warn ings</w>
war te</w>
war m</w>
wander er</w>
wa ste</w>
wa isen</w>
wa i
w ün
w point</w>
w on</w>
w ob
wob lock
w ns</w>
w je
wje tischen</w>
w itz
w i</w>
w enty</w>
w ash
wash ed</w>
w as
was n't</w>
w alls</w>
w all</w>
w ahl</w>
w agen</w>
w af
vín culo</w>
víc tima</w>
vuel to</w>
vuel os</w>
vor ge
vor aus</w>
volun tad</w>
voll er</w>
vol ver</w>
vol l</w>
voc ates</w>
vo t
vitam in</w>
visit ing</w>
visi bles</w>
vir uses</w>
vir en</w>
vin cul
vigil ancia</w>
viej os</w>
vie wpoint</w>
vice presidente</w>
vi ère-des-Prairies</w>
vi sto</w>
vi mos</w>
vi l</w>
vi k</w>
vi deo</w>
vi aria</w>
verwal tung</w>
verwal tet</w>
vertra u
verti das</w>
verti da</w>
versch lossen</w>
vers äum
vern ünf
verl oren</w>
vergleich bar</w>
verg lichen</w>
verfas sungs
verdad eros</w>
verbesser n</w>
verab schied
ver ändert</w>
ver zeichnet</w>
ver tido</w>
ver stec
ver packungen</w>
ver lo</w>
ver lei
ver legt</w>
ver kün
ver fügt</w>
ver duras</w>
ver de</w>
ver birgt</w>
ver anst
ven tion</w>
ven ing</w>
ven ciones</w>
veg et
veget ables</w>
ve za</w>
ve to</w>
ve ed
var sen</w>
val orado</w>
val or</w>
v ölkerung</w>
v ölker
v emos</w>
v ein
vein te</w>
v ec
vec inos</w>
v ast</w>
v an
utz t</w>
utz meister</w>
ut ter
ut h</w>
ut ed</w>
ut an
utan asia</w>
ussi ons</w>
ush i</w>
use ful</w>
us ses</w>
us a</w>
us '</w>
uro b
urob i</w>
ur nas</w>
ur ban</w>
unterstütz en</w>
unterschei det</w>
unter suchen</w>
unter schied
unser es</w>
unkel heit</w>
unk le</w>
universit y</w>
univer se</w>
uni form</w>
uni a</w>
ungs sache</w>
ungs or
ungs ge
ungs bu
ung er
under gradu
undergradu ates</w>
und aries</w>
un usual</w>
un ting</w>
un längst</w>
un kte</w>
un it</w>
un en</w>
un emplo
unemplo yment</w>
un da
unda i</w>
un clear</w>
un cia</w>
un besch
un angenehm</w>
un able</w>
un abhängig</w>
um str
ultim ately</w>
ul tra
ul ly</w>
ul l
ull ing
ulling don</w>
ul i</w>
ul eau</w>
ug oslav</w>
u ten</w>
u el</w>
u des</w>
tú an</w>
tí tu
títu los</w>
tér égie</w>
tä tig</w>
tä glich</w>
tz inger</w>
typ es</w>
ty re</w>
ty pe</w>
tur ns</w>
tur ning</w>
tur en</w>
tur cos</w>
tur as</w>
tum n</w>
tu zem
tu ve</w>
tt p</w>
tt ing
tting ham</w>
tschech ische</w>
trou ble</w>
tro se</w>
tro ops</w>
tro cken</w>
tri ps</w>
tri fi
trifi du
trifidu s</w>
tre es</w>
tre e</w>
trav elling</w>
trav el</w>
traslad ado</w>
transpor tation</w>
transi ción</w>
trans par
trans curso</w>
tran sition</w>
tradi tion
tradition eller</w>
tradi ción</w>
trabaj ó</w>
trabaj ador</w>
tra tos</w>
tra ter
tra ge
tra f
tra dition</w>
tra ck</w>
tr uth</w>
tr uly</w>
tr inken</w>
tr ad
tor pe
tor in</w>
to ño</w>
to sphere</w>
to car</w>
tim os</w>
tig te</w>
tien ne</w>
tien es</w>
tie fer
tici os</w>
ti vi
ti t
tit les</w>
ti sta</w>
ti scher</w>
ti p</w>
ti les</w>
ti dos</w>
ti ble</w>
ti ary</w>
thro wn</w>
three- dimensional</w>
thre at</w>
the ory</w>
the ft</w>
th ony</w>
th es</w>
th eit</w>
th /
th/ pro
th/pro state-
th/prostate- cancer
th/prostate-cancer -
th/prostate-cancer- screening</w>
th 's</w>
testific ó</w>
test igos</w>
tes is</w>
terrá neo</w>
territ orios</w>
termin ó</w>
ter tiary</w>
ter es</w>
tent ei
tentei ls</w>
ten gan</w>
ten en</w>
ten ed</w>
ten ción</w>
temperatur es</w>
telesk ops</w>
tel es</w>
teg ration</w>
techni cal</w>
techn ology</w>
te zu
te j
tej ido</w>
te am
te a</w>
tbe dingungen</w>
tañ a</w>
tas as</w>
tar get</w>
tar get
tam ento</w>
tac to</w>
tab acal
ta ine</w>
t- P
t-P elter
t-Pelter ie</w>
t- E
t-E tienne</w>
t ürk
t í</w>
t wenty</w>
t unia</w>
t sam</w>
t pel
tpel lier</w>
t ough
t ou
t oll
t oler
t lichen</w>
t forward</w>
t emp
t d</w>
t ausend</w>
t au
t ap
t ali
tali ban
taliban es</w>
swi m</w>
supon ía</w>
super mercados</w>
super market</w>
sup pl
suici dio</w>
suggest ed</w>
sug gest</w>
sufri r</w>
sufri miento</w>
suffici ent</w>
success fully</w>
succe eded</w>
subst ance</w>
sub venciones</w>
sub sequ
sub ra
su stitu
su pu
supu est
su n</w>
su mi
su j
su it</w>
su it
su gar</w>
su erte</w>
su elo</w>
su d
su cia</w>
su ce
suce de</w>
stän de</w>
stu h
stu denti
studenti schen</w>
strö men</w>
stru o</w>
stric ter</w>
stri bu
streng th
stre atment</w>
stra ßen
stra ße</w>
stra teg
stra l</w>
stra igh
straigh tforward</w>
stra c
str äger</w>
stor e</w>
sto ßen</w>
stiz iert</w>
stell ungen</w>
ste en</w>
statt finden</w>
statt dessen</w>
statistic s</w>
stat tung</w>
star á</w>
star ben</w>
standar dis
standardis ed</w>
staat san
staat es</w>
st ó</w>
st äd
st ung</w>
st um</w>
st ir
st ets</w>
st elle</w>
st ay</w>
st ation</w>
st able</w>
st ab</w>
spon sor
spo ken</w>
spi ri
spiri t</w>
spi ral</w>
spek tive</w>
speci fic
spec tives</w>
spe kt</w>
spe ed</w>
spe e
spee ch</w>
sp ruch</w>
sp ort</w>
sp ite</w>
sp ent</w>
sp ati
sp aper</w>
sovi ética</w>
sour ces</w>
sou thern</w>
sou th</w>
sospe ch
sor pr
sorpr end
son st</w>
son ris
some tido</w>
sol dado</w>
sobr enom
sobrenom bre</w>
sobor nos</w>
so wjetischen</w>
so ft
so c
snow y</w>
smo kers</w>
sle ep
sk ý</w>
sk ie</w>
sk i
siv os</w>
siv amente</w>
situ ados</w>
sing le</w>
sin gen</w>
sin a</w>
sil ber
sigui entes</w>
signific antly</w>
sig ns</w>
sig n</w>
sifi carse</w>
sicher zustellen</w>
si ze</w>
si vo</w>
si us</w>
si o</w>
si l</w>
si ken</w>
si erung</w>
si ders</w>
si as
si an</w>
shu t</w>
sho wed</w>
shi ps</w>
shi f
sha ke</w>
sh of</w>
sh ared</w>
sh andlung</w>
sh all</w>
señ al
sexu ales</w>
settl ement</w>
servi ert</w>
seri ous</w>
ser án</w>
ser io</w>
ser es</w>
sent í</w>
sen o
sen en</w>
sen den</w>
sen ate</w>
selbst verständlich</w>
secre to</w>
secon dary</w>
sec ción</w>
se x</w>
se where</w>
se m</w>
se iten</w>
se ite</w>
se es</w>
sci ence</w>
schwer er</w>
schrän k
schränk ungen</w>
schri eben</w>
schnit ts
schlu g</w>
schlimm sten</w>
schlim mer</w>
schlie ßen</w>
schied ung</w>
schein lichkeit</w>
schafts wahlen</w>
schaft liche</w>
schaf ft</w>
sch wä
sch were</w>
sch wa
sch reiben</w>
sch mer
sch luss</w>
sch ir
sch el</w>
sc andal</w>
sc ale</w>
sat el
satel lites</w>
sang re</w>
san c
sanc tioned</w>
samm eln</w>
sam ble
samble a</w>
salv ar</w>
sali ó</w>
sali r</w>
sal t</w>
sal mu
salmu era</w>
sal as</w>
sal afi
sac ar</w>
sab ía</w>
sab geordn
sab emos</w>
sa pi
sapi ens</w>
s-F eld</w>
s- Ro
s-Ro yce</w>
s ü
s yphilis</w>
s wati</w>
s waisen</w>
s qu
s mil
smil e</w>
s li
s ingt</w>
s ex
s ellers</w>
s berater</w>
s be
s au
s al</w>
rí fi
rífi da</w>
rän kte</w>
rá ticos</w>
rá tica</w>
rut nov</w>
rus as</w>
rus a</w>
rup ul
rup tions
ru ms</w>
ru mp
ru hig
ru fen</w>
ru edas</w>
ru derschaft</w>
rou te</w>
rou gh
rough ly</w>
ros law</w>
ros a</w>
ron ella</w>
roman a</w>
roff enen</w>
rode ado</w>
rock ets</w>
rob adas</w>
ro oms</w>
ro m
ro gatorio</w>
ris es</w>
ril los</w>
rig ste</w>
rif le</w>
rif f</w>
ri gu
ri ger</w>
ri en</w>
ri ech
ri d
ri chtungen</w>
ri cas</w>
ri bat
ribat i</w>
revi stas</w>
reve aled</w>
restric tions</w>
restric ted</w>
restri al</w>
rest re</w>
respon sible</w>
respe k
res ur
res sed</w>
res os</w>
res h
res em
requ iring</w>
represent ante</w>
represent a</w>
repor ts</w>
repl etas</w>
repe ated</w>
ren ov
ren c
renc or</w>
religi ösen</w>
reli able</w>
rei vik</w>
reguli erten</w>
regul armente</w>
regul ari
regres ado</w>
registri erten</w>
registri eren</w>
registr adas</w>
regist rado</w>
regi ones</w>
regi on's</w>
regel mäßig</w>
reg t</w>
reg las</w>
refu ge</w>
refi ere</w>
ref ers</w>
reduc ción</w>
recuer dan</w>
recre ational</w>
recor ds</w>
recor d</w>
recomi enda</w>
recogni tion</w>
recibir á</w>
recib o</w>
reci bido</w>
rechnungsh of</w>
rechaz an</w>
recei ving</w>
recei ves</w>
rec lu
rec ep
rec ción</w>
rec au
re visión</w>
re vel
re tra
re ta
re sidents</w>
re peti
re over</w>
re ment</w>
re m
re lu
relu c
re le
re j
re hear
re habi
rehabi lit
re h
reh enes</w>
re fri
refri ger
re formas</w>
re fer</w>
re di
re des</w>
re cu
re comp
re au
reau cra
re alisieren</w>
re ad</w>
re ad
read ers</w>
re acciones</w>
ran i
ran g</w>
rad ec</w>
ra yos</w>
ra u
ra ting</w>
ra tes</w>
ra t
ra pi
ra mente</w>
ra id</w>
ra ham</w>
ra dio</w>
ra ciones</w>
ra b</w>
r u</w>
r te</w>
r s</w>
r nos</w>
r in
r arse</w>
r adores</w>
r -
r- Platz</w>
quisi era</w>
qui enes</w>
quer ían</w>
quer er</w>
quej as</w>
qu í
qu ist</w>
qu anti
q h</w>
push ed</w>
pul ser
pul l</w>
pudi eran</w>
pu ties</w>
pu b</w>
psycholog y</w>
prü fen</w>
pró xim
prác ticas</w>
pru d
provoc ado</w>
provisi ons</w>
provin cial</w>
provin ce</w>
provi enen</w>
prov inci
protegi das</w>
prot est</w>
prop one</w>
promo te</w>
promin ent</w>
prohi bits</w>
profes si
prof ile</w>
prof esi
produc es</w>
produc ed</w>
produ kte</w>
proces amiento</w>
procedi miento</w>
proce de</w>
pro sper
pro secutors</w>
pro per
pro je
pro f</w>
priv adas</w>
primar y</w>
primar ily</w>
pri ze</w>
pri mir</w>
pri mi
pri me</w>
pri m
pri ate</w>
presiden ciales</w>
present aría</w>
pres encia</w>
pres crip
prepar ación</w>
pren ant</w>
premi o</w>
pregun tas</w>
predic t</w>
preci so</w>
preci sely</w>
prech ung</w>
pre tende</w>
pre tend</w>
pre sid
pre ocup
prac tic
pra g
pper h
pperh ey</w>
pot ami
posit or</w>
portra yed</w>
porta ciones</w>
port ar</w>
porcent aje</w>
popul arity</w>
popul aridad</w>
poli tischen</w>
pol nischen</w>
pol nische</w>
pol l</w>
pol e</w>
poin ted</w>
poin te</w>
podr án</w>
poder osos</w>
pod ían</w>
po ses</w>
po gra
ple ase</w>
plata forma</w>
pl us</w>
pl ain</w>
pl ag
plag i
pix els</w>
pis o
pin turas</w>
pied ras</w>
pi ti
pi ert</w>
pi er
physici ans</w>
pho tos</w>
pho ton</w>
persön lich</w>
person en</w>
person alidades</w>
person 's</w>
permiti r</w>
perman ently</w>
perman ent</w>
periodi stas</w>
peri al</w>
perfe kt</w>
per ío
per forman
per dieron</w>
per cent
pen al</w>
pedi dos</w>
pe or</w>
pe op
peop le
people 's</w>
pe j
pe dia</w>
pe da
pe d
pe as</w>
pe as
peas ants</w>
pay asos</w>
pat ente</w>
pas sen
pas apor
pas ando</w>
pas an</w>
pas aba</w>
particip ar</w>
particip antes</w>
partici par
part ners</w>
parall el</w>
par tei
par k</w>
par ej
pap ilom
papilom a</w>
pap ill
papill oma</w>
paci ente</w>
pa sión</w>
pa is
p ér
p pen
p lo
p ks</w>
p istas</w>
p ista</w>
p hal
p fer
p fe</w>
p ei
p -F
p-F lo
p-Flo ps</w>
p -
p- flo
p-flo ps</w>
ow ners</w>
out siders</w>
ou red</w>
ou et</w>
ou be
oube k</w>
oth o</w>
oscur a</w>
os ni</w>
os h
osh i</w>
os ci
osci lar
ori zon
ori enti
organiz ed</w>
organiz ado</w>
organis ing</w>
organis ations</w>
org ul
org on
orgon zola</w>
oren co
orden adores</w>
orden ador</w>
or ship</w>
or osa</w>
or il
oril las</w>
or gen</w>
or e</w>
opport unity</w>
oph ie</w>
oper ate</w>
oper a</w>
op tischen</w>
op posing</w>
op ción</w>
oo se</w>
oo p</w>
oo dro
oodro w</w>
ong side</w>
onder land</w>
onal d</w>
on stran
on el</w>
on don</w>
on c
on ada</w>
omni pot
om on</w>
om en</w>
om as</w>
olog ists</w>
olog ischen</w>
olog ic
ologic zna</w>
olo gen</w>
ol t</w>
ol orosa</w>
ol n</w>
oh n
oh ey</w>
ográ fico</w>
ofic inas</w>
offic es</w>
off enses</w>
off en</w>
od wa</w>
ocur rió</w>
ocup ar</w>
octa vos</w>
ocra cia</w>
oci onal</w>
occur s</w>
occur red</w>
occu pied</w>
oc au
observ ed</w>
observ a</w>
obligatori a</w>
oblig ation</w>
oblig ados</w>
obje tivos</w>
ob vio</w>
ob tención</w>
ob tain</w>
ob st
ob s</w>
ob li
obli gar</w>
ob en</w>
o-N au
o-Nau ko
o-Nauko wy</w>
o- Stadt</w>
o ído</w>
o toño</w>
o potami
o poli
o k
o jo</w>
o eth
o es</w>
o di
nu mer
nu do</w>
nt ausende</w>
notwen dig</w>
norm ales</w>
non etheless</w>
no u</w>
no ted</w>
no ctur
no -
nied rigste</w>
nie der
new spaper</w>
new ly</w>
nen nt</w>
nei ther</w>
neh m
nego ti
neg ative</w>
necesit amos</w>
necesit a</w>
neces ito</w>
ne ws</w>
ne vertheless</w>
ne u</w>
ne os</w>
ne ben</w>
natur aleza</w>
nati onalen</w>
naci dos</w>
nac kt</w>
na k</w>
n í
n y</w>
n est</w>
n aul
naul t-Pelterie</w>
n ations</w>
n ard</w>
n ar
n aked</w>
mög licht</w>
mög lichst</w>
mög liche</w>
mé dico</w>
mä chtigen</w>
musulman a</w>
mus eums</w>
muri ó</w>
munici pios</w>
mun di
mundi ales</w>
multi -
mul tin
mu tu
mu ti
mu lierung</w>
mu erto</w>
mov ements</w>
mostr ó</w>
mon t</w>
mon struo</w>
mon opoli
mon opol
mon edas</w>
mom entos</w>
moder ne</w>
mo vember</w>
mo torway</w>
mo del</w>
mo ción</w>
mm m</w>
mittel t</w>
mit unter</w>
mit glie
mist ak
mis s
ministeri ums</w>
ministeri o</w>
minist ra</w>
minim um</w>
minim al</w>
mini atur
min utos</w>
min utes</w>
min orías</w>
min orities</w>
min ing</w>
milli on
mill ón</w>
mig ón</w>
mi thilfe</w>
mi streatment</w>
mi er</w>
mi enda</w>
mi dad</w>
mexic ana</w>
mer s</w>
mer kt</w>
mer ken</w>
mer idi
meridi onal</w>
mer ece</w>
mens -
mens- heal
mens-heal th/prostate-cancer-screening</w>
mencion ar</w>
mencion ado</w>
men tieren</w>
men eg
meneg il
menegil do</w>
mem ber
mehr erer</w>
medi ados</w>
mec áni
me an
mb ruderschaft</w>
may be</w>
maxim um</w>
materi als</w>
mat ri
mas zewski</w>
mas chin
mar on</w>
mar k</w>
mar gen</w>
mande au</w>
mandat o</w>
man tienen</w>
man tenerse</w>
man ta</w>
man eras</w>
man ages</w>
man agement</w>
mal os</w>
magaz ines</w>
magaz ine</w>
mad re</w>
mad era</w>
ma ßen</w>
ma ß</w>
ma ya</w>
ma inten
mainten ance</w>
ma in
main tained</w>
ma g</w>
ma ci
m ün
m är
m quist</w>
m ist</w>
m esa</w>
m als</w>
m alen</w>
m adamente</w>
m ack</w>
lí mite</w>
läufi gen</w>
läs s
luss fol
lus h</w>
loy al</w>
low ing</w>
low -
lov y</w>
lok alen</w>
logr aron</w>
loc ations</w>
lob bi
lo wers</w>
lo ve</w>
llev ará</w>
lleg aron</w>
llam ada</w>
ll ino
llino is</w>
ll enos</w>
ll ena</w>
ll en
liter atura</w>
lish ing</w>
lin ked</w>
limit ado</w>
liger amente</w>
ligen cia</w>
lieg e</w>
liefer ungen</w>
liefer t</w>
lider azgo</w>
licens ed</w>
lic ense</w>
liber als</w>
li tros</w>
li tres</w>
li ster</w>
li st</w>
li st
li p</w>
li p-Flops</w>
li mit</w>
li ked</w>
li e</w>
li b</w>
li ani</w>
ley enda</w>
lev en</w>
leist ungs
leist ung</w>
lei chter</w>
leh nte</w>
legisl ators</w>
legisl adores</w>
legi tim
legaliz ed</w>
leg ten</w>
leg almente</w>
lec er</w>
leb ten</w>
leb igkeit</w>
lear ned</w>
lea ving</w>
le ve</w>
le un
le k
le f
lef t-wing</w>
le er</w>
lau tet</w>
lau de</w>
lar gel
largel y</w>
lar ation</w>
langfri stig</w>
lan den</w>
lan court</w>
lan a</w>
lamy dia</w>
lamin i</w>
lam ondon</w>
lad rones</w>
lac king</w>
labor ales</w>
la sio</w>
la ire
laire fon
lairefon taine</w>
l ógico</w>
l ágrimas</w>
l ying</w>
l ungs
l un
l ouet</w>
l oud</w>
l or</w>
l lar
l ink</w>
l ess
l esi
lesi ones</w>
l enden</w>
l ectores</w>
l bor
l aufen</w>
kürz lich</w>
küm mert</w>
kö mm
kämp ft</w>
kur z
kri min
kri eg
kre ist</w>
kra ten</w>
kr zyck
kontrol liert</w>
kontro lle</w>
kontak te</w>
konkre te</w>
konkre t</w>
kon zer
kom pl
kom mun
kom mer
ko hol</w>
kno ten</w>
klär t</w>
klein ere</w>
kl at
kl app
klapp t</w>
kilomet res</w>
kilomet re</w>
ken n
kamp ag
k é</w>
k uti
k urs</w>
k torin</w>
k ter</w>
k pks</w>
k in</w>
k in
k ie
kie wicz</w>
k ids</w>
k er
k ent</w>
k einer</w>
k ein
kein erlei</w>
k ehr</w>
k at
kat astro
k arte</w>
k ara</w>
k ar
k amen</w>
k 's</w>
juris pru
juni o</w>
jug ador</w>
judici ales</w>
judi cial</w>
jud ges</w>
ju lio</w>
ju gar</w>
ju eces</w>
jordan land</w>
jordan ia</w>
j äh
j ung
j rab</w>
j on</w>
j emals</w>
j au
iz e
ize prä
it utes</w>
it os</w>
it ems</w>
it e
it an</w>
it an
itan ni
it a</w>
it Tor
itTor rent</w>
ist ics</w>
isse z</w>
israeli schen</w>
israel í</w>
isl ámica</w>
isi le</w>
is sar
is ley</w>
is la</w>
is jordania</w>
is ation</w>
irgend wie</w>
irgend wann</w>
ir y</w>
ir ways</w>
ir rig
ir dischen</w>
invol ving</w>
investig ative</w>
invest ed</w>
inv ented</w>
inv ali
introduc ción</w>
interrum pi
interest ed</w>
interess ante</w>
interes siert</w>
inter vención</w>
inter rogatorio</w>
inter cambio</w>
intent ar</w>
intel ectual</w>
int érpretes</w>
int ell
intell ectual</w>
instru ment
instru c
institu tion</w>
inst inc
inst ig
ino cular</w>
inn ings</w>
inmen so</w>
inici os</w>
ini tially</w>
ini ti
ini en</w>
ini cial</w>
inhabit ants</w>
ing ton</w>
ing ston</w>
ing steen</w>
ing resos</w>
inf ra
individu os</w>
indepen d
ind l</w>
increas ed</w>
incre mento</w>
inclu ido</w>
inclu des</w>
inc ó
inc oln</w>
inc lin
in ty</w>
in te
in nerhalb</w>
in ner</w>
in mitten</w>
in folge</w>
in fektionen</w>
in ea</w>
in dol
in deed</w>
in charts</w>
in au
inau gu
in abul</w>
imprin t</w>
impresion ante</w>
impres sive</w>
import ancia</w>
impor ta</w>
imp ec
imm ungen</w>
imit adores</w>
imag in
im proved</w>
im prov
im pris
im pon
im on</w>
im my</w>
im migration</w>
ilom a
iloma viren</w>
illeg aler</w>
ill ness</w>
ill ado</w>
il va</w>
il ar</w>
ikan ern</w>
ik ol
ik er</w>
ig res</w>
ig es</w>
ie der
identi fied</w>
ide ales</w>
id el
ici lio</w>
ic en</w>
ic as</w>
ic as
icas so</w>
i zi
i ran</w>
i el</w>
i des</w>
i dad
i ago</w>
i Ph
iPh ones</w>
hör ten</w>
höher en</w>
häufi ger</w>
hä us
hung ry</w>
hung rige</w>
human it
hu ev
huev os</w>
hu ellas</w>
hu ella</w>
hor migón</w>
hon or
hon est
hom osexu
hom o
ho uses</w>
ho st
ho ck
histor ischen</w>
his pan
his p
hili p</w>
hil ft</w>
hi p</w>
hi e
herr schaft</w>
hel adas</w>
heb ung</w>
heal thy</w>
he fra
he at</w>
hat tan</w>
han ie</w>
ham mad</w>
ham bri
hal tung</w>
habl an</w>
hab rían</w>
hab lado</w>
ha w
ha ppen
ha fen</w>
ha f
ha di
h ält
h y
h ttp</w>
h orizon
h en
h echos</w>
h all
h aga</w>
guar ds</w>
gu ía</w>
gu sto</w>
gu staría</w>
gu ests</w>
gu er
guer ras</w>
gu ber
guber nam
grün den</w>
größ tenteils</w>
größ er</w>
gro ß
gro wn</w>
gri ech
great est</w>
gran ts</w>
gran de</w>
gra phic</w>
gra ci
gra b
grab ungen</w>
govern ing</w>
gor da</w>
gonor rhoea</w>
gonor rea</w>
go za</w>
go ods</w>
glob alen</w>
glei cher
gleicher maßen</w>
glei che</w>
gl am
gir ls</w>
gim zadeh</w>
gi ra</w>
gi en</w>
gh öhe</w>
gewis sem</w>
gewi d
gewid met</w>
getö tet</w>
get an</w>
gesti ón</w>
gesti egen</w>
gestell ten</w>
gest ures</w>
gest immt</w>
gest att
gestatt et</w>
gesell schaftliche</w>
geschaf ft</w>
gesch ützt</w>
gesch rieben</w>
gesch i
gericht eten</w>
ger u
ger ing</w>
ger aten</w>
genie ßt</w>
gener ations</w>
gener ation</w>
gener ales</w>
gen ital</w>
gen ei
gemäß igten</w>
gemein same</w>
gem iran</w>
gem ent</w>
geleg t</w>
gel n</w>
gel man</w>
gel ingen</w>
gel indert</w>
gel er
geler nt</w>
gel aden</w>
gehör te</w>
gehör en</w>
gehei m</w>
geh and
gegens ei
geg rün
gef ängnis</w>
gef ällt</w>
gef ähr
ge zogen</w>
ge o</w>
ge m</w>
ge führten</w>
ge fr
ge birge</w>
ge arbeitet</w>
gast os</w>
gan do</w>
gan ando</w>
gan a</w>
galax y</w>
galax ia</w>
g üedad</w>
g éneros</w>
g reifen</w>
g ers</w>
g dor</w>
g amos</w>
g ame</w>
g ado</w>
führ ende</w>
füh lte</w>
fü gung</w>
fut ur
funktion ieren</w>
fundam ental</w>
fund-rais ing</w>
funcion amiento</w>
fuer tes</w>
früher en</w>
fru tas</w>
fro zen</w>
frequ ently</w>
frem den</w>
frei lich</w>
frei es</w>
frecu encia</w>
fre und
fre ie</w>
franc esas</w>
fra in</w>
fr /
fr/ mens-health/prostate-cancer-screening</w>
four -
fort unately</w>
fort gesetzt</w>
formul ation</w>
formul arios</w>
formul ación</w>
form ation</w>
form al</w>
fore most</w>
for schen</w>
for get</w>
fom ent
fol lowers</w>
fol low</w>
fo und
fo tón</w>
fo rest
fo ot</w>
flä chen</w>
flä che</w>
fli p-flops</w>
financier os</w>
financier as</w>
finan ziert</w>
fin de</w>
fin ale</w>
filtra ción</w>
fig ures</w>
fif th</w>
ficti tious</w>
fici os</w>
fic ticios</w>
fic ina</w>
fi x
fi g</w>
fi elen</w>
fi el</w>
fi ch
fich ero</w>
fi ca</w>
ff ington</w>
ff ers</w>
fer enz</w>
fer a</w>
fen ómeno</w>
feh lt</w>
feh le</w>
feder ales</w>
fe o</w>
fe et</w>
fe at
feat ured</w>
fe ar</w>
fashi on</w>
fasci st</w>
fas st</w>
fant ástico</w>
famili ares</w>
fal sific
fahr ene</w>
faci lit
fac tor</w>
fac ing</w>
fac es</w>
fac ción</w>
fabric ación</w>
fa vor
fa vo
fa ir</w>
fa chen</w>
fa ch
fach ada</w>
f útbol</w>
f älle</w>
f ähig</w>
f ying</w>
f tung</w>
f ought</w>
f jon</w>
f ing
f el</w>
f ang</w>
f anden</w>
f and</w>
f all
extre mi
extre me</w>
extre m</w>
extraordin ary</w>
extranj era</w>
extra ño</w>
extra er</w>
expres sed</w>
explic ar</w>
experim ents</w>
exper t</w>
exp ul
exist s</w>
exist iera</w>
exist ed</w>
exig ía</w>
exig ir</w>
exig ieron</w>
excep ción</w>
exc esi
exc ellent</w>
examin ar</w>
exac tly</w>
exac tamente</w>
ex ámenes</w>
ex tern
ex tend</w>
ex posición</w>
ex port</w>
ex plan
ex ist</w>
ex igen</w>
ex erci
ex changed</w>
ev o</w>
ev in</w>
ev entu
ev ent</w>
europä ischer</w>
europe as</w>
eu than
eu ters</w>
eu ch</w>
etz es</w>
etap as</w>
etap a</w>
estad ísticas</w>
estable ci
estab lecer</w>
est ás</w>
est el
estel ar</w>
est atus</w>
est an
est al
est able</w>
essen ti
espi ral</w>
esper anz
espect acular</w>
especi e</w>
especi alistas</w>
escuch ar</w>
esclav os</w>
esc ándalo</w>
es set</w>
es pos
es it
es inos</w>
es en
erweit erte</w>
erneu t</w>
erinn ere</w>
eri ka</w>
erhöh en</w>
erho ben</w>
erg riffen</w>
erfol gte</w>
erfol gt</w>
er wogen</w>
er werben</w>
er weisen</w>
er scheint</w>
er scheinen</w>
er möglicht</w>
er möglichen</w>
er ing</w>
er ill</w>
er i</w>
er hielt</w>
er ected</w>
er eau</w>
equi vo
equi val
equi pos</w>
equ ality</w>
ep unkt</w>
ep si</w>
ep is
ep ción</w>
ep atitis</w>
entwick elte</w>
entu cky</w>
entschei det</w>
entschei den
ent ur</w>
ent standen</w>
ent spre
ent schieden</w>
ent sch
ent ren
ent lang</w>
ent fachen</w>
ent en
ent ation</w>
ens aya</w>
enor m</w>
engañ ar</w>
enfr en
enfren ada</w>
enfor cement</w>
enfer mos</w>
end ía</w>
end y's</w>
encontr ó</w>
encontr arán</w>
encontr arse</w>
encar gan</w>
encant a</w>
en zo</w>
en mienda</w>
en heiten</w>
en gemiran</w>
en dete</w>
en det</w>
en des</w>
en ced</w>
en -</w>
en 't</w>
empres arial</w>
emple o</w>
emat sch</w>
em ocional</w>
em is
em i
em blem
em bass
embass y</w>
em b
eléctri ca</w>
elo eil</w>
elli ten</w>
ell ungen</w>
ell -
eli pe</w>
eli kte</w>
elektromagne tischen</w>
elektromagne tische</w>
eleg ido</w>
el sius</w>
el sewhere</w>
el ph</w>
el low</w>
el ements</w>
el ele</w>
el derly</w>
el and</w>
ej er
eist erung</w>
einzig es</w>
einzig artige</w>
ein schließlich</w>
ein iger</w>
ein get
ein geführt</w>
ein ander
ei lt</w>
ei le</w>
ei a</w>
ehemal igen</w>
eh re</w>
eh e</w>
egip cio</w>
egip cia</w>
eg t</w>
eg o
eff ective</w>
ef ully</w>
ef on</w>
ef forts</w>
educ ational</w>
edi ficios</w>
edi ción</w>
ed ov</w>
ed oren
ed mond</w>
ect 's</w>
econom ías</w>
econom ically</w>
echn ologie</w>
ec ían</w>
ec zy
ec cion
eb st
eb o</w>
ear n</w>
e- tap</w>
e- ma
e x</w>
e utanasia</w>
e to</w>
e times</w>
e fiz
e ando</w>
e an
dé bi
débi l</w>
du m
dro h
drit te</w>
drei dimensi
dreidimensi onalen</w>
dre sina</w>
dre mos</w>
dra wn</w>
dra st
dra matic</w>
dr ástic
dr y</w>
dr itten</w>
dow n
dor thin</w>
don es
dom icilio</w>
doll ar</w>
doc tor</w>
doc enas</w>
do zens</w>
do zen</w>
do ku
do g
dn ung</w>
divi dido</w>
divi den</w>
divi de</w>
divers as</w>
dispon ible</w>
disfru tar</w>
discre pan
discipl ine</w>
dis puesta</w>
dis play</w>
dis mo</w>
dis missed</w>
dis kuti
dis hes</w>
dis co
dis capaci
dis appointment</w>
diplomati schen</w>
diplom atic</w>
diplom as</w>
dig liani</w>
differ ently</w>
difer ente</w>
dict adura</w>
diag no
di t</w>
di t
di strict</w>
di stribu
di stancia</w>
di son</w>
di rige</w>
di r</w>
di mos</w>
di je</w>
di gend</w>
di ge</w>
di fun
di ent</w>
di chas</w>
di ca</w>
di ario</w>
devi ce</w>
deut ung</w>
determin e</w>
determin ation</w>
deteri or
deten tion</w>
deten ción</w>
det ected</w>
destro yed</w>
dest ined</w>
desempeñ ar</w>
descu bier
descri bed</w>
desarro llar
desarro ll
des pej
des enfrenada</w>
des empleo</w>
des echa</w>
der o</w>
der art</w>
depen ds</w>
depar ture</w>
depar tment</w>
denti n</w>
denomin ado</w>
denomin ada</w>
den z</w>
den ado</w>
demokra tischen</w>
demasi ados</w>
dem and</w>
deli very</w>
del ay</w>
dej aron</w>
defin itely</w>
defen se</w>
def ended</w>
dedi carse</w>
declar ation</w>
declar ado</w>
deci sión</w>
deci siones</w>
deci rlo</w>
deci dió</w>
dec ía</w>
dec epción</w>
dec enas</w>
deber íamos</w>
deb ían</w>
deb emos</w>
de voted</w>
de ur</w>
de liber
de dos</w>
dauer haft</w>
dar stellen</w>
dar les</w>
dar aus</w>
dan ts</w>
dan ce</w>
dam al
da ños</w>
da vor</w>
da ily</w>
da cht</w>
d ün
d unkle</w>
d t</w>
d ome</w>
d man</w>
d liche</w>
d ingt</w>
d der</w>
d den</w>
có s
có modo</w>
cá r
cá l
cz o-Naukowy</w>
custo dy</w>
cur v
cul to</w>
cul tivo</w>
cul tiv
cubier tas</w>
cu ál</w>
cu stom
cu ra
cu idad
cu br
crédi tos</w>
crimin ales</w>
cri tici
cri tical</w>
cri tic
cri sti
creci ente</w>
cre ation</w>
cre a</w>
countr y's</w>
coun ts</w>
coun t
cot te</w>
cot t</w>
cor riente</w>
cor respon
cor onas</w>
cor ner</w>
cor e</w>
cor d</w>
cor azón</w>
cooper ation</w>
cooper ación</w>
contro ls</w>
contro lled</w>
contro l
contribu tion</w>
contra st</w>
continu ally</w>
continu ación</w>
contag io</w>
cont empor
cont amin
consul tar</w>
consul tant</w>
constru ido</w>
consist s</w>
consider ing</w>
consider able</w>
consequ ences</w>
conoc en</w>
confir m</w>
confi den
confer encia</w>
conect ar</w>
condi ción</w>
conclu siones</w>
concer t</w>
concer ned</w>
concep t</w>
concent ration</w>
concent ración</w>
conc ern</w>
con vierten</w>
con vic
con tener</w>
con sta</w>
con sci
con om
con nec
con jun
con denado</w>
comunic ación</w>
compu ters</w>
compu ter</w>
compromis o</w>
compren sión</w>
complic ada</w>
comple to</w>
compl eta</w>
compet encias</w>
compar is
comp onentes</w>
comp acted</w>
comi enzos</w>
comi enzo</w>
com ún</w>
com unidades</w>
com puesto</w>
com puesta</w>
com probar</w>
com pasión</w>
com /
com/ fr/mens-health/prostate-cancer-screening</w>
colegi os</w>
col um
col on</w>
col le
col egas</w>
col ección</w>
col as</w>
co stes</w>
co stará</w>
co pi
clo thing</w>
clo thes</w>
classi fied</w>
claim s</w>
claim ing</w>
claim ed</w>
cl oud</w>
cl ase</w>
cl ami
clami dia</w>
ck er
ck ef
civili ans</w>
ciudad ano</w>
circ un
cion ado</w>
cinemat ográfico</w>
cigar rillos</w>
ci éndose</w>
ci ta</w>
ci ende</w>
ci dos</w>
ci alities</w>
cht ests</w>
chol son</w>
chic ks</w>
chec os</w>
chec o</w>
chec k</w>
che aper</w>
charac ter</w>
char acter
challeng es</w>
cha os</w>
ch tum</w>
ch rist
ch ov</w>
ch oose</w>
ch lamydia</w>
ch is
ch ino</w>
ch ester</w>
ch ern</w>
ch em</w>
ch em
ch ar</w>
ch ann
certific ate</w>
certific ados</w>
certa inty</w>
cer veza</w>
cer rada</w>
cent ur
cent ros</w>
celeb ra</w>
cel da</w>
cel adores</w>
ce f</w>
ce an's</w>
caus es</w>
caus as</w>
cast ig
cas t</w>
caracter ísticas</w>
car ácter</w>
cant ar</w>
cant ar
cantar illado</w>
candid ates</w>
candi datos</w>
can cel
campañ as</w>
campaig ns</w>
camp os</w>
camp esinos</w>
cambi ado</w>
cambi a</w>
cam era</w>
calend ario</w>
calend ar</w>
ca ído</w>
c y
c ture</w>
c tivo</w>
c ros
c riteri
c lim
c le</w>
c aza</w>
c ad
c '
c' est</w>
bür gern</w>
bíblic as</w>
business es</w>
bus can</w>
buil dings</w>
buil d</w>
bu yers</w>
bu roc
bu reaucra
bu enas</w>
brü der</w>
broad cast</w>
bring ing</w>
brill antes</w>
bri g</w>
bri dge</w>
bran dt</w>
bran ches</w>
bra ucht</w>
br itanni
bor do</w>
bor der</w>
bo ys</w>
bo y</w>
bo y
bo undaries</w>
bo to
bo t
bo dies</w>
bo ca</w>
blo ß</w>
blo ck</w>
bli chen</w>
bli che</w>
bli c</w>
blan ket</w>
blan cos</w>
bl ing</w>
bitco incharts</w>
bis lang</w>
bin den</w>
bin ation</w>
bill s</w>
bil dung</w>
bil den</w>
bien estar</w>
bi o</w>
bi o-
bi ete</w>
bi ens</w>
bi a</w>
betra chtet</w>
beteilig ung</w>
beteilig te</w>
bestä tigen</w>
bestimm te</w>
best and</w>
beschäf tigen</w>
besch ä
besch leun
besch lag
bes itzt</w>
bes itzer</w>
bes i
berüh mte</w>
berüh mt</w>
ber ücksi
ber y</w>
ber man</w>
beoba chtet</w>
benö tigen</w>
ben é
ben utzen</w>
ben den</w>
ben ann
bemer kt</w>
beli eves</w>
bei der</w>
bei de</w>
behin dern</w>
behin der
begren zen</w>
begin nt</w>
beg innings</w>
beg eg
beeinflus st</w>
be zieht</w>
be werten</w>
be u
be kam</w>
be für
be er</w>
be dingungen</w>
be deu
be dau
be b
be at</w>
be ar
be an
bat ter
basic ally</w>
bas es</w>
bar keit</w>
ban ks</w>
ban kovnipoplatky</w>
ban i</w>
ban c
bal ance</w>
bah i</w>
back ground</w>
ba ñ
ba jos</w>
ba ja</w>
b öh
b ían</w>
b y-
b uted</w>
b um</w>
b t
b sen</w>
b o</w>
b lue</w>
b ited</w>
b ile</w>
b este</w>
b attle</w>
b ap
b anned</w>
b and
band os</w>
b aba</w>
añ aden</w>
az úcar</w>
az ules</w>
az is</w>
ayu dar
ay ef</w>
avo ided</w>
avo id</w>
avi ón</w>
avi d</w>
aven worth</w>
avanz ada</w>
av ent
av el</w>
av ar
avar rette</w>
av ance</w>
av al</w>
außer halb</w>
autónom o</w>
auth or</w>
aut yczne</w>
aut ores</w>
austral ische</w>
auslän dischen</w>
ausge fahrene</w>
aus üben</w>
aus wirkt</w>
aus machen</w>
aus gestellten</w>
aus gesagt</w>
aus forder
aus einander
aument ando</w>
auf treten</w>
audi ts</w>
au tumn</w>
au lt</w>
au -
attra c
attitu de</w>
attemp ted</w>
attemp t</w>
att dessen</w>
atri k</w>
atri bu
atrap ados</w>
atra ctivo</w>
atori os</w>
atis se</w>
ati sche</w>
ati n</w>
ati k</w>
ati cket</w>
ata que</w>
at torney</w>
at ten</w>
at oli
at eur</w>
astronom y</w>
ast s</w>
associ ation</w>
associ ated</w>
associ ate</w>
assist ance</w>
asser ts</w>
ass ets</w>
asp ecto</w>
ash em</w>
ash ar</w>
asesin ados</w>
aseg ur
aseg u
as su
as sozi
as o</w>
as ks</w>
as ki</w>
as h</w>
as chen</w>
arti sta</w>
arti st</w>
arri ve</w>
ari po
ari on
ari d</w>
argu mentieren</w>
argu ment
ard mod
ar íamos</w>
ar ry</w>
ar reg
ar re</w>
ar oslav</w>
ar nos</w>
ar men</w>
ar med</w>
ar m</w>
ar ist
ar en</w>
ar ca</w>
ar -
aqu ellas</w>
aprob ación</w>
approxim ately</w>
appro priate</w>
appoin ted</w>
appe ars</w>
appe al</w>
appar ent</w>
app ilomaviren</w>
apo geo</w>
aplic ar</w>
apari ción</w>
apar t</w>
apar eció</w>
apar ecido</w>
apar ecen</w>
ap un
ap s</w>
ap proved</w>
ap peti
ap ole
anzu merken</w>
any isile</w>
anunci ó</w>
antwor tete</w>
anti güedad</w>
anteri ormente</w>
ant e
ant al</w>
anon ymous</w>
ange klagt</w>
ange fangen</w>
ang lebigkeit</w>
ang ha
anf angen</w>
ander er</w>
ander em</w>
analy sed</w>
an z</w>
an ya</w>
an while</w>
an them</w>
an nimmt</w>
an melden</w>
an kiewicz</w>
an illo</w>
an gr
an gem
an geblich</w>
an es</w>
an cen</w>
amp ino</w>
amend ment</w>
amen az
amb as</w>
am oto</w>
am et
am era</w>
am ateur</w>
altitu de</w>
alt ete</w>
all- powerful</w>
all á</w>
all zu</w>
alis ation</w>
alis ation
alim entos</w>
ali ados</w>
alg ary</w>
alg alax
alcan za</w>
ala wi</w>
al um
al ter
al ph</w>
al ongside</w>
al ma</w>
al it
al er
al cantarillado</w>
al aj
alaj ara</w>
aktu ellen</w>
aktu elle</w>
ak uan</w>
ak tiv</w>
ak amoto</w>
aj os</w>
aj evo</w>
air port</w>
ain t-Etienne</w>
ain 's</w>
ail lancourt</w>
ai fa</w>
ah l
agu es</w>
agrí cola</w>
agri cultural</w>
agenci es</w>
ag ten</w>
ag s</w>
ag it
ag iert</w>
ag ieren</w>
ag es
ag ep
ag entes</w>
ag all</w>
ag ain</w>
afghan ische</w>
aff ecting</w>
afect arán</w>
afect an</w>
af án</w>
af ro
af ri
af raid</w>
af ganos</w>
aero puerto</w>
adv iser</w>
adop taron</w>
adop tadas</w>
adi um</w>
adem iker</w>
adem ics</w>
adecu ado</w>
ad her
ad equ
ad elikte</w>
ad ei</w>
ad ed</w>
ad den</w>
ad czo-Naukowy</w>
ad ays</w>
ad am
ad alajara</w>
ad a-
ada- Kn
ada-Kn y</w>
actu aciones</w>
activi ties</w>
aconteci mientos</w>
acom pañ
aco ste</w>
acknowled ged</w>
ach stum</w>
acer ca</w>
acab ó</w>
ac um
ac tos</w>
ac qui
ac el
ac ademics</w>
abu se</w>
absur di
absur das</w>
abst ained</w>
absolut ely</w>
abri el</w>
abier tos</w>
abier tamente</w>
abier ta</w>
abandon ado</w>
ab zus
ab zu
ab stu
ab sor
ab schiedung</w>
ab gehalten</w>
ab end</w>
ab e
ab domin
a- St
a-St reifen</w>
a- K
a-K al
a zimierz</w>
a ther</w>
a sist
a cio</w>
a cia</w>
Zu cker
Zi vi
Zi el
Zer fall</w>
Zentralban ken</w>
Zentral bank</w>
Zeit ung</w>
Zeh ntausende</w>
Zar ankiewicz</w>
Z äh
Z odwa</w>
Z immer</w>
Z B</w>
You 're</w>
Yo ung</w>
Y ugoslav</w>
Y es</w>
Y ale</w>
Y ad</w>
Y R
YR O
YRO M</w>
X indl</w>
Wor ten</w>
Wor d
Wo uld</w>
Wo od</w>
Wo chen
Wil son</w>
Wiki pedia</w>
Wi der
Wh y</w>
Wettbewer bs</w>
West jordanland</w>
West ern</w>
West ern
Welt all</w>
Wel ten</w>
Wel d</w>
Weit ere</w>
Wei z
Web b</w>
Was ser
Walmart- Mitarbeiter</w>
Wahr scheinlichkeit</w>
Wahl tag</w>
Wahl betrug</w>
Wa isen</w>
Wa chen</w>
W oodrow</w>
W onderland</w>
W olf
W ieder
W he
W essing</w>
W esen</w>
W ert</w>
W endy's</w>
W en
W egen</w>
W atch</w>
W achstum</w>
W S
WS T</w>
W 5</w>
Vor teil</w>
Vor stellung</w>
Vor haben</w>
Vor bild</w>
Vor bereit
Vor aus</w>
Vier tel</w>
Vic tor</w>
Vic ente</w>
Vi sit
Vi el
Verän derungen</w>
Verordn ungen</w>
Verordn ung</w>
Verkauf sberater</w>
Verk äufer</w>
Vergabeges etzes</w>
Verfass ung
Verfas ser</w>
Verein igung</w>
Veranstalt ungsor
Ver y</w>
Ver wendung</w>
Ver schär
Ver mö
Ver lu
Ver handlungen</w>
Ver halten</w>
Ver gehen</w>
Ver gan
Ver fügung</w>
Ver abschiedung</w>
Val ery</w>
Val entina</w>
V yso
V kontakte</w>
V izeprä
V ie
V idel
V ide
V egas</w>
V ashem</w>
V ary</w>
V amos</w>
V ak
V aillancourt</w>
Ur sache</w>
Untersuch ung</w>
Universit äten</w>
Uni cef</w>
Un til</w>
Un s</w>
Un fortunately</w>
Un engaged</w>
Um ed</w>
US- D
US-D EU</w>
U no</w>
U N</w>
U G
UG C</w>
U D
UD E
UDE O</w>
Turk ish</w>
Tschech ischen</w>
Trup pen</w>
Tro yes</w>
Tro tzdem</w>
Tri pper</w>
Tre ffen</w>
Tran spor
Tran sat
Tra um</w>
Tra in
To wn</w>
To warzystwo</w>
To ohey</w>
To lib</w>
To da</w>
Tie fe</w>
Than ks</w>
Th or
Th omas</w>
Th iago</w>
Ter ms</w>
Ten go</w>
Tel -
Tel- Aviv</w>
Teil nehmer</w>
Te am</w>
Tay lor</w>
Taj ikistan</w>
Tahri r-Platz</w>
Tad schi
Ta chov</w>
T yp</w>
T ymczasowy</w>
T wo</w>
T rífida</w>
T rutnov</w>
T ime</w>
T igres</w>
T ermin
T anya</w>
T ake</w>
T ak
T aco</w>
T T
TT F</w>
T -
Südafri ka</w>
Sych ew</w>
Sur prenant</w>
Sur din</w>
Supre me</w>
Super b</w>
Sup port</w>
Sum perk</w>
Su izi
Su che</w>
Su ch
Su boto
Su bar
Stör ung</w>
Stu deo</w>
Straßenbau am
Stra ft
Stern feld</w>
Step hanie</w>
Stand ardmod
Stad tra
Staatsbürger schaft</w>
Staat sober
St urz</w>
St attdessen</w>
St as</w>
St ark</w>
Spra chtests</w>
Spr ingsteen</w>
Spir algalax
Spe cialities</w>
Sp äter</w>
Sp ann
Sonn tag</w>
Son ne</w>
Som os</w>
Som mer</w>
Som etimes</w>
Sol omon</w>
So wohl</w>
Sk andal</w>
Sham ir</w>
Servi ces</w>
Sek unde</w>
Seg uridad</w>
Secon d</w>
Se x</w>
Se attle</w>
Scienti sts</w>
Schwä che</w>
Schwer kraft</w>
Schwarz mark
Schwarz -
Schul en</w>
Schrit te</w>
Schne ematsch</w>
Schn itt</w>
Schmer z
Schauspiel er</w>
Sch w
Sch on</w>
Sch mier
Sch lag
Sch ein
Sch affung</w>
Satur n</w>
Sat oshi</w>
Sar ajevo</w>
Sand ra</w>
San kt</w>
Sam uel</w>
Sab et</w>
Sab bahi</w>
Sa id</w>
ST UDEO</w>
SS D</w>
S äu
S änger</w>
S ystems</w>
S yphilis</w>
S us</w>
S urobi</w>
S un
S ow
S ophie</w>
S oll
S ob
S isley</w>
S ing
S ilva</w>
S ieg</w>
S ein</w>
S cott</w>
S avard</w>
S any</w>
S aint-Etienne</w>
S ET
SET I</w>
S 80</w>
Rück kehr</w>
Russi schen</w>
Ru baba</w>
Rotter dam
Roll stuh
Roll s-Royce</w>
Rober ts</w>
Ro uleau</w>
Ro stock</w>
Ro ho
Ro din</w>
Ro ckef
Rich terin</w>
Ri vière-des-Prairies</w>
Ri siken</w>
Ren oir</w>
Rem brandt</w>
Rei he</w>
Rei chtum</w>
Regu lierung</w>
Regisse urs</w>
Regi onal
Reg ul
Reg res
Reg ime</w>
Reg el</w>
Refer endum</w>
Reci entemente</w>
Rechts an
Rechn ungsbu
Re k
Re isen</w>
Re ed</w>
Re agan</w>
Raumfahrt gesellschaft</w>
Rak eten
Radi m</w>
RM- 34</w>
RM- 2</w>
RM- 1</w>
RM- 1
RM-1 A</w>
R ychnov</w>
R onald</w>
R on</w>
R ico</w>
R euters</w>
R et
R est</w>
R edmond</w>
R ed</w>
R alph</w>
R alli</w>
R TTF</w>
R H</w>
R 6</w>
Qu ieren</w>
Qu i
Q um
Pu schk
Pu erto</w>
Pu ede</w>
Pu blic</w>
Psycholog ical</w>
Prü fer</w>
Präsident schaftswahlen</w>
Prá vo</w>
Prostatakre bs</w>
Problem s</w>
Problem atik</w>
Prob ablemente</w>
Prinzi pi
Pri mer
Pr óximo</w>
Pr ada</w>
Pr ada-Kny</w>
Pompe ya</w>
Pom pei
Pom mier</w>
Poli tik
Poli ce</w>
Pol skie</w>
Po lic
Po ho
Pl ynoj
Pil ata</w>
Pho ton</w>
Ph ilosoph
Pf leg
Pet ronella</w>
Pet r</w>
Pet er</w>
Per spectives</w>
Per se
Pay tunia</w>
Pay mium</w>
Partic ularly</w>
Partic le</w>
Par oubek</w>
Par liament</w>
Papi ere</w>
Palästin en
Pal ästina</w>
Pal om
Pal ma</w>
PS I</w>
P utzmeister</w>
P unkt</w>
P ty</w>
P res
P lamondon</w>
P ist
P issar
P inos</w>
P icasso</w>
P hilip</w>
P ete</w>
P est
P epsi</w>
P ent
P end
P avel</w>
P atrik</w>
P aten
P appilomaviren</w>
P ack</w>
Organis ationen</w>
Or ten</w>
Or nest</w>
Op tik</w>
Op position</w>
On ce</w>
Om '
Om' O
Om'O bani</w>
Of fice</w>
Ober fläche</w>
O val</w>
O tro</w>
O ther</w>
O slo</w>
O h</w>
O ficina</w>
O cean's</w>
O K</w>
O H
OH R</w>
Nu estro</w>
Norwegi ans</w>
Norweg er</w>
Norweg ens</w>
Nor th</w>
Nor mandeau</w>
Nor man</w>
Nor malerweise</w>
Nor d
Nob el</w>
No ttingham</w>
No thing</w>
No sotros</w>
Ni jrab</w>
Ni cht
Ni cholson</w>
Nev sky</w>
Neu geborenen</w>
Netanjah u</w>
Ne zahualcoyotl</w>
Ne ar</w>
Nam ens</w>
Nach weis</w>
Nach dem</w>
Nach bar
Nach ah
Na die</w>
N ilo</w>
N ile</w>
N ikol
N ext</w>
N ep
N avarrette</w>
N atur
N ational
N ation</w>
N apole
N akamoto</w>
N ah
N Y</w>
N L</w>
N F</w>
Mäd chen</w>
Musli mbruderschaft</w>
Mus eums</w>
Mu hammad</w>
Mu gimzadeh</w>
Mu erto</w>
Moun tains</w>
Mor ris</w>
Mor ayef</w>
Mon térégie</w>
Mon trose</w>
Mon tpellier</w>
Mon et</w>
Mon ereau</w>
Mo vember</w>
Mo unt</w>
Mo krzyck
Mo digliani</w>
Mo de
Mitglieds ländern</w>
Mitglie dern</w>
Mit lei
Mis shandlung</w>
Mirzayev as</w>
Mirzayev a's</w>
Mindest lohn</w>
Minder heiten</w>
Min uten</w>
Min d</w>
Militär geri
Militär gefängnis</w>
Militä r</w>
Mil oslav</w>
Mil ch
Migran t</w>
Mi roslaw</w>
Mi eczy
Mexik o-Stadt</w>
Mexic anos</w>
Meteor-2 H</w>
Meteor-1 C</w>
Meteor-1 B</w>
Meteor- 3</w>
Meteor ologiczna</w>
Mes opotami
Mer ce
Meinungs verschieden
Mehr ere</w>
Me er
Me anwhile</w>
Me ade</w>
Mc In
McIn tyre</w>
Mc Al
McAl lister</w>
May er</w>
May an</w>
May a-Kal
Materi al</w>
Mat erie</w>
Marken amt</w>
Marihuan adelikte</w>
Marihuan a-
Mar yland</w>
Mar te
Mar shall</w>
Mar lbor
Mar kt</w>
Mar k</w>
Mar ina</w>
Mar cus</w>
Mar cotte</w>
Mann schaft</w>
Man i
Man hattan</w>
Man chmal</w>
Man chester</w>
Mak elele</w>
Mag az
Ma fia</w>
Ma dison</w>
Ma cht
M y
M swati</w>
M rs</w>
M ob
M ik
M esa</w>
M es</w>
M eg
M atisse</w>
M alawi</w>
M al
M W</w>
M S</w>
M 8
M8 3</w>
Lux us
Lux em
Luftball ons</w>
Lu ke</w>
Lu -G
Lu-G ucci</w>
Liz enz
Liv ingston</w>
Liv ely</w>
Liter atur</w>
Liter atur
Lin ie</w>
Lik ewise</w>
Lie berman</w>
Liber al</w>
Li pperhey</w>
Li ke</w>
Li brary</w>
Li b
Les otho</w>
Les biens</w>
Lei der</w>
Leg ende</w>
Leg alisierung</w>
Le avenworth</w>
Lau rent</w>
Lau ren</w>
Lam ar</w>
Lab s</w>
Lab our</w>
La pointe</w>
La issez</w>
L una</w>
L td</w>
L orenco
L ohn
L ino</w>
L ind</w>
L incoln</w>
L es</w>
L eli
L ektoren</w>
L aval</w>
L aufe</w>
L atin</w>
L at
L ast</w>
L arion
L anglebigkeit</w>
L ad
L acoste</w>
L P</w>
L H
LH C</w>
Kämp fe</w>
Krimin elle</w>
Kri tiker</w>
Kri tik</w>
Kre u
Kra ft
Kosmonau ten</w>
Konzer ten</w>
Kontro llam
Kongres sabgeordn
Kon zent
Kon su
Kom itet</w>
Kom bination</w>
Kn esset</w>
Kin ect
Kin der
Ki ribati</w>
Kh anyisile</w>
Kau k
Kar za
Kar lovy</w>
Kan alisation
Kan al</w>
Kamp f
K ürze</w>
K op
K evin</w>
K ette</w>
K entucky</w>
K en</w>
K ein</w>
K azimierz</w>
K auf</w>
K ann</w>
K amera</w>
K airo</w>
K LP</w>
Jun i</w>
Jun e</w>
Jun ction</w>
Jud ä
Journ alisten</w>
Journ al</w>
Jor dan</w>
Jesen ík</w>
Jes u</w>
Jedlička- Institut</w>
Je de</w>
Jahrzeh nten</w>
J uly</w>
J uli</w>
J oop</w>
J on</w>
J immy</w>
J edoch</w>
J asser</w>
J aroslav</w>
J ana</w>
J ag
J WST</w>
Itali an</w>
Ira q</w>
Ir inea</w>
Ir ina</w>
Interpre ten</w>
Inter kos
Innen ministeriums</w>
Innen ministerium</w>
Infraro t
Indi en</w>
In tel
In n
In ch
Im port</w>
Im perial</w>
Illustra tosphere</w>
Il ham</w>
I/ 4
I/4 3</w>
I/ 34</w>
I/ 13</w>
I- 5
I-5 0
I-50 2</w>
I zadi</w>
I llinois</w>
I gu
I RTTF</w>
I NF</w>
I II</w>
Höhen win
Höh epunkt</w>
Hy undai</w>
Hunder te</w>
Human e</w>
Hu manos</w>
Hu ffington</w>
Hon za</w>
Hon duras</w>
Hom o</w>
Holly woo
Hol ocau
Hol mquist</w>
Hit ler</w>
His pan
Hin weis</w>
Hil fen</w>
Higg s-Feld</w>
Her zen</w>
Her steller</w>
Her n
Her maszewski</w>
Her bst</w>
Her ausforder
Heim at</w>
He ydar</w>
He utzutage</w>
Hau tzinger</w>
Hand els
Han no</w>
Ham din</w>
Hal varsen</w>
Hal f</w>
Haf tung</w>
Haf tbedingungen</w>
Haf ez</w>
Hab en</w>
H öch
H élène</w>
H un
H radec</w>
H osni</w>
H or
H opf</w>
H ob
H mmm</w>
H emos</w>
H el
H eba</w>
H ause</w>
H arry</w>
H ans</w>
H an</w>
H aifa</w>
H age</w>
Gu sta
Gu elph</w>
Gu adalajara</w>
Grün den</w>
Grund s
Grund lage</w>
Groß britanni
Gro ßen</w>
Gri mm
Gren ze</w>
Gre ek</w>
Gran t</w>
Goo dman</w>
Gleich berech
Gl ück
Gesetzes entwürfe</w>
Gesetz geber</w>
Geschäf ts
Gesch äfte</w>
Gesch äft</w>
Gericht shof</w>
Gemein de</w>
Gem üse</w>
Geis eln</w>
Gefüh le</w>
Gebäu de</w>
Ge wal
Gazast reifen</w>
Gaz a-Streifen</w>
Gan ze</w>
Galil eo</w>
Galil ei</w>
Galax ien</w>
G érald</w>
G ä
G ut
G ucci</w>
G od</w>
G las</w>
G etz</w>
G eleg
G ary</w>
G abriel</w>
Föder ation</w>
Früh ling</w>
Früh jahr</w>
Frü her</w>
Fri ed</w>
Fran k</w>
Fra gile</w>
Fra gen</w>
Fortschrit t</w>
Fort pflanz
Forsch ungs
Form feh
For t</w>
For mulierung</w>
For mul
For derung</w>
Fol gen</w>
Fo x</w>
Fo gelman</w>
Flug hafen</w>
Flu ghöhe</w>
Flu g</w>
Fingerab druck</w>
Finanz ierung</w>
Fi ete</w>
Fest ung</w>
Fast-Food- Restaurants</w>
Fast-Food- Branche</w>
Far b
Fahr t</w>
F ür
F ur
F t</w>
F lip-Flops</w>
F elipe</w>
F el
F ein
F edoren
F ed</w>
F arid</w>
F alk</w>
F aire</w>
F adden</w>
F abri
F YROM</w>
Extre mely</w>
Experim ente</w>
Exper te</w>
Ex trater
Euro vision</w>
Euro copa</w>
Et wa</w>
Es pero</w>
Es nault-Pelterie</w>
Erwachsen en</w>
Erwachsen e</w>
Ergeb nisse</w>
Erfol g</w>
Er menegildo</w>
Er fahrung</w>
Er bsen</w>
En g
En d
El sie</w>
El -
El- Bar
El-Bar adei</w>
Einzel ner</w>
Ein satz</w>
Ein lad
Ein kommen</w>
Ein k
Ein en</w>
Ein druck</w>
Eig en
East ern</w>
E- Ma
E zulwen
E vening</w>
E ton</w>
E sp
E mp
E m
E leven</w>
E hefra
E duc
E conom
E ber
E ZB</w>
E OHR</w>
E M</w>
E C
EC B</w>
Du mont</w>
Dor it</w>
Dor adczo-Naukowy</w>
Dmit ry</w>
Dmit ri</w>
Dien st</w>
Di jo</w>
Di ego</w>
Di ebst
Di cho</w>
Der zeit</w>
Depar tment</w>
Den ise</w>
Demo krati
Dem onstran
Deli kte</w>
Defin ing</w>
Dec ke</w>
De k
De ad</w>
Dat ei</w>
Dan iel</w>
Dam als</w>
Da im
D unkelheit</w>
D rit
D olorosa</w>
D o</w>
D lamini</w>
D icen</w>
D eleg
D ay</w>
D avid</w>
D akuan</w>
D ado</w>
D F</w>
D 5</w>
Cu entas</w>
Coun cil</w>
Coo ke</w>
Constitu yente</w>
Con gressman</w>
Compu tern</w>
Compu ter
Com p
Color ados</w>
Co inabul</w>
Ci mic</w>
Chin aski</w>
Chic ken</w>
Chic ago</w>
Char bon
Ch lamy
Ch erill</w>
Ch emical</w>
Ch antal</w>
Ch ance</w>
Ch aled</w>
Ch agall</w>
Car lsbad</w>
Can arias</w>
Cam bridge</w>
Cal der
CL SA</w>
C zech
C ynthia</w>
C lowns</w>
C laude</w>
C lairefontaine</w>
C isjordania</w>
C esarea</w>
C engemiran</w>
C elsius</w>
C algary</w>
C E</w>
Bur g</w>
Bundes regierung</w>
Bundes rechnungshof</w>
Bru ce</w>
Bro thers</w>
Bro deur</w>
Brit ain</w>
Brit ain's</w>
Bri an</w>
Bre taña</w>
Bra zi
Bra silien</w>
Br ü
Bor d</w>
Bohemi aticket</w>
Bo garde</w>
Bo b</w>
Blu es</w>
Ble us</w>
Bil kent</w>
Bi on</w>
Bi oeth
Bi er</w>
Bezirks staatsan
Bet ween</w>
Bet rug</w>
Best immungen</w>
Best and</w>
Beschäf tigten</w>
Ber nard</w>
Ber gen</w>
Ben efiz
Bel ei
Beit rit
Beg riff
Beg o
Beg eisterung</w>
Bec ky</w>
Be wohner</w>
Be weis</w>
Be kannten</w>
Be fore</w>
Be deutung</w>
Bau ern</w>
Bas ha</w>
Ban ker</w>
Ban go</w>
Ban anen</w>
B utter</w>
B us</w>
B ullingdon</w>
B right</w>
B reivik</w>
B ond</w>
B louet</w>
B lo
B lasio</w>
B itTorrent</w>
B inocular</w>
B ill</w>
B ien</w>
B est</w>
B eloeil</w>
B ashar</w>
B ajo</w>
B ad</w>
B RH</w>
B MW</w>
B CE</w>
Ay nak</w>
Avi gdor</w>
Avant garde</w>
Australi a's</w>
Aussch uss</w>
Ausleg ungssache</w>
Aus länder</w>
Aus grabungen</w>
Aus druck</w>
Auf nahmen</w>
Auf nahme</w>
Auf hebung</w>
Au to</w>
Au th
Au stral</w>
Au gusta</w>
Au ff
Au di</w>
At tention</w>
Astron autyczne</w>
Ash den</w>
Arbeits losigkeit</w>
Ara fjon</w>
Ara bs</w>
Ar p</w>
Ar kin</w>
Ar gu
Aqu avit</w>
Ankl agep
Anf ängen</w>
An yone</w>
An träge</w>
An ti
An thony</w>
An kara</w>
An gst</w>
An ge
An frage</w>
An dri
An ders</w>
An atoli
Am schel</w>
All gem
All ein
Algun as</w>
Alex is</w>
Al- Q
Al- A
Al-A zhar</w>
Al les</w>
Al kohol</w>
Al i</w>
Al bert</w>
Al an</w>
Ak tivitäten</w>
Ak seno
Ak ademiker</w>
Aid swaisen</w>
Afri kas</w>
Afflec ks</w>
Afflec k's</w>
Ad venture</w>
Ad resse</w>
Ad i</w>
Academ ia</w>
Ac curso</w>
Ab weichungen</w>
Ab u</w>
Ab sur
Ab raham</w>
A ún</w>
A ward</w>
A venue</w>
A ut
A spekt</w>
A samblea</w>
A recibo</w>
A li
A irways</w>
A g
A di
A chtel
A ben
A I
A 6</w>
A 's</w>
9 9</w>
9 9
9 8</w>
8 9</w>
8 5</w>
8 5%</w>
8 00</w>
7 7</w>
7 7%</w>
7 6%</w>
7 36</w>
6 9</w>
6 98</w>
6 8</w>
6 75</w>
6 5%</w>
6 2</w>
5- 10</w>
5 9</w>
5 7</w>
5 3%</w>
5 2</w>
5 10</w>
5 1%</w>
5 0%</w>
5 $</w>
4 9</w>
4 7</w>
4 7%</w>
4 6%</w>
4 50</w>
4 4</w>
4 44</w>
4 30</w>
4 2</w>
4 26</w>
4 1</w>
4 17</w>
4 0th</w>
3 9</w>
3 80</w>
3 3%</w>
3 3
3 23</w>
3 05</w>
27 3</w>
24 %</w>
200 5</w>
20 40</w>
2 70</w>
2 7%</w>
2 5%</w>
2 4</w>
2 30</w>
2 2
199 7</w>
199 6</w>
199 5</w>
198 6</w>
197 8</w>
197 5</w>
197 3</w>
197 1</w>
197 0</w>
196 9</w>
196 8</w>
196 7</w>
196 6</w>
196 3</w>
195 8</w>
195 7</w>
195 4</w>
195 1</w>
190 7</w>
190 2</w>
19 88</w>
19 80</w>
19 48</w>
19 47</w>
19 36</w>
19 34</w>
19 29</w>
19 25</w>
19 17</w>
19 05</w>
18 99</w>
18 71</w>
18 65</w>
18 59</w>
18 49</w>
18 48</w>
18 10</w>
18 05</w>
18 %</w>
16 0
160 8</w>
14 3</w>
14 2</w>
14 %</w>
13 7</w>
11 9</w>
11 8</w>
1 st</w>
1 71</w>
1 5%</w>
1 40</w>
1 22</w>
1 20</w>
1 05</w>
1 00-
1 0%</w>
1 -
/ her</w>
/ ca</w>
/ /ca</w>
-1 C</w>
-1 B</w>
- style</w>
- garde</w>
- Partei</w>
ž nou</w>
š í</w>
š k
šk ro
Štern ber
Š t
Št ě
Ště tí</w>
Š ko
Š imon</w>
ř í
ří ž</w>
ř eli
řeli ce</w>
ř ebo
řebo ň</w>
ń ski</w>
ł ę
łę dó
ě žnou</w>
ě me
ěme c</w>
č ura</w>
č as</w>
Č T
ČT K</w>
Č SSD</w>
Č SA</w>
Č M</w>
üs sen</w>
ür zen</w>
ür t</w>
ün stig</w>
ül tigkeit</w>
ül tig</w>
üh l
üh est
ühest ens</w>
über zogen</w>
über wäl
über tragen</w>
über setzen</w>
über lassen</w>
über gehend</w>
über geben</w>
über fl
überfl üssig</w>
üb ten</w>
üb lich</w>
ü tlich</w>
ü ti
ü t
ü re</w>
ü ler</w>
ü bung</w>
ü bel
übel riech
ü bec
úni cos</w>
úni camente</w>
ú tiles</w>
ú pu
öß t</w>
ört liche</w>
ör t</w>
ölk erungs
öl li
ölli sch</w>
öh nen</w>
öff nung</w>
öff net</w>
ö tz
ö st</w>
ö st
öst lich</w>
ö se</w>
ö kon
ökon om
ö glich</w>
ö fe</w>
ö f
öf ter</w>
ór ka</w>
ór ganos</w>
óp ticos</w>
óp ticas</w>
óni cos</w>
ómi co</w>
ómi ca</w>
ó ton
ó sof
ósof os</w>
ó si
ósi to</w>
ó s</w>
ó rica</w>
ó n
ón di
óndi ta</w>
ó logos</w>
ó gen
ñ ol</w>
ñ ado</w>
ístic os</w>
íni cos</w>
ín tom
íntom as</w>
ín fi
ínfi ma</w>
í ticas</w>
í so</w>
í ses</w>
í fico</w>
í da</w>
í c
íc tor</w>
ére as</w>
ér g
é u
éu ticos</w>
é tni
é st
ést os</w>
é si
ési mo</w>
é rico</w>
é p
é micos</w>
é mica</w>
é dicos</w>
é ano</w>
äu men</w>
ätz t</w>
ätz lich</w>
ätz en</w>
är z
är kt</w>
är ke</w>
är ente</w>
äng lich</w>
äng ern</w>
äng el</w>
än ger
än ge</w>
än der</w>
äl tig</w>
äl ter
ähr ung</w>
ähr lich</w>
ähr boden</w>
ähn lichen</w>
äf ten</w>
äch stes</w>
äch eln</w>
ä ß</w>
ä der</w>
ä den</w>
ä ck
ä chtigt</w>
ä chte</w>
áu caso</w>
ára mos</w>
ár ta</w>
ár quic
árquic os</w>
ár bol</w>
ár bol
árbol es</w>
ánd ole</w>
án tico</w>
án g
áng ulo</w>
án cer</w>
ámb ito</w>
áli sis</w>
ál n
áln ě</w>
ác tica</w>
áb amos</w>
á š</w>
á t
á st
á re
á nos</w>
á micos</w>
á lido</w>
á is</w>
á culos</w>
á culo</w>
á bit
ß ig</w>
Über wach
Überwach ung</w>
Über prü
Überprü fung</w>
Über leg
Überleg ungen</w>
Über fall</w>
Ü ber</w>
Ö ster
Ö l</w>
Ö l
Ärz te</w>
Ägyp tern</w>
Ägyp ter</w>
Ä m
Äm ter</w>
¿Po dría</w>
¿H ac
¿Hac erse</w>
¿ es</w>
¿ Le</w>
¿ Ha</w>
¿ Con
¿ A</w>
¡ No</w>
zü gelten</w>
zö gerung</w>
zäh lt</w>
zy woblock
zwei mal</w>
zwei er</w>
zw ec
zusammens etzt</w>
zus agen</w>
zurück zu
zurück getreten</w>
zuneh mend</w>
zuneh men
zunehmen der</w>
zun ehmen</w>
zul etzt</w>
zul egen</w>
zukünf tigen</w>
zuh auf</w>
zugäng liche</w>
zu ver
zu tragen</w>
zu stand</w>
zu gr
zugr unde</w>
zu ck
zieh ung</w>
zi ński</w>
zi elt</w>
zi ellen</w>
zi elen</w>
zh ie</w>
zerstör t</w>
zep t</w>
zent rums</w>
zei ge
zap atos</w>
zap ati
zah lung</w>
z ó</w>
z z
z sol
z igen</w>
z ig
z ierter</w>
z ess
z es
z ender</w>
z ed
z can</w>
z c
zc la</w>
z arista</w>
z ambi
zambi que</w>
z ados</w>
z adas</w>
ystem e</w>
you 'll</w>
yo to</w>
yn amic</w>
ym posi
yi elds</w>
y zhie</w>
y uan</w>
y u
yu anes</w>
y t
y rami
y ond</w>
y nam
y ew</w>
y eron</w>
y cl
y an</w>
y amin</w>
xi li
x- Plan
x-Plan ck
x-Planck -
x-Planck- Institut</w>
x ty</w>
x of
x is
wür fen</w>
wür dig</w>
wün scht</w>
wär mer</w>
wäh len</w>
wä sche</w>
wä gen</w>
wrong doing</w>
woo ded</w>
won der</w>
wom öglich</w>
wohn ter</w>
woh ner
wo g</w>
wo für</w>
witz elt</w>
wit n
wissenschaft licher</w>
wissenschaft lichen</w>
wis sh
wissh eit</w>
wis hes</w>
wis h
wirtschafts krise</w>
wirt schaften</w>
wir st</w>
win zigen</w>
win digkeit</w>
will kommen</w>
will ing
willing ness</w>
wieg ende</w>
wiederhol en</w>
wieder um</w>
wider sprü
widersprü ch
wi ves</w>
wi et
wiet rz
wietrz na</w>
wi es</w>
wi cht</w>
wheelcha irs</w>
what so
whatso ever</w>
wh at's</w>
west ern</w>
wer tige</w>
wer te</w>
wer en't</w>
wer ed</w>
wer det</w>
wer bung</w>
well- known</w>
well s</w>
wel come</w>
wel chem</w>
weit gehend</w>
weis ungen</w>
weis ung</w>
wei ßen</w>
wei gern</w>
wei cht</w>
wei bliche</w>
weg ischen</w>
weg e</w>
week ly</w>
week end</w>
wechsel t</w>
wechsel n</w>
web seiten</w>
we den</w>
we ather</w>
we 'll</w>
warn ungen</w>
war tung</w>
war ran
war ning</w>
war me</w>
war ded</w>
war 's</w>
want ing</w>
wander ung</w>
wander ten</w>
wander te</w>
wan dern</w>
wal king</w>
wal ked</w>
wai i
wahr scheinlich</w>
wah r</w>
wah l
waf fen</w>
wach sen</w>
wa ja</w>
wa -
wa- Kr
wa-Kr zywoblock
w öch
w th</w>
w ro
wro te</w>
w ra
wra ps</w>
w isse</w>
w elt</w>
w ehr
w eckt</w>
w boy</w>
w asser</w>
w ana</w>
w an</w>
w age</w>
w ag
w adays</w>
víc timas</w>
vot antes</w>
vorzu zeigen</w>
vorge worfen</w>
vor übergehend</w>
vor zeitige</w>
vor stellte</w>
vor stellen</w>
vor stehenden</w>
vor sitzende</w>
vor r
vorr äten</w>
vor liegt</w>
vor her</w>
vor genommen</w>
vor gelegt</w>
volvi ó</w>
voll es</w>
voll en</w>
vocabul ary</w>
vocabul ario</w>
vo ys</w>
vo y</w>
vo wed</w>
vo taría</w>
vo taron</w>
vo k
vok ationen</w>
vo ices</w>
vo ces</w>
vo -
vivi ó</w>
vitam ina</w>
visit as</w>
visit antes</w>
visit ado</w>
visi bility</w>
visi bilidad</w>
vis u
vis ar</w>
virtu eller</w>
virtu ellen</w>
viol ent</w>
viol aciones</w>
vincul adas</w>
viel mehr</w>
viel es</w>
viel erlei</w>
viej a</w>
vice -
vice- president</w>
vic tori
vic tim
vic ti
victi m</w>
viaj ar</w>
viaj a</w>
vi ó</w>
vi vían</w>
vi ous</w>
vi gente</w>
vi eren</w>
vi eran</w>
vi ento</w>
vi entemente</w>
vi enen</w>
vi de
vet lana</w>
vet eran</w>
vesti do</w>
veröffent licht</w>
veröffent lich
veröffentlich ten</w>
veröffent li
veröffentli chte</w>
verwal t
verur teilt</w>
vertre tender</w>
vertrau liche</w>
vertra ue</w>
verti r</w>
verti dos</w>
vertei digen</w>
vertei dig
verteidig te</w>
versäum te</w>
versu chte</w>
verstär kt</w>
verstor ben
verstec kt</w>
versi cher
versi al</w>
verschieden ste</w>
verschied ene</w>
versch windet</w>
vers org
versorg ung</w>
vers ehen</w>
vers am
verring ert</w>
vermu ten</w>
verlei hen</w>
verl or</w>
verkün det</w>
verkauf te</w>
verkauf e</w>
verk auf</w>
veri fy</w>
veri ficar</w>
verhin dert</w>
verfü ge</w>
verfassungs gebenden</w>
verfas st</w>
verein baren</w>
verein bar
verdad ero</w>
verdad eras</w>
verdad era</w>
verbin dliche</w>
verbin den</w>
verbesser t</w>
verb ün
verb unden</w>
verabschied eten</w>
ver á</w>
ver zeichnen</w>
ver zehr
ver wenden</w>
ver weigern</w>
ver wand
ver tritt</w>
ver tical</w>
ver ten
verten cias</w>
ver standen</w>
ver spüren</w>
ver sion</w>
ver sicht</w>
ver pf
ver ni
ver mögen</w>
ver mittelt</w>
ver liert</w>
ver lieren</w>
ver letzte</w>
ver lau
verlau ten</w>
ver las
ver langen</w>
ver klei
ver hö
verhö r</w>
ver hei
ver handeln</w>
ver gi
ver ges
verges sen</w>
ver fol
ver fahren</w>
ver f
ver einz
vereinz elt</w>
ver ei
verei ste</w>
ver d
verd ächtigt</w>
ver breit
ver bra
verbra cht</w>
ver bleiben</w>
ver bietet</w>
ver bieten</w>
ver anstalt
veranstalt ungen</w>
ver al</w>
vent ud</w>
vent ana</w>
vent aja</w>
ven ues</w>
ven ir
ven i
ven dido</w>
ven der
ven dedor</w>
vel oci
veloci dad</w>
vel es</w>
veed ores</w>
ve ían</w>
ve aus</w>
ve -
vari edad</w>
van guar
vali di
vali dez</w>
val u
val ent
valent ía</w>
vac ío</w>
v áli
v á</w>
v on
v ina</w>
v in</w>
v ent</w>
v ei
vei led</w>
v eh
veh ic
v asos</w>
v aso</w>
v as</w>
v alle</w>
v acu
vacu um</w>
uz em
uz bec
uzbec os</w>
utiliz ando</w>
utiliz an</w>
utiliz aba</w>
ut ze</w>
ut reten</w>
ut -
uss waffen</w>
ushk adam
ushkadam ov</w>
us h</w>
us gaben</w>
us en</w>
ursprün glich</w>
ursprün g
ursprüng liche</w>
urban os</w>
ur n</w>
ur isten</w>
ur en</w>
ur en
uren su
urensu che</w>
ur anti
uranti smus</w>
ur -Partei</w>
unterschied lichen</w>
unter nimmt</w>
unter lage</w>
unter halten</w>
unter gra
untergra ben</w>
unter drücken</w>
unt amiento</w>
universit ario</w>
univer sid
universid ades</w>
univer si
universi ties</w>
uni forme</w>
uni form
uniform es</w>
uni do</w>
ungsst euerung</w>
ungsge biete</w>
ungs system</w>
ungs status</w>
ungs an
ungewöhn liche</w>
ung ültig</w>
ung sp
ung sin
ung s</w>
under wear</w>
under way</w>
under stands</w>
under mine</w>
under ground</w>
under go</w>
und ou
undou bt
undoubt edly</w>
unci ado</w>
unbesch ränkte</w>
un weit</w>
un ver
un sure</w>
un ruhig
un roman
un regulated</w>
un recht
unrecht mäßige</w>
un known</w>
un kl
un ken</w>
un k</w>
un ited</w>
un gebildet</w>
un end
un certain</w>
un beg
un aware</w>
un avo
unavo id
unavoid able</w>
un abhän
unabhän gig
unabhängig ere</w>
umstr it
um h
ultra viol
ul äre</w>
ul ta</w>
ul p
ulp turen</w>
ul l</w>
ul f</w>
ul en</w>
ul c
ul ar
udi k
udik ative</w>
ud ly</w>
uc rani
ucrani anos</w>
ubi c
ubic ación</w>
u pris
upris ing</w>
u ph
uph eld</w>
u osa</w>
u men</w>
u kra
ukra in
ukrain ische</w>
u en
u don
udon ym</w>
u cher</w>
u che</w>
u ch
típic a</w>
tí p
típ ico</w>
técni co</w>
técni cas</w>
täu schung</w>
tä ts
tz entrum</w>
tz en</w>
tz eit</w>
tz e</w>
typ ischen</w>
typ isch</w>
two- stage</w>
twen digkeit</w>
tur n-
turn- out</w>
tum or</w>
tu vieran</w>
tu tors</w>
tu tori
tutori al</w>
tu t</w>
tu s</w>
tu ms</w>
tter ung</w>
tschech ischer</w>
tschech ischen</w>
ts wana</w>
ts etzung</w>
ts arist</w>
ts amen</w>
ts '</w>
trág ico</w>
trág ica</w>
tru co</w>
tru cks</w>
tron o</w>
tro l</w>
tro duc
troduc ción</w>
tro ce
tribun al</w>
tri g
tri dimensional</w>
tri buted</w>
tre in
trein ta</w>
tre at</w>
trat aron</w>
trat ando</w>
trat ados</w>
trat aba</w>
transatlan tic</w>
transat l
trans miti
trans formar</w>
trans fer</w>
trans f
transf ers</w>
trage dy</w>
traf fi
traffi ck
tradi cionales</w>
tradi cional</w>
trabaj ado</w>
tra um</w>
tra uen</w>
tra te</w>
tra tar</w>
tra tar
tra tan</w>
tra t</w>
tra mp
tramp le</w>
tra mit
tra jo</w>
tra je</w>
tra in
tra go</w>
tra gi
tragi c</w>
tr á
tr ust</w>
tr um</w>
tr ug</w>
tr itten</w>
tr ischen</w>
tr ading</w>
tour ist</w>
tough ening</w>
tou ch</w>
tot ally</w>
tot all
totall ing</w>
torpe da</w>
tor dnung</w>
tor ate</w>
tor 's</w>
ton tos</w>
tom ada</w>
toda y's</w>
to wns</w>
to pogra
to pi
topi c</w>
to ol</w>
to k
tok oll</w>
to il
to ff
to do
todo poderosos</w>
to ca</w>
to -
tni c
tnic za</w>
tl ed</w>
tiz ación</w>
tivi ert</w>
tiv ität</w>
tion sweise</w>
tion elle</w>
tin ent</w>
tin ción</w>
tik or
tikor ruptions
tikorruptions einheit</w>
tig ungs
tien den</w>
tiefer en</w>
tief sten</w>
tief er</w>
tie fe</w>
tic or
ticor rupción</w>
tic ket</w>
ti us</w>
ti smo</w>
ti sm</w>
ti red</w>
ti que</w>
ti pp
ti onal
ti mität</w>
ti mis
ti ll</w>
ti le</w>
ti ken</w>
ti ght</w>
ti gh
ti fik
ti erten</w>
ti erte</w>
ti eron</w>
thro wing</w>
thro p
thri tis</w>
thre at
threat ening</w>
tho de</w>
thir ty</w>
ther wise</w>
ther mom
ther lands</w>
ther ing</w>
ther ap
the tically</w>
than k</w>
than del</w>
th üll
th r
thr one</w>
th out</w>
th os</w>
th od</w>
th ly</w>
th ie</w>
th i
thi eves</w>
th es
thes is</w>
th and</w>
th a</w>
tezu ma</w>
teur er</w>
teur en</w>
testific ado</w>
test im
testim ony</w>
test ed</w>
terror ists</w>
territ ories</w>
terri blemente</w>
terri ble</w>
termin ar</w>
termin ale</w>
termin al</w>
termin ado</w>
termin a</w>
ter restre</w>
ter ran
terran ean</w>
ter no
terno on</w>
ter m
term ómetros</w>
ter halten</w>
ter essen</w>
ter ap
terap éuticos</w>
ter a
tent h</w>
ten siones</w>
ten s</w>
ten or</w>
ten ger
ten gamos</w>
ten encia</w>
ten dría</w>
ten dr
ten dlich</w>
ten den</w>
ten den
ten berg</w>
tempor arily</w>
temp ran
tempran a</w>
tem o</w>
tem ati
telesco pe
telescope 's</w>
tel s</w>
tel n</w>
tel a</w>
teil chen</w>
teil bar</w>
tei lung</w>
teg ia</w>
tecnolog ía</w>
techni cal
technical ity</w>
techn ische</w>
team s</w>
te za</w>
te ure</w>
te ocracia</w>
te fac
te di
tedi ous</w>
te americana</w>
target ed</w>
tar j
tarj eta</w>
tar día</w>
tar do</w>
tap e</w>
tant os</w>
tangi ble</w>
talysh is</w>
talysh i</w>
tak uläre</w>
tag s
tags über</w>
tac kle</w>
tabacal era</w>
ta xes</w>
ta ste</w>
ta qu
taqu ig
taquig ra
taquigra fía</w>
ta ch
t- Ko
t-Ko ch-
t-Koch- Institut</w>
t úa</w>
t ác
t á
t var
t ter</w>
t stadt</w>
t phone</w>
t our</w>
t ough</w>
t orio</w>
t ories</w>
t ons</w>
t oll</w>
t län
tlän ge</w>
t ina</w>
t euer</w>
t eten</w>
t ent</w>
t ells</w>
t echo</w>
t ears</w>
t ay
tay ik
tayik os</w>
t arios</w>
t anta</w>
t ang</w>
t ando</w>
t ance</w>
t amos</w>
t aller</w>
t al
t ador</w>
t acti
tacti le</w>
t aban</w>
sü dlichen</w>
system e</w>
symboli c</w>
sy mptom
symptom s</w>
swi mm
swimm ing</w>
sver träge</w>
suspen sión</w>
suspen der</w>
susp ected</w>
surgi ó</w>
sur ve
sur pris
sur pr
surpr ise</w>
sur gen</w>
sur face</w>
supuest amente</w>
suppor ter</w>
supp lies</w>
superfici es</w>
super mercado</w>
super markets</w>
super ar</w>
sup press</w>
sup posed</w>
sup o</w>
sum ing</w>
sum amente</w>
suj etas</w>
suici darse</w>
suggest s</w>
sug gesti
suggesti on</w>
sufri ó</w>
sufri endo</w>
suffici ently</w>
suff oc
suff er</w>
suel do</w>
sud den
sudden ly</w>
succe eds</w>
suc cu
succu mb
succumb ed</w>
subsequ ently</w>
subra ya</w>
sub terráneo</w>
sub je
subje tivo</w>
su stancias</w>
su primi
su peri
su ms</w>
su mer
sumer gi
sumergi do</w>
su gi
su ger
su e</w>
su cum
sucum bido</w>
su cht</w>
stütz t</w>
stück s</w>
stör en</w>
stärk sten</w>
stän dige</w>
stum bled</w>
stu pi
stupi d</w>
stu fen
stufen rak
stufenrak ete</w>
stu ck</w>
strugg les</w>
stru k
stru cture</w>
stron g
stric tly</w>
stri ke</w>
stri k
stri er
strength ening</w>
streng then</w>
streng th</w>
streng ere</w>
stren g</w>
stre t
stre am</w>
strateg y</w>
strah lung</w>
strafrecht liche</w>
stra fe</w>
stra ci
str enge</w>
stor yt
stop ping</w>
stop pen</w>
stom ping</w>
stoff en</w>
sto ß</w>
stim ul
stic os</w>
stic k</w>
sti pul
sti oso</w>
sti l</w>
sti ftung</w>
sti cia</w>
sti c</w>
ster ing</w>
ster ed</w>
sten ido</w>
stei gen</w>
steh ende</w>
stec ks</w>
stec ken</w>
ste aling</w>
stat ing</w>
star ts</w>
stan ces</w>
stab il
staat lich</w>
sta un
st öße</w>
st ö
st ätte</w>
st ro</w>
st rei
st iger</w>
st ete</w>
st est</w>
st ern
st eri
steri ormente</w>
st ep
step s</w>
st at</w>
st amp
st al</w>
st ake</w>
st -
sprü che</w>
spre cher</w>
spre che</w>
spra chen</w>
spra ch
spr ingen</w>
spor ting</w>
spor a
spon sor</w>
spon so
sponso red</w>
spon s
spons ors</w>
spo ke</w>
spiel er</w>
spi ritual</w>
spezi alisiert</w>
spek takuläre</w>
specific ally</w>
special ists</w>
spe aks</w>
spe aking</w>
spati enten</w>
spar en</w>
spar e</w>
spann ende</w>
sp ur
sp ends</w>
sp enden</w>
sp ect
spect acular</w>
sovi éticos</w>
sou the
sou l</w>
sorprend entes</w>
sonris a</w>
son g</w>
son ar</w>
some tida</w>
som bra</w>
solu tions</w>
solici tudes</w>
solici tud</w>
sol le</w>
sol di
soldi ers</w>
sol ches</w>
sol cher</w>
sol chen</w>
sol ares</w>
sol amente</w>
sogenann ten</w>
soci os</w>
soci ación</w>
soc cer</w>
sobre estim
sober anía</w>
so und
so pran
sopran o</w>
so pl
so on</w>
so fía</w>
so fern</w>
so dass</w>
so bald</w>
smo oth
smooth ly</w>
smo ke</w>
sm all-
sleep ing</w>
sla ve</w>
sk urantismus</w>
sk rank
sk r
sk aya</w>
sitz t</w>
situ aciones</w>
sit zen</w>
sit ting</w>
sit os</w>
sir vió</w>
sir ven</w>
sion ists</w>
sion isten</w>
sion ell</w>
sing ular</w>
sindic al</w>
sin ónimo</w>
sin teressen</w>
sin n
sin cero</w>
simul tá
sigui endo</w>
signific ó</w>
signific ativo</w>
signific aba</w>
signi ert</w>
sign als</w>
sign alled</w>
sign alisiert</w>
sig nos</w>
sias mado</w>
si x-
si va</w>
si t</w>
si sta</w>
si mismo</w>
si mb
simb ó
si ght</w>
si gen</w>
si en</w>
si ege</w>
si eb
si di
si der
si dentin</w>
si cos</w>
si co</w>
si ck</w>
si bili
sibili ties</w>
si 's</w>
shu ts</w>
shor thand</w>
sho t</w>
sho p</w>
shif ted</w>
shar p
sha h</w>
sh ort
sh adow</w>
ses sions</w>
ses or
sesor ten</w>
ses enta</w>
servi dor</w>
serv ing</w>
serv ativos</w>
seri ously</w>
ser ían</w>
ser wartung</w>
ser vir
ser ve</w>
ser ts</w>
ser s</w>
ser klärung</w>
ser klär
serklär ungen</w>
sequ enz</w>
sequ ence</w>
senti miento</w>
senti erte</w>
senti dos</w>
sent ence</w>
sensi tive</w>
sensi bilidad</w>
sens ation</w>
senci llas</w>
senci llamente</w>
senci lla</w>
sen sible</w>
sen ales</w>
seman ales</w>
sem in
semin ario</w>
sem ej
semej ante</w>
sel tsam</w>
sel o</w>
sel la</w>
sel be</w>
sei zing</w>
sei zed</w>
sei ze</w>
segun dos</w>
segu ramente</w>
segu id
seguid ores</w>
sed ation</w>
secut ing</w>
secu encia</w>
sec ure</w>
sec tions</w>
seas ons</w>
sear ching</w>
sear ches</w>
se wer</w>
se udonym</w>
se ktor</w>
se dación</w>
se as</w>
se amos</w>
schü t
schü chter
schä digt</w>
schä digend</w>
schwier iger</w>
schwier ige</w>
schwi erig
schwa cher</w>
schw ellen</w>
schul e</w>
schul dig</w>
schu f</w>
schrän ken</w>
schrit t</w>
schri ft
schnitts weise</w>
schnit te</w>
schlä gt</w>
schlä ge</w>
schlä fern</w>
schlim m</w>
schle chte</w>
schir m</w>
schi ffen</w>
schi enen</w>
schei be</w>
schau er</w>
schaf ter</w>
sch ätze</w>
sch ungen</w>
sch ten</w>
sch rump
schrump fte</w>
sch reibt</w>
sch re
sch os
schos s</w>
sch o
scho ols</w>
sch ina</w>
sch imp
schimp fen</w>
sch ikistan</w>
sch em
sch e
sch auf
schauf eln</w>
sch arf</w>
sch altete</w>
sch alten</w>
sch -
scar y</w>
sc ores</w>
sc ann
sc am</w>
sc ales</w>
sbe ken</w>
satz plan
satzplan eten</w>
sat élites</w>
sar ten</w>
sanit arios</w>
salv ación</w>
sali do</w>
salafi stas</w>
sal ud
sal ine</w>
sal ga</w>
sal en</w>
sal azón</w>
saf ety</w>
sac a</w>
sab lauf</w>
sa ßen</w>
sa ves</w>
sa ved</w>
sa de</w>
sa d</w>
sa ciones</w>
s- examin
s ó
s íntomas</w>
s é</w>
s zene</w>
s zeit
s ushi</w>
s ungen</w>
s ought</w>
s ort</w>
s ons</w>
s ni
s mar
smar t</w>
s lush</w>
s low
slow ly</w>
s law</w>
s l</w>
s ings</w>
s ets</w>
s ess</w>
s eller</w>
s ein
s cur
scur anti
scuranti sm</w>
s culos</w>
s bur
s ation</w>
s ash</w>
s anta</w>
s and
s ado</w>
s ada</w>
s aber</w>
rücksichts losen</w>
rü ßen</w>
rü gen</w>
rö mis
römis che</w>
rí o</w>
rí cula</w>
ré cord</w>
rá mi
rámi de</w>
rá lov
rálov é</w>
rut inio</w>
rus os</w>
rum or</w>
rul ing</w>
ru z</w>
ru ta</w>
ru ral</w>
ru ctur
ru cht
ru bles</w>
ron e
roman tic</w>
rom ántica</w>
rob o</w>
rob ado</w>
ro- H
ro- Amerikaner</w>
ro of</w>
ro manos</w>
ro log
ro ll
roll s</w>
ro les</w>
ro l</w>
ro kratie</w>
ro hr</w>
ro h
ro cin
ro chen</w>
ro bo
robo ts</w>
ro bar</w>
ro ba</w>
riteri en</w>
rit os</w>
rit oriums</w>
rist al
ris en</w>
ris as</w>
rigu ro
rif les</w>
ries iges</w>
ries igen</w>
ric amente</w>
ri val</w>
ri um</w>
ri rse</w>
ri r</w>
ri ller</w>
ri j</w>
ri gor</w>
ri erten</w>
ri eren</w>
ri er
rier efre
rierefre iheit</w>
ri enti
ri ef</w>
ri e
ri chtet</w>
ri chten</w>
ri cht
retur ning</w>
retra so</w>
reti rado</w>
reti da</w>
reta il</w>
resul ting</w>
resul ted</w>
resul tará</w>
restric ting</w>
rest au
responsab les</w>
respon se</w>
respon dió</w>
respon den</w>
respon ded</w>
resp ite</w>
resp ects</w>
resp al
resol ved</w>
resist ible</w>
resi dencia</w>
resi dence</w>
resh ers</w>
resem bles</w>
resear cher</w>
res puestas</w>
res pi
requi rement</w>
requ eri
republikan ischen</w>
represent s</w>
represent ed</w>
represent ados</w>
repor ters</w>
replac ement</w>
repar ations</w>
repar ationen</w>
repar aciones</w>
rep itan</w>
renov ar</w>
remin der</w>
rema ining</w>
reluc tant</w>
religi oso</w>
rele ased</w>
relativ as</w>
relacion ados</w>
relacion ado</w>
rel le</w>
rel ativa</w>
rej ected</w>
reich sten</w>
rei ß
rei vin
rei cher</w>
rei bung</w>
regul ating</w>
regul ate</w>
regul arly</w>
regul ada</w>
regul aciones</w>
regu la</w>
regres sion</w>
regre so</w>
regre sión</w>
registri ert</w>
registr ados</w>
registr ada</w>
register ing</w>
regist ros</w>
regist ers</w>
regi erte</w>
regel mäßige</w>
reg lamento</w>
reg er</w>
reg ard</w>
reg ale</w>
reg al
refugi o</w>
refugi ados</w>
refriger ación</w>
refor zado</w>
refer red</w>
refer ente</w>
refer ence</w>
ref used</w>
ref lej
redu zieren</w>
redu jo</w>
recur sos</w>
recur so</w>
recu ento</w>
recor rido</w>
recor ren</w>
recor dar</w>
recor daba</w>
reconoci ó</w>
reconoc en</w>
recon oce</w>
recon ci
recomp ensa</w>
recomi end
recomiend an</w>
recom men
reclam ar</w>
reclam ación</w>
recibi eron</w>
reci be</w>
recht lichen</w>
rech terhalten</w>
rech as</w>
rec óndita</w>
rec tal</w>
rec ta</w>
rec er</w>
rec alls</w>
reas onable</w>
realiz ó</w>
realiz an</w>
realiz ación</w>
real ist
reach es</w>
re- thick</w>
re zca</w>
re yes</w>
re vit
re un
re u
re tro
re transmisión</w>
re tor
re tom
re tic
re tenido</w>
re suel
re sources</w>
re sign
re sident</w>
re puesto</w>
re pu
re production</w>
re producción</w>
re presión</w>
re present</w>
re port
report edly</w>
re moved</w>
re move</w>
re member
remember ed</w>
re lo
relo j</w>
re frain</w>
re forms</w>
re forest
re ffen</w>
re e</w>
re d
red acción</w>
re counts</w>
re bajas</w>
re ase</w>
re arms</w>
re alised</w>
re ady</w>
re ading</w>
re acción</w>
rau ben</w>
rations lagern</w>
rar nos</w>
rank reich</w>
ran te</w>
ran s</w>
ran k</w>
ran g
ran do</w>
rak i
raki et
rakiet ob
rakietob om
rakietobom ba</w>
rak h
rakh tenberg</w>
rais ine</w>
rais es</w>
radi o
radio telescopio</w>
rad ar</w>
ra zon
ra usgaben</w>
ra ts</w>
ra tas</w>
ra t</w>
ra s
ra mas</w>
ra m</w>
ra m
ra il
ra ge</w>
ra dic
r ó</w>
r án</w>
r ying</w>
r uns</w>
r und
r n</w>
r la</w>
r ise</w>
r inge</w>
r ental</w>
r encia</w>
r ara</w>
r all
r ados</w>
quí mico</w>
quisi eran</w>
quin ta</w>
quil er</w>
quier an</w>
queri do</w>
quej an</w>
qued ó</w>
qued arse</w>
qued ar</w>
quanti ties</w>
quali fiziert</w>
quali fied</w>
qu ity</w>
qu it
qu et</w>
qu esos</w>
qu elle</w>
qu ebe
quebe qu
qu ar
quar ters</w>
qu alität</w>
pér didas</w>
pág ina</w>
push es</w>
pursu e</w>
purch ased</w>
purch as
pun tu
pun ish
pun c
pulser a</w>
pul led</w>
pue des</w>
public adas</w>
public ada</w>
publi cit
publi ci
publici dad</w>
pu ty</w>
pu r</w>
pu mp
pump s</w>
pu m
pu entes</w>
pu do</w>
próxim os</w>
prä sentierte</w>
prud entes</w>
provo ked</w>
provo ca</w>
provisi ones</w>
provinci ales</w>
provin cia</w>
provi ding</w>
prov echo</w>
proto col
protocol o</w>
proto co
protoco l</w>
protest ers</w>
protest ed</w>
prot ests</w>
prot ege</w>
prot ects</w>
propi et
propiet arios</w>
propi as</w>
proper ty</w>
propag anda</w>
pronunci arse</w>
pron ó
promo ting</w>
promo ter</w>
promo cion
promocion ar</w>
promis ing</w>
promin enten</w>
promet en</w>
prome tió</w>
proje kt</w>
proj ection</w>
proj ect's</w>
prohi bited</w>
prohi bit</w>
progra mas</w>
progno stiziert</w>
professi onal</w>
profesi on
profes sionell</w>
profes ores</w>
prof its</w>
prof ite
produc ía</w>
produc to</w>
produc t</w>
produ ziert</w>
produ kten</w>
produ cido</w>
proce ed
proceed ings</w>
proce der</w>
proc lam
proc essed</w>
proc esos</w>
prob ablemente</w>
prob abilidad</w>
pro ve</w>
pro udly</w>
pro secuting</w>
pro posing</w>
pro posed</w>
pro pos
pro ponía</w>
pro poner</w>
pro mp
promp ted</w>
pro li
proli fer
pro gre
pro ch
proch enen</w>
pro bt</w>
pro bar
priv ar</w>
prin ted</w>
prim ario</w>
previ ously</w>
previ a</w>
prevent ing</w>
prevent ed</w>
prev ails</w>
prest ig
presion ar</w>
presid enta</w>
present es</w>
present en</w>
present ation</w>
present arse</w>
present ación</w>
present aban</w>
prescrip ción</w>
pres sung</w>
pres sive</w>
pres sionisten</w>
pres sen</w>
pres sed</w>
pres se</w>
pres ente</w>
prepar an</w>
pregun tarse</w>
predic ts</w>
predic ted</w>
preci sa</w>
preci ado</w>
preced entes</w>
pre venir</w>
pre vención</w>
pre tar</w>
pre sume</w>
pre servativos</w>
pre hen
pre fi
pre fer</w>
pre fer
pre cip
precip it
pre chen</w>
pran gern</w>
practic es</w>
practi sing</w>
prac tically</w>
prac tical</w>
pra yer</w>
pra xis</w>
pr os</w>
pr inc
pr ende</w>
pp ing</w>
posteri ormente</w>
posteri ores</w>
post -
posi tiven</w>
posi te</w>
posi cion
posi bles</w>
port amiento</w>
port adores</w>
por tions</w>
por ciones</w>
por a</w>
popul ous</w>
pon er
pon d</w>
polí ticas</w>
pollu elo</w>
poli tischer</w>
poli s</w>
pol o</w>
pol aco</w>
pol aca</w>
pol ac
podr íamos</w>
podr á</w>
poder osa</w>
pod éis</w>
pod amos</w>
pobl ado</w>
po wietrzna</w>
po t</w>
po se
po ol</w>
po o</w>
po l</w>
po día</w>
po dremos</w>
po che</w>
po c
po bre</w>
plom aten</w>
ple as
pleas ant</w>
plata formas</w>
plat forms</w>
plat form</w>
plant ear
plant as</w>
plan ts</w>
plan e</w>
plagi arist</w>
plac ed</w>
pl ötz
pl át
pl ástico</w>
pl ug</w>
pl ough
plough s</w>
pl enty</w>
pl enos</w>
pl end
pl au
pl astic</w>
pl anning</w>
pl ana</w>
pix el</w>
piso te
pis o</w>
pion ship</w>
pion e
pin k
pilo to</w>
pilo t</w>
pil lar
pillar s</w>
pil ares</w>
pier de</w>
piel t</w>
pic ture</w>
pi rámide</w>
pi g</w>
pi es</w>
pi ensa</w>
pi eces</w>
pi dos</w>
physici sts</w>
physic ally</w>
physi sche</w>
photogra ph
phal os</w>
ph enom
phenom en
phenomen on</w>
ph em
ph ase</w>
peti ción</w>
pet ty</w>
perío do</w>
persön lichen</w>
persön liche</w>
perspec tiva</w>
person almente</w>
person ally</w>
person ales</w>
person ajes</w>
perman ecer</w>
perió dic
periódic amente</w>
performan ces</w>
perfect a</w>
perci be</w>
percent age</w>
perc ussions</w>
per ten
per siguiendo</w>
per si
per sever
per secu
per s</w>
per rt</w>
per ros</w>
per pet
per mitted</w>
per mis
permis o</w>
per formed</w>
per cu
percu siones</w>
per atur</w>
per ation</w>
pens amos</w>
pens amiento</w>
pens aba</w>
pen sión</w>
pen sion</w>
pen ding</w>
pen dientes</w>
pen diente</w>
pen ales</w>
pen al
peli gro
peli agu
pedi ría</w>
peda zo</w>
pe z</w>
pe dido</w>
pe ak</w>
pat rocin
pat ria</w>
pasapor tes</w>
pas sports</w>
pas os</w>
pas ear</w>
pas ará</w>
pas ados</w>
participar on</w>
particip ó</w>
particip ated</w>
part ner</w>
parej a</w>
paral elo</w>
paral el
paralel amente</w>
para íso</w>
par á
par tly</w>
par ten</w>
par quet</w>
par ques</w>
par liam
parliam ent
parliament ary</w>
par lam
parlam ent
parlament arios</w>
par ks</w>
par ental</w>
par ent</w>
par ed</w>
par ecido</w>
par eci
par ecer</w>
par ec
parec ía</w>
par e
pare des</w>
par cialmente</w>
par ar</w>
par ap
paqu ete</w>
pali za</w>
pali ativa</w>
palest ina</w>
pal p
palp able</w>
pal acio</w>
pal ace</w>
pais aje</w>
pain ted</w>
pain ful</w>
pag ó</w>
pag ado</w>
pag a</w>
pac ked</w>
pa thie</w>
pa i</w>
pa cho</w>
p ür</w>
p ush</w>
p t</w>
p one</w>
p oll
poll 's</w>
p m</w>
p liz
p le</w>
p ity</w>
p ft</w>
p fen</w>
p elt</w>
p elo</w>
p ays</w>
p an</w>
ovi et</w>
over throw</w>
over see</w>
over night</w>
out standing</w>
oun ce</w>
ou ting</w>
ou th</w>
ou raging</w>
ou ra
ot ball</w>
oscur o</w>
oscur anti
oscuranti smo</w>
oscilar án</w>
osat elliten</w>
os lov
os aron</w>
os '</w>
origin ally</w>
origin ales</w>
orienti ert</w>
ori th
ori ental</w>
ori en</w>
ori as</w>
ori al</w>
orgul los
organiz ations</w>
organiz ation</w>
organiz adores</w>
organiz ador</w>
organiz ada</w>
organiz aciones</w>
organis er</w>
organ ill
organill ero</w>
ore mentioned</w>
ordin ary</w>
orden ado</w>
or yzhie</w>
or oso</w>
or o</w>
or nada</w>
or ische</w>
or ders</w>
or bits</w>
or as</w>
or amiento</w>
or ada</w>
or ación</w>
or 's</w>
oper ation</w>
oper ating</w>
oper arios</w>
oper adores</w>
oper aciones</w>
op tion</w>
op tical</w>
op posite</w>
op ping</w>
op ening</w>
op ened</w>
op en
op eia</w>
op ciones</w>
oni al</w>
on ische</w>
on ing</w>
on da</w>
on có
on chi
onchi tis</w>
on azis</w>
on ally</w>
omnipot ent</w>
omin ic
omi endo</w>
om édicos</w>
om phalos</w>
om ed</w>
om b
om al
olvi dar</w>
olog ías</w>
oll macht</w>
ole ada</w>
ol or</w>
ol go
olgo tha</w>
ol dest</w>
ol ation</w>
ol as</w>
[...]
