, 3014
the 2751
. 2451
of 1406
to 1194
in 981
a 978
and 923
is 719
" 653
that 445
for 398
are 363
The 357
on 347
with 305
it 301
not 290
be 288
I 259
by 246
have 241
this 239
was 232
from 216
at 204
as 194
will 189
which 184
- 182
has 173
an 173
In 157
or 153
their 143
who 143
they 139
you 132
? 130
he 128
there 127
but 126
people 125
we 123
can 119
his 118
more 116
also 116
one 115
were 112
all 102
: 100
said 100
( 99
) 99
its 97
This 93
my 91
been 87
no 86
It 86
had 83
time 82
only 80
would 78
other 77
do 76
ing 75
ed 72
about 71
years 70
than 69
out 68
like 67
so 65
where 65
our 65
up 63
them 63
new 63
But 63
even 61
work 60
into 58
just 58
when 58
now 58
A 55
says 55
what 55
because 55
two 54
these 52
very 51
And 51
does 50
first 50
many 49
being 49
es 48
should 47
day 47
such 46
around 46
after 46
We 46
some 45
most 45
country 44
world 44
us 44
law 44
way 44
-@@ 44
un@@ 44
come 43
want 42
However 42
if 42
y 42
For 41
space 41
state 41
s@@ 40
s 40
They 39
number 39
ts 39
ation 39
me 39
system 38
must 38
already 38
same 37
public 37
over 37
between 36
Germany 36
million 35
could 35
still 35
There 35
Israel 35
make 35
then 35
small 34
's 34
him 34
right 33
year 33
your 33
may 33
against 33
end 33
any 33
own 33
States 33
example 32
how 32
much 32
On 32
; 32
money 32
ly 32
ated 31
Manning 31
ers 31
f@@ 31
man 31
go 31
back 31
under 31
weapons 31
ate 30
take 30
in@@ 30
European 30
e 30
able 30
American 30
few 30
life 29
fact 29
At 29
think 29
through 29
place 29
If 29
something 29
military 28
laws 28
care 28
need 28
You 28
well 28
children 28
good 28
without 28
say 27
al 27
during 27
while 27
before 27
those 27
He 27
1 27
What 27
ted 27
State 27
old 26
city 26
certain 26
hand 26
re@@ 26
did 26
get 26
! 26
countries 26
she 26
things 25
less 25
roads 25
t 25
According 25
long 25
ations 24
situation 24
last 24
used 24
st@@ 24
group 24
everything 24
don't 24
here 23
telescope 23
ally 23
always 23
age 23
red 23
So 23
live 23
Mexico 23
000 23
home 23
three 23
ting 23
according 23
find 23
too 23
cases 23
region 23
light 23
know 23
dollars 22
really 22
research 22
2011 22
become 22
yet 22
down 22
marijuana 22
often 22
however 22
tion 21
vote 21
power 21
boredom 21
As 21
Mr 21
left 21
b@@ 21
language 21
cancer 21
each 21
important 21
part 21
foreign 21
g@@ 21
every 21
United 21
5 21
made 21
University 20
never 20
role 20
Tap 20
am 20
found 20
places 20
another 20
away 20
S@@ 20
office 20
since 20
put 20
history 20
m 20
e@@ 20
EU 20
almost 20
ent 20
week 20
due 20
course 19
costs 19
her 19
er 19
lot 19
help 19
look 19
When 19
di@@ 19
little 19
enough 19
black 19
far 19
private 19
d@@ 19
took 19
case 19
difficult 19
use 19
ous 19
best 18
young 18
having 18
great 18
high 18
means 18
order 18
forced 18
ds 18
cannot 18
food 18
c@@ 18
culture 18
voters 18
C@@ 18
dis@@ 18
human 18
contracts 18
different 18
though 18
German 18
rocket 18
see 17
government 17
five 17
over@@ 17
war 17
taken 17
rights 17
ist 17
con@@ 17
international 17
thing 17
hard 17
o@@ 17
free 17
level 17
population 17
on@@ 17
capital 17
local 17
name 17
came 16
w@@ 16
social 16
Russian 16
states 16
play 16
de 16
legislation 16
Czech 16
Republic 16
shows 16
area 16
actually 16
both 16
control 16
World 16
began 16
force 16
policy 16
among 16
le 16
lo@@ 16
school 16
political 16
Russia 16
women 16
whether 16
citizens 15
support 15
president 15
future 15
h@@ 15
former 15
ch@@ 15
whole 15
ra@@ 15
protection 15
Institute 15
together 15
market 15
Even 15
early 15
sh@@ 15
family 15
position 15
clear 15
addition 15
de@@ 15
men 15
co@@ 15
main 15
living 15
others 15
leaders 15
several 15
longer 15
water 15
als 15
might 15
nothing 15
al@@ 15
Hamas 14
until 14
project 14
current 14
le@@ 14
ad@@ 14
How 14
large 14
ating 14
company 14
w 14
ses 14
d 14
sion 14
problem 14
months 14
p 14
change 14
im@@ 14
treatment 14
low 14
St 14
People 14
Pena 14
Quebec 14
party 14
com@@ 14
ents 14
give 14
seen 14
palliative 14
President 14
needs 14
least 14
particularly 14
no@@ 14
ro@@ 14
China 14
ac@@ 14
it's 14
risk 14
snow 14
experts 14
It's 14
These 14
t@@ 14
became 14
Walmart 14
pro@@ 13
person 13
working 13
open 13
accept 13
next 13
ago 13
try 13
process 13
ties 13
2010 13
2012 13
ce 13
told 13
photo 13
reality 13
test 13
article 13
comes 13
n@@ 13
euros 13
real 13
business 13
metres 13
within 13
To 13
Not 13
times 13
based 13
i 13
star 13
room 13
worth 13
p@@ 13
especially 13
New 13
USA 13
huge 13
ded 13
fish 13
point 13
bored 13
planet 13
Chinese 13
30 13
tions 13
election 13
Petersburg 13
given 13
East 13
rather 13
ings 13
After 13
member 13
k 12
financial 12
allowed 12
se 12
2 12
going 12
That 12
image 12
ty 12
rules 12
Africa 12
society 12
ying 12
following 12
site 12
voted 12
employees 12
network 12
increase 12
Mexican 12
I'm 12
-- 12
ar@@ 12
ding 12
With 12
French 12
Now 12
products 12
remains 12
including 12
ever 12
ise 12
authorities 12
li@@ 12
14 12
behind 12
pay 12
film 12
Europe 12
town 12
everyone 12
members 12
themselves 12
November 12
virtual 12
days 12
top 12
building 12
term 12
ant 12
ans 12
later 12
Since 12
legal 12
goal 12
art 12
ary 12
centre 12
why 12
press 12
percent 12
looking 11
second 11
brought 11
worked 11
possible 11
birth 11
st 11
federal 11
thousand 11
industry 11
past 11
hours 11
set 11
l@@ 11
pl@@ 11
One 11
drug 11
ch 11
band 11
voting 11
Some 11
Higgs 11
card 11
k@@ 11
W@@ 11
takes 11
evening 11
issue 11
close 11
conditions 11
War 11
economic 11
Moscow 11
wave 11
achieve 11
car@@ 11
artists 11
100 11
better 11
mean 11
modern 11
m@@ 11
ic 11
world's 11
Montreal 11
fast 11
e-@@ 11
ence 11
idea 11
done 11
mountain 11
majority 11
ks 11
ver@@ 11
From 11
Here 11
civil 11
head 11
ice 11
groups 11
considered 11
ter 11
c 11
we're 11
six 11
lead 11
book 11
likely 10
Then 10
at@@ 10
asked 10
v@@ 10
child 10
el@@ 10
My 10
positive 10
full 10
major 10
Nieto 10
opinion 10
illegal 10
interests 10
u@@ 10
bring 10
ti@@ 10
op@@ 10
official 10
officials 10
central 10
held 10
ask 10
tive 10
else 10
himself 10
similar 10
application 10
America 10
HIV 10
While 10
data 10
'@@ 10
education 10
lives 10
weeks 10
Egyptian 10
y@@ 10
visit 10
making 10
en@@ 10
across 10
general 10
field 10
movement 10
21 10
ages 10
Arab 10
Egypt 10
simple 10
simply 10
century 10
itself 10
a@@ 10
text 10
supported 10
Friday 10
actual 10
P@@ 10
wanted 10
view 10
sure 10
et@@ 10
someone 10
reduce 10
Oxford 10
health 10
king 10
kind 10
higher 10
ex@@ 10
called 10
mo@@ 10
patients 10
trademark 10
present 10
largest 10
vi@@ 10
registration 10
la@@ 10
therefore 9
Colorado 9
PSG 9
big 9
em@@ 9
ri@@ 9
Jewish 9
vision 9
Mexicans 9
dark 9
parties 9
complete 9
status 9
McDonald's 9
plan 9
sometimes 9
Muslim 9
currently 9
projects 9
war@@ 9
line 9
land 9
makes 9
doing 9
hope 9
ve 9
audit 9
off 9
pressure 9
ine 9
diameter 9
total 9
received 9
air 9
post 9
economy 9
concerts 9
using 9
start 9
ho@@ 9
qu@@ 9
reason 9
popular 9
est 9
special 9
cause 9
ect 9
an@@ 9
parts 9
friends 9
whose 9
third 9
side 9
interest 9
Gaza 9
father 9
favour 9
interesting 9
ors 9
12 9
15 9
show 9
sites 9
Obama 9
particular 9
se@@ 9
believe 9
b 9
built 9
8 9
ving 9
possession 9
Professor 9
criminal 9
eight 9
York 9
areas 9
terms 9
thought 9
works 9
brand 9
limited 9
despite 9
Southern 9
quickly 9
expected 9
cultural 9
icy 9
es@@ 9
trans@@ 9
per@@ 9
fight 9
existence 9
20 9
period 9
events 9
Many 9
competition 9
rate 9
si@@ 9
explains 9
organised 9
effect 9
Germans 9
corruption 9
problems 9
once 9
doesn't 9
Baranets 9
respect 9
needed 8
man@@ 8
recent 8
First 8
alone 8
Our 8
s' 8
ants 8
technologies 8
th 8
trade 8
bl@@ 8
highway 8
service 8
sell 8
cover 8
sea 8
barely 8
parents 8
suffering 8
led 8
glasses 8
books 8
' 8
stars 8
documents 8
so-called 8
Republican 8
ets 8
construction 8
provide 8
ative 8
infrared 8
previous 8
night 8
mar@@ 8
revolution 8
During 8
club 8
didn't 8
pe@@ 8
Museum 8
ir@@ 8
mostly 8
ys 8
trying 8
month 8
streets 8
fully 8
leave 8
hundred 8
officers 8
res@@ 8
politicians 8
win 8
located 8
rakfisk 8
completely 8
ked 8
police 8
lost 8
Polish 8
tra@@ 8
went 8
matter 8
seem 8
medical 8
principle 8
Palestinians 8
bad 8
subject 8
near 8
changes 8
Bitcoin 8
Australia 8
hand@@ 8
talk 8
views 8
killed 8
10 8
16 8
potential 8
Dr 8
normal 8
paid 8
morning 8
images 8
violence 8
road 8
pre@@ 8
students 8
d-@@ 8
der 8
remain 8
boson 8
house 8
wages 8
treated 8
extremely 8
create 8
meeting 8
elections 8
mirror 8
forward 8
Israelis 8
par@@ 8
exchange 8
sing 8
reached 8
ancient 8
Among 8
tests 8
Ministry 8
to@@ 8
fac@@ 8
relations 8
ely 8
born 8
thousands 8
tobacco 8
Tory 8
fi@@ 8
outside 8
ID 8
Is 8
actions 8
politics 8
ten 8
known 8
developed 8
expect 8
feel 8
ur@@ 8
reach 8
opposition 8
village 8
whom 8
flight 8
City 8
i@@ 8
Israel's 8
inter@@ 8
question 8
issued 8
ging 8
degree 8
articles 8
g 8
four 7
increasing 7
reported 7
glass 7
hold 7
currency 7
Another 7
His 7
development 7
series 7
transactions 7
Union 7
ment 7
player 7
unique 7
happy 7
offer 7
ves 7
ved 7
team 7
prevent 7
ta@@ 7
along 7
fake 7
Federal 7
draft 7
infections 7
wants 7
Conservative 7
T@@ 7
Thursday 7
do@@ 7
Canada 7
Mercury 7
Mexican-Americans 7
6 7
register 7
available 7
community 7
Of 7
anything 7
cli@@ 7
ling 7
Esitjeni 7
influence 7
sc@@ 7
challenge 7
perfect 7
presidential 7
Iran 7
clearly 7
face 7
wealth 7
migrant 7
U 7
dec@@ 7
ously 7
hi@@ 7
th@@ 7
so@@ 7
sp@@ 7
sive 7
crimes 7
created 7
powers 7
speak 7
strong 7
families 7
towards 7
pose 7
dying 7
fo@@ 7
global 7
cost 7
heard 7
half 7
son 7
drop 7
el 7
et 7
ways 7
constitutional 7
is@@ 7
Victor-Gadbois 7
bu@@ 7
poor 7
ahead 7
helped 7
tried 7
systems 7
Freudenberg 7
ase 7
pa@@ 7
famous 7
as@@ 7
probably 7
conflict 7
run 7
step 7
Their 7
required 7
orbit 7
experiment 7
started 7
instance 7
ure 7
Kirill 7
wor@@ 7
transaction 7
library 7
US 7
museum 7
companies 7
army 7
call 7
All 7
points 7
stop 7
Washington 7
appeared 7
dra@@ 7
form 7
bitcoins 7
B@@ 7
billion 7
die 7
adds 7
claim 7
Black 7
pain 7
ged 7
af@@ 7
4 7
either 7
served 7
ingly 7
Constitution 7
ag@@ 7
23 7
late 7
AIDS 7
funding 7
conducted 7
expensive 7
telescopes 7
moment 7
Jerusalem 7
antly 7
per 7
prepared 7
cur@@ 7
2009 7
ab@@ 7
entire 7
body 7
r@@ 7
account 7
democracy 7
or@@ 7
interaction 7
it@@ 7
disease 7
sa@@ 7
material 7
A@@ 7
transmitted 7
corporation 7
enjoy 7
gh@@ 7
ms 7
hearing 7
lawyer 7
report 7
self-@@ 7
crisis 7
October 7
he's 7
necessarily 7
season 7
ity 7
cities 7
direction 7
reduced 7
stand 7
energy 7
story 7
measures 7
recently 7
attention 7
ent@@ 7
range 7
mountains 7
practice 7
Prague 7
ones 7
words 7
bought 7
perhaps 7
student 7
raise 7
t-@@ 7
Americans 7
funds 7
Euro 6
regional 6
explained 6
ction 6
music 6
democratic 6
Minister 6
Bank 6
professor 6
rich 6
mandatory 6
Kinect 6
result 6
demanded 6
Pro@@ 6
Nonetheless 6
easy 6
individuals 6
everywhere 6
divided 6
Who 6
E@@ 6
sexually 6
quite 6
turned 6
saw 6
average 6
gre@@ 6
rest 6
scientific 6
No 6
they're 6
ar 6
mass 6
te 6
pass 6
experience 6
information 6
te@@ 6
failed 6
Prime 6
activists 6
sed 6
feeling 6
firm 6
budget 6
receive 6
ci@@ 6
Or 6
continue 6
bo@@ 6
establishment 6
allow 6
bre@@ 6
Afghanistan 6
hom@@ 6
ins 6
compared 6
South 6
rule 6
G@@ 6
above 6
daughter 6
production 6
forces 6
Wentzler 6
ile 6
mer@@ 6
voice 6
thanks 6
true 6
promised 6
English 6
migrants 6
car 6
z@@ 6
ring 6
television 6
remained 6
ance 6
ma@@ 6
3 6
death 6
cu@@ 6
ners 6
ev@@ 6
ces 6
launch 6
identity 6
tri@@ 6
labour 6
salary 6
ren@@ 6
sted 6
Pattloch 6
ten@@ 6
registered 6
adults 6
amounts 6
Manning's 6
ge 6
bi@@ 6
win@@ 6
Middle 6
front 6
you're 6
final 6
connected 6
tend 6
smoking 6
solution 6
campaign 6
tell 6
Canadian 6
particles 6
eyes 6
Central 6
initiative 6
seven 6
il 6
feelings 6
electromagnetic 6
lies 6
felt 6
journey 6
died 6
Nebula 6
carry 6
anyone 6
N@@ 6
cont@@ 6
ger 6
offered 6
oil 6
Although 6
London 6
Swaziland 6
for@@ 6
wa@@ 6
po@@ 6
published 6
share 6
coming 6
responsibility 6
cked 6
25 6
ement 6
Viktor 6
beginning 6
Spijkenisse 6
Quantico 6
services 6
ke 6
sector 6
restaurants 6
Yet 6
understand 6
task 6
ad 6
source 6
be@@ 6
Messenger 6
ourselves 6
ul@@ 6
sho@@ 6
ality 6
we@@ 6
occasion 6
selection 6
progress 6
dirty 6
S 6
passing 6
protect 6
file 6
administration 6
weapon 6
stores 6
success 6
street 6
ge@@ 6
he@@ 6
400 6
choir 6
ran 6
earth 6
warehouses 6
gave 6
differences 6
tic 6
environment 6
Boredom 6
standards 6
today 6
figure 6
mainly 6
ters 6
white 6
wide 6
ideas 6
crime 6
regarding 6
orphans 6
Brotherhood 6
researchers 6
particle 6
worse 6
ru@@ 6
knows 6
Tobacco 6
short 6
return 6
ed@@ 6
leading 6
relationship 6
added 6
activity 6
creating 6
lower 6
workers 6
Pakistan 6
issues 6
O@@ 6
mis@@ 6
looks 6
rel@@ 6
ability 6
piece 6
walk 6
thus 6
agency 6
leader 6
getting 6
below 6
Islamic 6
sur@@ 5
ements 5
ates 5
holy 5
brings 5
machine 5
auditors 5
fic 5
laboratory 5
Hollywood 5
re 5
sensors 5
master 5
nominated 5
Poland 5
Maybe 5
opinions 5
loo@@ 5
St@@ 5
sub@@ 5
Migration 5
Enrique 5
understanding 5
address 5
afford 5
mi@@ 5
H@@ 5
winter 5
tors 5
decades 5
ons 5
Szabo 5
um 5
e's 5
tional 5
min@@ 5
ack 5
act 5
Con@@ 5
House 5
cra@@ 5
caused 5
action 5
followed 5
door 5
refuse 5
Brussels 5
confinement 5
virus 5
impact 5
hoping 5
Ad@@ 5
bs 5
relating 5
sides 5
results 5
existing 5
sent 5
continues 5
pic@@ 5
les 5
let 5
involved 5
degrees 5
2013 5
x@@ 5
cks 5
Under 5
h 5
Spitzer 5
tly 5
ck 5
cy 5
Jedlicka 5
laser 5
drink 5
dust 5
There's 5
stage 5
Telescope 5
details 5
chance 5
ale 5
ched 5
established 5
officially 5
Talysh 5
word 5
altitudes 5
interview 5
j@@ 5
gi@@ 5
cameras 5
Palestinian 5
scenes 5
latter 5
luxury 5
ological 5
Democratic 5
sec@@ 5
requests 5
applies 5
launched 5
spread 5
board 5
Un@@ 5
lowest 5
evidence 5
physical 5
Just 5
appear 5
usually 5
extra 5
Drivers 5
occur 5
discussion 5
Islamists 5
typical 5
forms 5
en 5
happen 5
shown 5
offering 5
elected 5
dr@@ 5
finish 5
charges 5
thinking 5
benefit 5
Government 5
fraud 5
sales 5
Law 5
I'd 5
ators 5
amount 5
broke 5
pri@@ 5
fy 5
committed 5
est@@ 5
De@@ 5
sts 5
pretty 5
x 5
Tehran 5
Most 5
lived 5
match 5
ently 5
user 5
older 5
weightlessness 5
nad 5
draw 5
gs 5
enforce 5
vo@@ 5
out@@ 5
meet 5
Roman 5
mentioned 5
app@@ 5
measure 5
U@@ 5
quality 5
submitted 5
constellation 5
bus 5
blo@@ 5
accused 5
key 5
ker 5
increasingly 5
ne@@ 5
north 5
fu@@ 5
stolen 5
affect 5
ory 5
Also 5
arms 5
answer 5
meat 5
principles 5
ol@@ 5
ism 5
astronautics 5
regular 5
Fatulayeva 5
testing 5
decided 5
artificial 5
there's 5
0s 5
study 5
butter 5
save 5
Are 5
bul@@ 5
flying 5
January 5
ship 5
suicide 5
Head 5
filled 5
bro@@ 5
shoes 5
Mo@@ 5
She 5
Rights 5
11 5
He's 5
complaints 5
K@@ 5
Large 5
Right 5
ba@@ 5
world-@@ 5
Thatcher 5
singers 5
Assembly 5
resolution 5
Only 5
playing 5
complain 5
shekels 5
insurance 5
Ukraine 5
kg 5
km 5
ky 5
waiting 5
Sea 5
throughout 5
prices 5
ful 5
yesterday 5
Ligue 5
decision 5
patient 5
testified 5
bankers 5
2004 5
Norway 5
giving 5
proof 5
named 5
names 5
holds 5
stri@@ 5
greater 5
announced 5
Association 5
lin@@ 5
Eastwood 5
visited 5
gravity 5
tu@@ 5
Saturday 5
staff 5
knowledge 5
won't 5
national 5
taking 5
gone 5
dou@@ 5
players 5
citizen 5
admitted 5
authority 5
although 5
December 5
biggest 5
buy 5
Thus 5
augmented 5
patches 5
hundreds 5
changed 5
phone 5
keep 5
ented 5
Observatory 5
independent 5
got 5
ology 5
relatively 5
defence 5
Its 5
bed 5
Hubble 5
shortly 5
specific 5
officer 5
bath 5
diseases 5
regime 5
Standard 5
charge 5
Therefore 5
des@@ 5
met@@ 5
organisation 5
turn 5
millions 5
require 5
hardly 5
minister 5
myself 5
trip 5
seems 5
provides 5
earlier 5
Vladimir 5
opportunities 5
woman 5
ical 5
worst 5
programme 5
court 5
style 5
More 5
temperature 5
regulation 5
constitution 5
F@@ 5
various 5
sold 5
reasons 5
literature 5
moving 5
We're 5
questions 5
necessary 5
du@@ 5
peace 5
19th 5
am@@ 5
covered 5
related 5
su@@ 5
ected 5
teenagers 5
collaboration 5
electoral 5
highest 5
dly 5
packaging 5
layer 5
adoption 5
stat@@ 5
carried 5
ori@@ 5
mid-@@ 5
Does 4
politician 4
sum@@ 4
dist@@ 4
specialist 4
opponents 4
successful 4
40 4
col@@ 4
damage 4
beauty 4
wrong 4
ob@@ 4
cigarettes 4
wing 4
restriction 4
engineer 4
shelves 4
Human 4
Due 4
comp@@ 4
pos@@ 4
y-@@ 4
causing 4
saying 4
ects 4
gra@@ 4
resigned 4
nature 4
Mursi 4
planned 4
Nieto's 4
argue 4
union 4
sells 4
ease 4
System 4
wo@@ 4
slightly 4
raised 4
Tony 4
proven 4
cl@@ 4
models 4
chain 4
studies 4
dollars/hour 4
mirrors 4
monitoring 4
No@@ 4
applications 4
date 4
natural 4
sh 4
Affleck 4
thereby 4
matches 4
nation 4
ble 4
complicated 4
training 4
note 4
drive 4
fra@@ 4
representatives 4
screen 4
can't 4
enable 4
formed 4
summer 4
ress 4
bur@@ 4
ration 4
ach 4
ak 4
original 4
paying 4
returned 4
section 4
scientists 4
learn 4
Your 4
stated 4
sense 4
plans 4
Th@@ 4
heads 4
Palestine 4
Imbongi 4
preparing 4
movie 4
long-term 4
poverty 4
load 4
Care 4
mine 4
34 4
levels 4
concrete 4
Norway's 4
Bang 4
spring 4
bosons 4
likewise 4
citing 4
the@@ 4
confidence 4
baby 4
thin 4
Maas 4
move 4
Jesus 4
length 4
scene 4
elite 4
false 4
centimetres 4
atmosphere 4
meant 4
adopted 4
upon 4
phy 4
colour 4
wet 4
salaries 4
contrac@@ 4
referendum 4
February 4
voter 4
rec@@ 4
ake 4
flo@@ 4
explo@@ 4
played 4
Heidelberg 4
green 4
Mirzayeva 4
affected 4
break 4
ther 4
bank 4
l 4
standard 4
Orozco 4
September 4
National 4
rated 4
screening 4
Fri@@ 4
ily 4
Board 4
I've 4
attacked 4
aim 4
ail 4
aid 4
sting 4
confirmed 4
atic 4
usable 4
security 4
Commission 4
marketing 4
bound 4
cancers 4
emotional 4
er@@ 4
absurd 4
ter@@ 4
songs 4
certainly 4
Mexico's 4
bel@@ 4
govern@@ 4
cal 4
state's 4
Martin 4
Model 4
remember 4
ended 4
introduce 4
directly 4
caught 4
document@@ 4
uni@@ 4
sk@@ 4
online 4
begin 4
price 4
] 4
ground 4
title 4
STIs 4
handicapped 4
media 4
fruit 4
Service 4
smell 4
recorded 4
od@@ 4
Great 4
Martel 4
Entry 4
religious 4
vers 4
Astronautics 4
Rakfisk 4
certificates 4
pur@@ 4
Jews 4
aimed 4
y's 4
nine 4
ec@@ 4
uring 4
stopped 4
surrounded 4
Constituent 4
sty 4
Chief 4
physics 4
Islamist 4
us@@ 4
France 4
pictures 4
missing 4
wouldn't 4
territory 4
governor 4
L@@ 4
gr@@ 4
lawyers 4
under@@ 4
I@@ 4
Internet 4
passable 4
rest@@ 4
processing 4
Committee 4
smelly 4
tre@@ 4
Above 4
An 4
depth 4
commercial 4
bit@@ 4
British 4
Mayor 4
ically 4
hands 4
designed 4
photograph 4
ably 4
impression 4
joint 4
buyer 4
written 4
limits 4
career 4
shoulders 4
That's 4
-year-old 4
ists 4
Chairman 4
Despite 4
balloons 4
end@@ 4
Azerbaijan 4
Bohemia 4
reaching 4
freedom 4
courts 4
eat 4
holes 4
re-@@ 4
consu@@ 4
pped 4
Tahrir 4
Ancelotti 4
ned 4
spokesman 4
mer 4
active 4
guide 4
recommend 4
survive 4
supporters 4
emplo@@ 4
personal 4
weakness 4
ised 4
Indeed 4
struggle 4
oc@@ 4
cosmic 4
arrived 4
mind 4
probe 4
explain 4
Others 4
eng@@ 4
wers 4
ban 4
d's 4
au@@ 4
basis 4
basic 4
alised 4
quali@@ 4
Svarc 4
thoughts 4
ops 4
Weapons 4
failure 4
sale 4
vent@@ 4
assume 4
managed 4
ment@@ 4
milk 4
0 4
finally 4
governments 4
round 4
Palliative 4
ak@@ 4
Lerik 4
Square 4
growing 4
critics 4
sensor 4
pre-@@ 4
cosmonaut 4
protected 4
Court 4
theatre 4
anti-@@ 4
Stephen 4
val@@ 4
star@@ 4
sound 4
running 4
solve 4
ast@@ 4
serves 4
manufacturer 4
inf@@ 4
mixed 4
Society 4
deep 4
planets 4
eness 4
fall 4
difference 4
Denver 4
perspective 4
ck@@ 4
further 4
eye 4
des 4
del 4
comfort 4
that's 4
arian 4
easily 4
difficulty 4
benefits 4
NASA 4
confirms 4
significant 4
fine 4
cell 4
common 4
Morsi 4
individual 4
Egyptians 4
King 4
secret 4
gas 4
entry 4
spend 4
matters 4
foreigners 4
bit 4
300 4
biblical 4
May 4
2007 4
Argo 4
putting 4
ceasefire 4
Turkey 4
uncomfortable 4
access 4
objects 4
Duchesneau 4
cou@@ 4
regions 4
prostate 4
bing 4
ature 4
Director 4
mention 4
cured 4
[@@ 4
concerns 4
payment 4
request 4
Interior 4
difficulties 4
her@@ 4
Recently 4
righ@@ 4
appearance 4
General 4
D@@ 4
latest 4
domestic 4
accessible 4
es' 4
brands 4
partially 4
April 4
starting 4
tor@@ 4
comparatively 4
ders 4
sleep 4
direct 4
surrounding 4
estimated 4
galaxies 4
path 4
interpretation 4
rub@@ 4
Holy 4
tor 4
Afghan 4
tourists 4
watch 4
twice 4
capacity 4
6@@ 4
der@@ 4
search 4
ther@@ 4
James 4
day's 4
humanity 4
D 4
mas@@ 4
John 4
judge 4
Cairo 4
50 4
sm@@ 4
ensure 4
go@@ 4
focus 4
leads 4
Today 4
advantage 4
den@@ 4
dropped 4
oper@@ 4
ou@@ 4
intended 4
ha@@ 4
gives 4
outcome 4
ap@@ 4
TV 4
Hamas's 4
cheap 4
Bücherberg 4
college 4
reaction 4
senator 4
careful 4
cash 4
shops 4
eless 4
changing 4
far@@ 4
captured 4
donations 4
Army 4
West 4
table 4
International 4
provided 4
Later 4
calls 4
ments 4
ories 4
apartment 4
Fein 4
sum 4
pan@@ 4
resort 4
strange 4
weight 4
char@@ 4
pu@@ 4
feed 4
fees 4
passed 4
relieved 4
risks 4
Pierre 4
electric 4
Bohemian 4
traditional 4
ies 4
Both 4
achieved 4
unions 4
succeed 4
sky 4
f 4
9 4
Miller 4
understood 4
Every 4
Kr@@ 4
users 4
enti@@ 4
NKU 4
include 4
R@@ 4
notes 4
Former 4
ined 4
Usti 4
ung@@ 4
instead 4
Can 4
Which 4
Centre 4
priority 4
combat 4
ist@@ 4
Earth 4
closed 4
liber@@ 4
unlike 4
Kabul 4
ni@@ 4
fighting 4
volume 4
mutual 4
Until 3
ei@@ 3
Valle 3
bringing 3
prize 3
reliable 3
kids 3
reports 3
sters 3
unit 3
97 3
temperatures 3
absolute 3
provincial 3
travel 3
destined 3
types 3
effective 3
sil@@ 3
fit 3
Sumperk 3
ry 3
listen 3
showed 3
tree 3
nations 3
dozen 3
responsible 3
bri@@ 3
foremost 3
X 3
bled 3
discipline 3
extend 3
cre@@ 3
Fenske 3
ished 3
inc@@ 3
portrayed 3
municipal 3
attorney 3
Between 3
syphilis 3
o 3
aded 3
magazines 3
actor 3
E 3
invested 3
Mon@@ 3
ose 3
ver 3
tar@@ 3
work@@ 3
spiral 3
Tajikistan 3
Labem 3
sign 3
fifth 3
all-powerful 3
love 3
organized 3
apparent 3
pretend 3
believes 3
Why 3
revealed 3
yo@@ 3
sm 3
experiments 3
records 3
pat@@ 3
naked 3
counter@@ 3
governing 3
spoken 3
excellent 3
snow@@ 3
standardised 3
combin@@ 3
locations 3
Half 3
salt 3
region's 3
prime 3
artist 3
affecting 3
supermarket 3
cul@@ 3
photon 3
photos 3
consultant 3
Ch@@ 3
newspaper 3
engaged 3
technology 3
Tra@@ 3
remin@@ 3
Olomouc 3
Nile 3
60 3
ret@@ 3
refl@@ 3
substance 3
refer 3
compr@@ 3
NY 3
assets 3
ection 3
ing@@ 3
exten@@ 3
papilloma 3
causes 3
tain 3
smile 3
detention 3
amp@@ 3
contrast 3
Xbox 3
civilians 3
via 3
science 3
dismissed 3
attitude 3
embassy 3
signs 3
brig 3
clo@@ 3
Affleck's 3
ector 3
Thanks 3
occurs 3
ologists 3
director 3
owners 3
elling 3
competi@@ 3
basically 3
organisations 3
gru@@ 3
sely 3
ligh@@ 3
tion@@ 3
bodies 3
defended 3
banned 3
ser 3
sex 3
dro@@ 3
Dmitry 3
dder 3
Mariana 3
gen@@ 3
swim 3
readers 3
OK 3
senate 3
Aston 3
continu@@ 3
soci@@ 3
gonorrhoea 3
appropriate 3
primarily 3
nu@@ 3
suit 3
elsewhere 3
ator 3
link 3
vali@@ 3
un 3
definitely 3
elements 3
beginnings 3
concerned 3
Islam@@ 3
licensed 3
video 3
present@@ 3
expressed 3
quo@@ 3
invented 3
technical 3
standing 3
certificate 3
occurred 3
opposing 3
hol@@ 3
Police 3
educational 3
pas@@ 3
delay 3
counter 3
produces 3
produced 3
Re@@ 3
2014 3
physicians 3
demonstra@@ 3
Lennartz 3
truth 3
shut 3
custom@@ 3
state-@@ 3
ODS 3
Eastern 3
festival 3
enforcement 3
ressed 3
thers 3
stricter 3
prohibits 3
dishes 3
asserts 3
device 3
promote 3
Meanwhile 3
high@@ 3
familiar 3
Pilsen 3
Once 3
accep@@ 3
clas@@ 3
Annette 3
figures 3
author 3
cm 3
cz 3
Olvera 3
waste 3
chlamydia 3
boo@@ 3
ff@@ 3
bananas 3
rooms 3
tics 3
increased 3
Norwegians 3
amendment 3
recognition 3
avoid 3
shi@@ 3
Labour 3
delivery 3
nonetheless 3
Congressman 3
blanket 3
sellers 3
Take 3
suit@@ 3
items 3
negative 3
aware 3
ert 3
1994 3
ery 3
fa@@ 3
zed 3
classified 3
Prof 3
logo 3
dam@@ 3
Oates 3
campaigns 3
people's 3
approximately 3
rates 3
Iraq 3
target 3
materials 3
Tel-Aviv 3
involving 3
dy 3
exchanged 3
observed 3
depends 3
unable 3
cooperation 3
wed@@ 3
ws 3
receives 3
com 3
dozens 3
ths 3
background 3
poses 3
Winy 3
Near 3
observ@@ 3
snowy 3
maximum 3
interested 3
concept 3
battle 3
devoted 3
permanently 3
copy@@ 3
anonymous 3
trouble 3
turns 3
legalized 3
three-dimensional 3
assistance 3
appeal 3
Trifid 3
Dead 3
country's 3
low-@@ 3
ctions 3
cies 3
Mauna 3
om@@ 3
Pri@@ 3
0's 3
clothing 3
Keck 3
write 3
hu@@ 3
southern 3
motorway 3
indeed 3
Fed 3
fund-raising 3
1959 3
challenges 3
avoided 3
receiving 3
obligation 3
transition 3
altitude 3
bling 3
yourself 3
size 3
bot@@ 3
chicks 3
fir@@ 3
truly 3
concert 3
instig@@ 3
sport 3
concern 3
pixels 3
pursu@@ 3
cro@@ 3
proved 3
pal@@ 3
restrictions 3
exist 3
person's 3
followers 3
tradition 3
eu@@ 3
You're 3
Puma 3
Would 3
read 3
ame 3
Before 3
attrac@@ 3
particip@@ 3
moved 3
conclu@@ 3
peas 3
speci@@ 3
decide 3
Latin 3
learned 3
houses 3
requiring 3
CTMO 3
thrown 3
Noizat 3
rehear@@ 3
adviser 3
pushed 3
ft 3
banks 3
Rosbalt 3
Kala 3
foot 3
feet 3
Council 3
event 3
7 3
base 3
mist 3
beg@@ 3
God 3
alongside 3
concentration 3
lie 3
approved 3
ining 3
popularity 3
tened 3
mp@@ 3
trees 3
left-wing 3
won 3
minorities 3
liked 3
Turkish 3
gro@@ 3
bar@@ 3
described 3
down@@ 3
California 3
maintenance 3
determination 3
Unfortunately 3
camera 3
uses 3
vol@@ 3
lacking 3
game 3
creation 3
mor@@ 3
da@@ 3
ster 3
troops 3
statistics 3
department 3
bio-@@ 3
det@@ 3
har@@ 3
Zulu 3
Armani 3
Likewise 3
cloud 3
appointed 3
Rothschilds 3
agenda 3
impres@@ 3
asi@@ 3
progres@@ 3
Venus 3
kilometres 3
Supreme 3
university 3
mon@@ 3
Scientists 3
well-@@ 3
route 3
precisely 3
management 3
exactly 3
eting 3
Other 3
border 3
compacted 3
consequences 3
urs 3
Public 3
partners 3
mem@@ 3
winner 3
Italian 3
neither 3
outsiders 3
respon@@ 3
Los 3
pi@@ 3
liberals 3
controlled 3
frequently 3
pull 3
suppl@@ 3
prominent 3
Mayan 3
fun@@ 3
Microsoft 3
refuge 3
az@@ 3
limit 3
display 3
Like 3
Pardubice 3
stay 3
protest 3
consists 3
vast 3
clothes 3
med 3
mes 3
dry 3
Lyon 3
guests 3
tertiary 3
type 3
warm 3
association 3
aging 3
al-@@ 3
attempt 3
fictitious 3
operate 3
cal@@ 3
PRI 3
differently 3
academics 3
restricted 3
turning 3
resume 3
Beaulieu 3
featured 3
ECB 3
girls 3
Press 3
sees 3
ming 3
don 3
judges 3
sugar 3
earn 3
vitamin 3
assu@@ 3
suggested 3
und 3
journ@@ 3
contribution 3
illness 3
Y@@ 3
asks 3
Sychev 3
168 3
CR 3
balance 3
id 3
grown 3
opportunity 3
claims 3
buyers 3
character 3
interior 3
www 3
elderly 3
PTA 3
Sternfeld 3
Com@@ 3
magazine 3
lied 3
intellectual 3
daily 3
Second 3
manages 3
na@@ 3
transportation 3
wait 3
useful 3
aries 3
ays 3
Ben 3
arrive 3
predict 3
designer 3
maybe 3
inhabitants 3
pointed 3
shake 3
Organisation 3
Kea 3
conduc@@ 3
Sometimes 3
ore 3
Problems 3
mining 3
broadcast 3
occupied 3
Do 3
200 3
track 3
ering 3
corner 3
Services 3
ges 3
secondary 3
calendar 3
boundaries 3
disappointment 3
recreational 3
Saeda 3
maintained 3
grants 3
custody 3
unusual 3
mark 3
Havard 3
dramatic 3
declaration 3
litres 3
movements 3
enc@@ 3
speech 3
workplace 3
largely 3
Sharia 3
imprint 3
Margaret 3
facing 3
confirm 3
critical 3
considering 3
refers 3
wasn't 3
Blues 3
again 3
genres 3
fying 3
dollar 3
emo@@ 3
alisation 3
straightforward 3
insur@@ 3
Arabs 3
economically 3
titles 3
sens@@ 3
K 3
Go@@ 3
900 3
prosecutors 3
airport 3
business@@ 3
hour 3
guards 3
sch@@ 3
Mirzayeva's 3
offenses 3
confer@@ 3
detected 3
primary 3
walls 3
priv@@ 3
computers 3
twenty 3
park 3
roughly 3
Virginia 3
build 3
province 3
businesses 3
cheaper 3
theft 3
dants 3
expert 3
visiting 3
please 3
fans 3
Greek 3
Yes 3
Brothers 3
Australia's 3
gestures 3
spent 3
squ@@ 3
prepar@@ 3
constitu@@ 3
Bradley 3
absolutely 3
scale 3
Nothing 3
sli@@ 3
goods 3
Duma 3
immigration 3
boys 3
travelling 3
single 3
Caesarea 3
2001 3
2006 3
2008 3
Netanyahu 3
mat@@ 3
anthem 3
bor@@ 3
alis@@ 3
scandal 3
subur@@ 3
stock 3
buildings 3
acy 3
sions 3
ened 3
agricultural 3
galaxy 3
ll 3
winning 3
cas@@ 3
hop@@ 3
identified 3
sexual 3
MVRDV 3
Madrid 3
south 3
aquavit 3
consul@@ 3
comfortable 3
mit 3
continually 3
controls 3
lat@@ 3
inferior 3
beat 3
drawn 3
exists 3
audits 3
July 3
trips 3
mafia 3
plain 3
inten@@ 3
weighed 3
claimed 3
nevertheless 3
satellites 3
Taliban 3
worlds 3
certainty 3
eing 3
vegetables 3
700 3
repeated 3
flip-flops 3
Next 3
minutes 3
claiming 3
astronomy 3
unded 3
legislators 3
blue 3
museums 3
erected 3
visible 3
June 3
writers 3
parallel 3
acknowledged 3
destroyed 3
M@@ 3
Liberal 3
cep@@ 3
argu@@ 3
Anyone 3
ep@@ 3
washed 3
newly 3
associate 3
formation 3
smokers 3
urban 3
zero 3
fashion 3
1962 3
Let's 3
dered 3
Voices 3
spite 3
peasants 3
unemployment 3
add@@ 3
land@@ 3
bes 3
news 3
faces 3
Mohamed 3
um@@ 3
viruses 3
dem@@ 3
beer 3
els 3
suggest 3
afraid 3
sla@@ 3
greatest 3
posi@@ 3
apart 3
offices 3
successfully 3
clubs 3
expect@@ 3
armed 3
ics 3
core 3
efforts 3
existed 3
rely 3
fought 3
attempted 3
heat 3
solar 3
check 3
ny 3
ns 3
serious 3
ans@@ 3
Day 3
Se@@ 3
impressive 3
healthy 3
happen@@ 3
autumn 3
vital 3
plus 3
fascist 3
il@@ 3
branches 3
succeeded 3
equality 3
appeti@@ 3
ultimately 3
theory 3
reli@@ 3
ture 3
ty-@@ 3
district 3
diplomatic 3
computer 3
obj@@ 3
hungry 3
-style 3
Research 3
viewpoint 3
run@@ 3
tur@@ 3
poll 3
500 3
spirit 3
Ro@@ 3
Ciudad 3
fort@@ 3
ness 3
jud@@ 3
model 3
tip 3
abstained 3
Bravo 3
ol 3
determine 3
tr@@ 3
Space 3
includes 3
psychology 3
wife 3
lack 3
follow 3
settlement 3
Christiane 3
activities 3
list 3
sanctioned 3
sun 3
extraordinary 3
att@@ 3
markets 3
Wyatt 3
Particularly 3
eded 3
v 3
Parliament 3
ide@@ 3
departure 3
ish@@ 3
mission 3
reve@@ 3
generation 3
pres@@ 3
organising 3
threat 3
multi-@@ 3
store 3
rifle 3
onal 3
warnings 3
70 3
ran@@ 3
lying 3
wher@@ 3
shared 3
gene@@ 3
defense 3
bare 3
initially 3
African 3
license 3
regulated 3
ps 3
pe 3
demand 3
frozen 3
formulation 3
fe@@ 3
Last 3
issu@@ 3
grand@@ 3
mistreatment 3
Bell 3
associated 3
Gadomski 3
Pitt 3
Department 3
OUCA 3
stable 3
graphic 3
noted 3
leaving 3
secu@@ 3
Carlsbad 3
aps 3
Robert 3
gers 3
ines 3
exhi@@ 3
abuse 3
por@@ 3
ships 3
choose 3
rockets 3
bills 3
8% 3
chaos 3
orship 3
North 3
For@@ 3
wh@@ 3
sian 3
cri@@ 3
institution 3
linked 3
philosoph@@ 3
dent 3
fear 3
candidates 3
eh@@ 3
generations 3
sun@@ 3
signed 3
Britain 3
los@@ 3
agencies 3
unclear 3
wall 3
undergraduates 3
sufficient 3
improved 3
obtain 3
ski 3
let@@ 3
provisions 3
export 3
big@@ 3
analysed 3
universe 3
mu@@ 3
significantly 3
oured 3
const@@ 3
record 3
dence 3
consider@@ 3
exp@@ 3
Western 2
wooded 2
Boekenberg 2
tired 2
Azerbaijan's 2
Initially 2
fingers 2
hero 2
aten 2
ching 2
cult 2
N 2
writ@@ 2
criticism 2
divide 2
xty 2
spoke 2
cap@@ 2
strike 2
hole 2
-up 2
pursue 2
Le 2
exce@@ 2
archit@@ 2
eland 2
extortion 2
hab@@ 2
keeps 2
El@@ 2
populi@@ 2
manipul@@ 2
easier 2
schools 2
represents 2
expectancy 2
alleg@@ 2
foundation 2
fre@@ 2
yst@@ 2
ups 2
ats 2
9pm 2
Zambito 2
17% 2
channels 2
-G@@ 2
CLICK 2
sionists 2
legally 2
t-wing 2
willingness 2
Williams 2
climate 2
invali@@ 2
ful@@ 2
Hor@@ 2
wells 2
mouth 2
letter 2
organization 2
two-@@ 2
thriller 2
arly 2
released 2
Par@@ 2
cheaply 2
lessons 2
busy 2
percussions 2
import@@ 2
Tre@@ 2
supp@@ 2
bat@@ 2
fair 2
lots 2
proce@@ 2
retro@@ 2
tor's 2
seri@@ 2
extent 2
pity 2
provoc@@ 2
PSA 2
today's 2
pillars 2
delic@@ 2
lift 2
preced@@ 2
ven@@ 2
demands 2
babies 2
simul@@ 2
fairly 2
EU's 2
ary-@@ 2
Peking 2
ler@@ 2
vice-president 2
absurdities 2
fantastic 2
weak@@ 2
Apart 2
wr@@ 2
elevation 2
knock 2
posed 2
shadow 2
desire 2
steps 2
Further 2
thetically 2
ols 2
creative 2
Facebook 2
manufacturing 2
ades 2
beings 2
raises 2
soon 2
fabric 2
500-@@ 2
physicists 2
resulted 2
forming 2
inside 2
stret@@ 2
devices 2
County 2
adopt 2
liberal 2
protested 2
floor 2
two-stage 2
yed 2
't 2
'd 2
push 2
irrigation 2
Indiana 2
chair 2
fro@@ 2
bribes 2
vel 2
choice 2
ped 2
minute 2
cooks 2
vil@@ 2
unaware 2
spiritual 2
cum@@ 2
suici@@ 2
remembered 2
totalling 2
tory 2
pris@@ 2
prefer 2
logical 2
Bi@@ 2
angry 2
high-speed 2
tsarist 2
refrain 2
ority 2
scar@@ 2
originally 2
believed 2
hides 2
234 2
tes 2
slush 2
parap@@ 2
pulled 2
mering 2
hardliners 2
Buck 2
vehic@@ 2
sponsor 2
minority 2
bly 2
seriously 2
investigation 2
Joe 2
18-year-old 2
Saturn 2
siege 2
hawk@@ 2
modest 2
Kepler 2
Brazil 2
Ontario 2
ong 2
ony 2
Monday 2
indicate 2
cite 2
foc@@ 2
head@@ 2
specialists 2
History 2
Seven 2
jur@@ 2
emen 2
fashionable 2
Union's 2
destroy 2
ironically 2
opposite 2
Uzbeks 2
form@@ 2
printed 2
walking 2
aggressive 2
otic 2
condi@@ 2
Berlin 2
tears 2
dispute 2
awaiting 2
Government's 2
Ostrava 2
anning 2
approxim@@ 2
duty-bound 2
no-one 2
reas@@ 2
jobs 2
Buendia 2
spare 2
doms 2
undermine 2
agit@@ 2
sel@@ 2
defined 2
haunt 2
diverse 2
machin@@ 2
parti@@ 2
dubious 2
missiles 2
shuts 2
boosted 2
small-@@ 2
Max 2
weekly 2
arius 2
overthrow 2
aspects 2
Scholz 2
vacuum 2
compo@@ 2
pole 2
colon 2
cannabis 2
ace 2
meal 2
schem@@ 2
essed 2
supermarkets 2
borns 2
bran@@ 2
ghter 2
sexu@@ 2
buying 2
Ma@@ 2
agree 2
ab 2
citizenship 2
tight 2
direc@@ 2
vocabulary 2
ising 2
inst@@ 2
mask 2
consider 2
instincts 2
new-@@ 2
hunting 2
ta 2
pression 2
depar@@ 2
cable 2
joined 2
three-@@ 2
Should 2
investment 2
Nacher 2
method 2
legend 2
Kuwait 2
prohibi@@ 2
tested 2
antiquity 2
keeping 2
resources 2
scam 2
IMBP 2
ploughs 2
crad@@ 2
plane 2
WikiLeaks 2
Brennan 2
southe@@ 2
succ@@ 2
ite 2
symptoms 2
199@@ 2
autocracy 2
Polo 2
short@@ 2
operation 2
missed 2
atoes 2
belief 2
imagine 2
adher@@ 2
threatening 2
calculations 2
illed 2
esting 2
Cancer 2
determined 2
Nowadays 2
blond 2
self 2
heterosexual 2
M 2
Nathalie 2
achi@@ 2
understands 2
Google 2
seize 2
session 2
Has 2
wraps 2
Labs 2
factor 2
dependent 2
reporters 2
enemy 2
targeted 2
Florida 2
connection 2
surpris@@ 2
pist@@ 2
Extranjeros 2
extreme 2
soft@@ 2
Universe 2
what's 2
cau@@ 2
towns 2
Old 2
mechan@@ 2
pressed 2
Circum@@ 2
tells 2
infring@@ 2
meteor@@ 2
affairs 2
euro 2
riv@@ 2
regulating 2
signals 2
location 2
ble-@@ 2
emergency 2
wives 2
sid@@ 2
yields 2
sight 2
curious 2
Verhaig 2
cool@@ 2
inclination 2
respite 2
Ear@@ 2
terrorists 2
Shah 2
specifically 2
ai@@ 2
pun@@ 2
open@@ 2
Office 2
ut 2
raging 2
ulation 2
preventing 2
lar@@ 2
cultiv@@ 2
walked 2
ang@@ 2
ket@@ 2
Tories 2
continued 2
dow@@ 2
ods 2
ues 2
firms 2
gathered 2
ler 2
ley 2
engage 2
resulting 2
ministers 2
Uni@@ 2
eleven 2
doubt 2
NATO 2
bodily 2
balls 2
animals 2
bent 2
pieces 2
Several 2
bolstered 2
testimony 2
raci@@ 2
22nd 2
Over@@ 2
chosen 2
meantime 2
thieves 2
2018 2
Mexican-American 2
cage 2
San 2
sufficiently 2
beneath 2
spe@@ 2
Willard 2
off@@ 2
agriculture 2
scary 2
ears 2
strictly 2
institu@@ 2
Pra@@ 2
Naturally 2
jo@@ 2
painful 2
gency 2
Sebelev 2
onc@@ 2
colleagues 2
categ@@ 2
os@@ 2
reproduction 2
Trakhtenberg 2
Sydney 2
warran@@ 2
zz@@ 2
lating 2
Pe@@ 2
bred 2
you'll 2
mechanical 2
Paris 2
90's 2
gg@@ 2
mayors 2
Whether 2
exchanges 2
River 2
Because 2
taxes 2
iPad 2
temporarily 2
catastrophic 2
Shnur 2
Pauli 2
packed 2
Meteor-2 2
injustice 2
ends 2
explosive 2
visi@@ 2
ety 2
etc 2
tle 2
eth 2
ation's 2
Tremblay 2
preci@@ 2
Medical 2
expand 2
Zico 2
bedrock 2
drawing 2
acc@@ 2
predicts 2
web 2
Company 2
wer 2
fav@@ 2
Stom@@ 2
replacement 2
gaining 2
strong@@ 2
gained 2
lifestyle 2
swimming 2
mers 2
commitment 2
authenti@@ 2
Well 2
count 2
placed 2
baptism 2
bearing 2
CIA 2
constra@@ 2
contribute 2
ink 2
ind 2
sharia 2
tenth 2
suppress 2
matrix 2
searches 2
thir@@ 2
pension 2
zer@@ 2
controversial 2
oldest 2
saved 2
League 2
we'll 2
abolishing 2
cher 2
ashing 2
earth's 2
mped 2
Kninice 2
regist@@ 2
secure 2
archaeological 2
insult 2
handcar 2
conclusions 2
award 2
rob@@ 2
allies 2
Normally 2
1998 2
Palas 2
indicated 2
Balfour 2
verify 2
witn@@ 2
ordinary 2
gamble 2
medi@@ 2
deser@@ 2
penal@@ 2
Will 2
sons 2
nets 2
adolescence 2
inci@@ 2
highlights 2
mini@@ 2
eventually 2
3@@ 2
bread 2
reasonable 2
dings 2
spec@@ 2
mediately 2
forty 2
barrier 2
anti-Soviet 2
profite@@ 2
ells 2
rats 2
thick 2
photograph@@ 2
Vodanovich 2
rejected 2
ess@@ 2
mented 2
historical 2
manner 2
Instead 2
don@@ 2
illeg@@ 2
strength 2
Christian 2
convenient 2
explanation 2
sue 2
phase 2
Tajiks 2
calculated 2
ph@@ 2
responded 2
Anna 2
del@@ 2
adequate 2
da 2
Soviet 2
runs 2
crucifixion 2
observer 2
deputies 2
loose 2
wn 2
insul@@ 2
Res@@ 2
ill 2
eries 2
tough 2
tons 2
wider 2
law@@ 2
freshers 2
ow@@ 2
coherent 2
conserv@@ 2
applied 2
east 2
harms 2
oura@@ 2
Around 2
counterparts 2
ban@@ 2
Y 2
kept 2
1979 2
contact 2
centres 2
camps 2
Mubarak 2
wheelcha@@ 2
non-party 2
victim 2
adding 2
hills 2
reg@@ 2
lic@@ 2
confi@@ 2
fusion 2
compromis@@ 2
Svitavy 2
gres@@ 2
dan@@ 2
unavoidable 2
asking 2
Let 2
Judea 2
neighbours 2
accepts 2
pays 2
oted 2
meas@@ 2
becoming 2
veiled 2
prayer 2
aver@@ 2
stake 2
holding 2
perc@@ 2
welcome 2
let's 2
scores 2
exam@@ 2
ums 2
beds 2
loyal 2
Boyle 2
Regul@@ 2
disc@@ 2
smo@@ 2
dia@@ 2
gun 2
improv@@ 2
uniform 2
aling 2
SM 2
Libya 2
hadn't 2
anal@@ 2
attemp@@ 2
prove 2
territories 2
eive 2
tran@@ 2
heart 2
topic 2
product 2
deterior@@ 2
ores 2
serving 2
Jan 2
cold 2
Pravo 2
Greater 2
tl@@ 2
RM 2
emig@@ 2
1956 2
nor 2
lier 2
uncertain 2
ste@@ 2
entirely 2
prompted 2
ek 2
ef 2
electron@@ 2
opened 2
honest 2
br@@ 2
invitation 2
municipality 2
Asia 2
fi 2
impossible 2
tragic 2
thri@@ 2
friend 2
arity 2
Everyone 2
accordance 2
quarters 2
contamin@@ 2
equipment 2
objective 2
Sean 2
invit@@ 2
professional 2
discovered 2
spre@@ 2
Kansas 2
celebrate 2
resp@@ 2
physically 2
actively 2
colours 2
justified 2
cor@@ 2
Give 2
tutors 2
learning 2
aming 2
sess 2
informed 2
dictator 2
exagger@@ 2
suspected 2
4-0 2
developing 2
freely 2
ced 2
lity 2
Art-clinic 2
centuries 2
closest 2
dul@@ 2
complained 2
touch 2
telescope's 2
spectacular 2
demonstrations 2
Mars 2
Pompei 2
woo@@ 2
equivalent 2
1933 2
1937 2
throw 2
conceals 2
underway 2
protests 2
cats 2
J 2
circulation 2
illing 2
tiv@@ 2
COSPAR 2
pet@@ 2
trample 2
Macedonia 2
peak 2
pool 2
audi@@ 2
Astronom@@ 2
nodes 2
minded 2
sedation 2
atory 2
yp@@ 2
Prosecutors 2
adap@@ 2
astronom@@ 2
advertising 2
inspires 2
expen@@ 2
perio@@ 2
earliest 2
Austri@@ 2
injury 2
rul@@ 2
ning 2
pushes 2
now@@ 2
firmly 2
Federation 2
ledged 2
Migrants 2
fe 2
Syria 2
Christi 2
overnight 2
dream 2
gran@@ 2
sha@@ 2
wel@@ 2
committee 2
Spermon 2
air@@ 2
imprisoned 2
apartheid 2
isn't 2
referred 2
End 2
safety 2
Town 2
earns 2
ast 2
pub 2
ited 2
Boston 2
terrible 2
undergo 2
essing 2
shifted 2
authors 2
financing 2
Senate 2
Defence 2
clu@@ 2
deli@@ 2
experienced 2
experiences 2
eaten 2
mobile 2
performances 2
recre@@ 2
tal@@ 2
usual 2
phenomenon 2
registers 2
northern 2
flights 2
feels 2
Marijuana 2
elli@@ 2
throwing 2
Zegna 2
susp@@ 2
Azeri 2
mega 2
sensitive 2
mag@@ 2
sedlo 2
Way 2
cross-examin@@ 2
describes 2
lik@@ 2
empty 2
box 2
partly 2
Qatar 2
ready 2
pione@@ 2
yuan 2
lobb@@ 2
Incidentally 2
coup 2
elect 2
Berkeley 2
remaining 2
evaluate 2
tional@@ 2
drove 2
minimal 2
rum 2
abroad 2
faith 2
sibilities 2
ll@@ 2
in-depth 2
sponsored 2
manifest@@ 2
rolls 2
Mil@@ 2
Koch 2
frost 2
dull 2
evi@@ 2
assassin@@ 2
interventions 2
accessibility 2
Aviv 2
guarante@@ 2
acceler@@ 2
TT 2
enth@@ 2
clean 2
reportedly 2
ef@@ 2
independently 2
practically 2
outing 2
Per@@ 2
aller@@ 2
Ibrahimovic 2
soli@@ 2
fol@@ 2
non-@@ 2
gh 2
aria 2
ner@@ 2
Nor 2
shar@@ 2
ut@@ 2
recog@@ 2
abo@@ 2
medic@@ 2
neighbour@@ 2
legisl@@ 2
dar@@ 2
ger@@ 2
gens 2
weren't 2
Arabic 2
ing's 2
recor@@ 2
danger 2
rubles 2
clou@@ 2
establish@@ 2
becomes 2
advis@@ 2
visibility 2
sought 2
itutes 2
farm 2
Mrs 2
fru@@ 2
moder@@ 2
advocates 2
Tereshkova 2
RAN 2
masses 2
or's 2
a-@@ 2
regar@@ 2
Angelovic 2
Celsius 2
ener@@ 2
ills 2
investigative 2
70% 2
humiliating 2
acked 2
sitting 2
Eurovision 2
sively 2
yond 2
succeeds 2
powerful 2
improving 2
ocra@@ 2
of@@ 2
intelligence 2
examin@@ 2
providing 2
altern@@ 2
Information 2
onally 2
sings 2
technicality 2
urn 2
proceedings 2
gest 2
emerging 2
soldiers 2
lowlands 2
Dec 2
earned 2
wi@@ 2
employee 2
torate 2
Musli@@ 2
fellow 2
seizing 2
trucks 2
Jiri 2
dre@@ 2
processed 2
contain 2
extra@@ 2
militi@@ 2
importance 2
monitor 2
Li@@ 2
admit 2
has@@ 2
diplomats 2
pp@@ 2
vis@@ 2
cent 2
slowly 2
treat 2
oth 2
Di@@ 2
simil@@ 2
recommen@@ 2
resident 2
surface 2
Kapisa 2
capture 2
underground 2
regul@@ 2
Twitter 2
colouring 2
ment's 2
Have 2
mistaken 2
Sunday 2
Judgement 2
hin@@ 2
avant-garde 2
lose 2
tled 2
shed 2
Two 2
with@@ 2
projection 2
Geely 2
hei@@ 2
e-mail 2
brain@@ 2
monetary 2
prohibited 2
UN 2
oring 2
previously 2
Trouborst 2
prehen@@ 2
victim@@ 2
inner 2
ean 2
gain 2
eas 2
Zlatan 2
universal 2
functions 2
contest 2
circul@@ 2
offensive 2
Besides 2
ation@@ 2
Spanish 2
dynamic 2
calculate 2
pper 2
lu@@ 2
saves 2
reforms 2
Colorado's 2
heading 2
omphalos 2
concise 2
implemented 2
Arizona 2
recogni@@ 2
met 2
Patients 2
credit 2
fathered 2
tels 2
criminals 2
punish@@ 2
disruption 2
roof 2
Phoenix 2
differ@@ 2
resist@@ 2
defen@@ 2
amoun@@ 2
Kislov 2
men@@ 2
Co@@ 2
combination 2
intimidation 2
Marseille 2
India 2
accoun@@ 2
Eigh@@ 2
non-residents 2
arrives 2
trading 2
stealing 2
devel@@ 2
merchants 2
sponsor@@ 2
surprise 2
USSR 2
eived 2
starts 2
k/s 2
loud 2
ers@@ 2
BBC 2
ference 2
Meteor-1A 2
distance 2
12@@ 2
palace 2
acquain@@ 2
stomping 2
back@@ 2
Jacques 2
Attorney 2
gli@@ 2
gradu@@ 2
Fatah 2
fields 2
architecture 2
reference 2
hel@@ 2
restricting 2
Polic@@ 2
une 2
unk 2
Germany's 2
exemplary 2
height 2
Forest 2
stron@@ 2
puty 2
commission 2
pra@@ 2
Every@@ 2
quantities 2
sup@@ 2
personally 2
160 2
exception 2
economies 2
cane 2
alities 2
ir 2
euthanasia 2
sof@@ 2
fin@@ 2
smoke 2
humili@@ 2
formul@@ 2
warded 2
classi@@ 2
80% 2
practices 2
protocol 2
sentence 2
wrong@@ 2
sporting 2
new@@ 2
identify 2
candidate 2
dict@@ 2
wanting 2
deal 2
Nobody 2
hal@@ 2
amended 2
afternoon 2
project's 2
lows 2
220 2
strengthening 2
covers 2
Jumaane 2
ens@@ 2
digital 2
Lisette 2
dies 2
diet 2
transfers 2
inger@@ 2
weekend 2
cham@@ 2
sharp@@ 2
profits 2
unding 2
21st 2
depend 2
JCR 2
Be@@ 2
1991 2
Plus 2
to-@@ 2
bright 2
reci@@ 2
high-profile 2
eating 2
progra@@ 2
tas@@ 2
Times 2
suggestion 2
common@@ 2
licensing 2
everybody 2
pers 2
ood 2
escap@@ 2
fly 2
soul 2
deceased 2
ke@@ 2
council 2
Dutch 2
annu@@ 2
chemical 2
till 2
tile 2
storyt@@ 2
CERN 2
stimul@@ 2
influ@@ 2
differs 2
thank 2
ens 2
ours 2
burdening 2
honest@@ 2
Stone 2
lag 2
advance 2
underwear 2
Baku 2
cheese 2
sound@@ 2
apathy 2
aven@@ 2
participated 2
speaking 2
allegedly 2
undoubtedly 2
19 2
18 2
gathering 2
voices 2
spar@@ 2
Rem@@ 2
imag@@ 2
Pushkinskaya-10 2
20% 2
crow@@ 2
shop 2
shot 2
legalization 2
nearly 2
entation 2
stupid 2
audited 2
wonder 2
registering 2
settl@@ 2
reading 2
infrastructure 2
parent 2
parental 2
legitimacy 2
restric@@ 2
killing 2
tum 2
Each 2
tour 2
venues 2
exhibits 2
ately 2
capable 2
represent@@ 2
residence 2
cancelled 2
characteristics 2
sleeping 2
everyday 2
bags 2
doctor 2
thly 2
Barcelona 2
totally 2
fem@@ 2
objection 2
Ar@@ 2
cru@@ 2
aspect 2
pot@@ 2
Econom@@ 2
7@@ 2
server 2
alternates 2
aci@@ 2
moderate 2
hur@@ 2
island 2
practical 2
hang@@ 2
imitates 2
labelling 2
cons@@ 2
passports 2
Castle 2
consist@@ 2
romantic 2
fill 2
tedious 2
drivers 2
0th 2
Ladya 2
tackle 2
driving 2
sewer 2
crimin@@ 2
resembles 2
represent 2
forget 2
forbidden 2
Shirali 2
Man@@ 2
reluctant 2
emp@@ 2
purchas@@ 2
oun@@ 2
returning 2
Auth@@ 2
20th 2
colli@@ 2
archae@@ 2
733-kilometre 2
stood 2
ences 2
Fagernes 2
5000 2
promising 2
operating 2
copycats 2
asts 2
suffoc@@ 2
none 2
den 2
abandon 2
limit@@ 2
minimum 2
numbers 2
purchased 2
stic 2
Plibersek 2
uprising 2
questi@@ 2
blood 2
response 2
harsh 2
toughening 2
wishes 2
infant 2
handic@@ 2
26 2
insist@@ 2
isation 2
NASA's 2
mental 2
ided 2
acu@@ 2
acting 2
pping 2
pleasant 2
reparations 2
copper 2
dons 2
Officers 2
instances 2
-bom@@ 2
180 2
kov 2
muscles 2
Language 2
doctors 2
surve@@ 2
supposed 2
interactive 2
k-@@ 2
ager 2
orders 2
Ukrainian 2
lifts 2
eggs 2
depths 2
carefully 2
ferred 2
Thanksgiving 2
courage 2
remove 2
tender 2
tex@@ 2
inv@@ 2
rid@@ 2
prosecuting 2
newborn 2
asserted 2
creativity 2
Gilles 2
gap 2
rying 2
bill 2
cents 2
facade 2
saline 2
aches 2
regulate 2
Orlic@@ 2
currencies 2
dge 2
wheelchairs 2
def@@ 2
signalled 2
secon@@ 2
hated 2
deliberately 2
Did 2
Management 2
Gulf 2
dat@@ 2
mid@@ 2
pes 2
connecting 2
commentator 2
continuing 2
O 2
hostages 2
Moreover 2
30% 2
ounce 2
infected 2
enligh@@ 2
crip@@ 2
directed 2
neys 2
well-known 2
Perhaps 2
nam@@ 2
elled 2
explaining 2
depriv@@ 2
wards 2
notion 2
2003 2
2000 2
system@@ 2
literary 2
helps 2
shock 2
bers 2
Cesar 2
Didier 2
exac@@ 2
3D 2
bom@@ 2
tigh@@ 2
assisted 2
exercise 2
32 2
implement 2
composed 2
itted 2
FC 2
decrease 2
Devoir 2
aff@@ 2
Liberec 2
batter@@ 2
disabilities 2
mixture 2
native 2
chil@@ 2
spi@@ 2
Yu 2
minist@@ 2
collection 2
subsequently 2
institutional 2
industries 2
bridges 2
stances 2
rail@@ 2
mandate 2
turn-out 2
ts' 2
bloo@@ 2
and@@ 2
gener@@ 2
lect@@ 2
chicken 2
allied 2
retail 2
facilitate 2
reaches 2
sto@@ 2
fron@@ 2
Anti-Corruption 2
completed 2
nobody 2
oph@@ 2
frequ@@ 2
expres@@ 2
apparently 2
oning 2
provoked 2
Siberia 2
Without 2
enses 2
ig@@ 2
reti@@ 2
supporter 2
regularly 2
ered 2
exceptional 2
Smith 2
aforementioned 2
teams 2
136 2
stor@@ 2
Aurora 2
nebula 2
stipul@@ 2
democra@@ 2
joke 2
equal 2
attributed 2
Ha@@ 2
laugh 2
copied 2
assert 2
finished 2
ap 2
promoter 2
IT 2
cereals 2
partner 2
regression 2
lege's 2
amendments 2
consequ@@ 2
Order 2
disappears 2
oops 2
sets 2
comparisons 2
creators 2
emb@@ 2
rup@@ 2
ads 2
YouTube 2
add 2
ade 2
smart 2
resolved 2
judiciary 2
chick 2
Muslimov 2
hair 2
cast@@ 2
ess 2
assuming 2
occasi@@ 2
petty 2
Temperatures 2
Igor 2
Japan 2
introduced 2
functional 2
billions 2
Jesus' 2
Mountains 2
legends 2
Wall 2
wish 2
Don@@ 2
recounts 2
pig 2
mbing 2
eper 2
46 2
45 2
u 2
loop@@ 2
Private 2
tic@@ 2
feeding 2
crises 2
lau@@ 2
whatsoever 2
GU 2
rise 2
encounter 2
André 2
provi@@ 2
tactile 2
supplies 2
stopping 2
represented 2
distur@@ 2
property 2
luggage 2
leaves 2
unds 2
Pre@@ 2
kno@@ 2
Mar@@ 2
contac@@ 2
Tens 2
hospital 2
discrepancies 2
Municipality 2
estate 2
county's 2
charging 2
my@@ 2
enter 2
thesis 2
40% 2
Hero 2
Spain 2
tourist 2
prevented 2
rental 2
lasting 2
prohibit 2
practising 2
Corpus 2
Via 2
inexpensive 2
ail@@ 2
researcher 2
encouraging 2
bitcoin 2
confirming 2
percentage 2
murder 2
tool 2
serve 2
Si@@ 2
thy 2
roles 2
company's 2
1964 2
1965 2
1960 2
essly 2
degener@@ 2
plenty 2
dru@@ 2
prevails 2
flow 2
9@@ 2
bait 2
radio 2
solutions 2
Big 2
Netherlands 2
Mediterranean 2
tation 2
clean@@ 2
detection 2
vic@@ 2
re-thick 2
Tourists 2
Makarov 2
discovery 2
improve 2
faced 2
fault 2
impac@@ 2
cir@@ 2
trust 2
bureaucratic 2
journal@@ 2
transatlantic 2
ysi@@ 2
wered 2
ambass@@ 2
90% 2
ic@@ 2
cycle 2
wat@@ 2
ough@@ 2
proposed 2
shorthand 2
Resear@@ 2
ell 2
bewil@@ 2
bands 2
Taking 2
advanced 2
stra@@ 2
hunt 2
White 2
proudly 2
tho@@ 2
captiv@@ 2
tutorial 2
SCC 2
Ha 2
fl@@ 2
permitted 2
plug 2
dinner 2
class 2
stuck 2
medium 2
removed 2
portions 2
his/her 2
Poland's 2
latch 2
uro@@ 2
picture 2
football 2
ESA 2
ESO 2
cop@@ 2
Dan 2
promoting 2
propos@@ 2
sponsors 2
artwork 2
cook 2
longevity 2
Liber@@ 2
stering 2
ambi@@ 2
replac@@ 2
port 2
Red 2
stands 2
contracted 2
diseased 2
goes 2
entertain 2
thirty 2
ple 2
som@@ 2
Justice 2
bribery 2
upheld 2
sessions 2
insights 2
Media 2
parliamentary 2
hat@@ 2
fourth 2
speaks 2
Valery 2
Fortress 2
tories 2
Jesenik 2
separ@@ 2
platform 2
Using 2
qualified 2
feature 2
poll's 2
opera 2
er-@@ 2
hesit@@ 2
flesh 2
bal@@ 2
obscurantism 2
Security 2
reconci@@ 2
motion 2
Pl@@ 2
vet@@ 2
symbolic 2
ial 2
Such 2
wrongdoing 2
cope 2
Hispanic 2
sers 2
Caucasus 2
Caucasi@@ 2
amateur 2
coal 2
tour@@ 2
ell@@ 2
Czechs 2
essen@@ 2
thre@@ 2
wood 2
lighted 2
Louis 2
African-@@ 2
clowns 2
predicted 2
murdered 2
discussing 2
ables 2
suffer 2
commu@@ 2
opening 2
amed 2
million@@ 2
acquiring 2
22 2
tum@@ 2
ign@@ 2
pilot 2
sol@@ 2
pionship 2
granted 2
hau@@ 2
shor@@ 2
reminder 2
appar@@ 2
II 2
Dream 2
vowed 2
Herod 2
you@@ 2
sequ@@ 2
ne 2
violent 2
announcement 2
super@@ 2
vious 2
except 2
ass@@ 2
inflation 2
accepted 2
holi@@ 2
dismis@@ 2
recalls 2
ear@@ 2
mood 2
lif@@ 2
Appian 2
Bundestag 2
ok 2
discussed 2
os 2
communication 2
rock@@ 2
mist@@ 2
accounts 2
strict 2
regard 2
cin@@ 2
taste 2
spends 2
stumbled 2
deserve 2
post-@@ 2
Ceres 2
decisions 2
Scienti@@ 2
dairy 2
presentation 2
Brno 2
ured 2
song 2
infringement 2
unregulated 2
ures 2
awful 2
ticket 2
volun@@ 2
flu@@ 2
grandfather 2
fearful 2
Carlo 2
tea 2
Nor@@ 2
version 2
bracel@@ 2
guns 2
Mohammed 2
behaviour 2
gir@@ 2
tragedy 2
allows 2
suddenly 2
Things 2
2000s 2
Too 2
minor 2
flat 2
Poliakov 2
Al@@ 2
stick 2
Cervenohor@@ 2
plagiarist 2
challenging 2
protects 2
pond 2
offspring 2
Z@@ 2
Ex@@ 2
orbits 2
concentrating 2
Mu@@ 2
disabled 2
March 2
Stefan 2
soccer 2
communities 2
rum@@ 2
debacle 2
Larson 2
organiser 2
inflated 2
alcohol 2
dead@@ 2
exclu@@ 2
liter@@ 2
Blanc 2
linking 2
interact 2
announ@@ 2
coll@@ 2
option 2
optical 2
Nevsky 2
convinced 2
've 2
outstanding 2
strengthen 2
kling 2
dedic@@ 2
alike 2
Koran 2
finding 2
populous 2
architects 2
cigarette 2
seasons 2
79 2
dealers 2
institutions 2
grotesque 2
gui@@ 2
ied 2
landscap@@ 2
wrote 2
ars 2
unsure 2
arily 2
ark 2
arm 2
oversee 2
incomes 2
strategy 2
tuzem@@ 2
plants 2
engineers 2
Italy 2
aged 2
firearms 2
advise 2
negotiate 2
fermented 2
Almost 2
depending 2
stating 2
continent 2
exclusively 2
associations 2
constitutions 2
estim@@ 2
Definitely 2
ignore 2
ali@@ 2
resur@@ 2
seller 2
ries 2
refused 2
interven@@ 2
cautious 2
traffick@@ 2
11% 2
Everything 2
sports 2
sequence 2
sections 2
sou@@ 2
succumbed 2
filed 2
Europe@@ 2
lifespan 2
ands 2
Westerners 2
warning 2
fore@@ 2
gu@@ 2
rar@@ 2
allowing 2
Based 2
eds 2
seized 2
organizations 2
eding 2
sensation 2
universities 2
man's 2
Freeman 2
log@@ 2
tan@@ 2
suggests 2
fri@@ 2
scales 2
fee 2
stream 2
sort 2
Land 2
Choir 2
desig@@ 2
performed 2
united 2
sit 2
struggles 2
well@@ 2
attend 2
ethnic 2
Bo@@ 2
six-@@ 2
13% 2
permanent 2
pending 2
lam@@ 2
tance 2
fled 2
88 2
lobbied 2
80 2
81 2
respects 2
ath@@ 2
Gone 2
conversation 2
8@@ 2
embryo 2
proposing 2
unknown 2
doomed 2
wish@@ 2
cosmonauts 2
angle 2
Science 2
metropolitan 2
Actions 2
goals 2
agreed 2
planning 2
debate 2
cha@@ 2
oned 2
brain 2
pover@@ 2
Experts 2
blush@@ 2
requirement 2
acquired 2
all@@ 2
closer 2
dle 2
tically 2
job 2
demonstrate 2
grounds 2
fon@@ 2
mel@@ 2
decent 2
Mendez 2
scre@@ 2
painted 2
abandoned 2
é 2
hand-@@ 2
wild 2
cing 2
cross 2
itting 2
gets 2
Okamura 2
slave 2
conceived 2
beast 2
Represent@@ 2
acks 2
realised 2
dically 2
Far 2
Jordan 2
discuss 2
identical 2
Jaffa 2
protesters 2
Planck 2
Within 2
smoothly 2
searching 2
platforms 2
growth 2
mity 2
Rothschild 2
Salaf@@ 2
throne 2
musici@@ 2
Telnice 2
mb@@ 2
weather 2
convicted 2
val 2
transfer 2
intention 2
propag@@ 2
Champions 2
rem@@ 2
contradictory 2
Following 2
toil@@ 2
Barack 2
Tel 2
ruling 2
therwise 2
ew 2
sick 2
conclusion 2
Bu@@ 2
Mursi's 2
Neza 2
sash 2
curren@@ 1
Thatcher@@ 1
sation 1
100-300 1
Ronald 1
Leli@@ 1
US-DEU 1
Oslo 1
27% 1
Hradec 1
270 1
elegant 1
273 1
ymous 1
lus@@ 1
commun@@ 1
Stephanie 1
program@@ 1
Audi 1
Toler@@ 1
auxili@@ 1
interpre@@ 1
jurisdic@@ 1
compet@@ 1
90 1
Gogos 1
Luna 1
id@@ 1
Perspectives 1
-garde 1
La 1
reduc@@ 1
dd@@ 1
Blo@@ 1
Attention 1
predic@@ 1
Do@@ 1
kon@@ 1
Longe@@ 1
guit@@ 1
Lo@@ 1
curi@@ 1
need@@ 1
descen@@ 1
alem@@ 1
lon@@ 1
inal 1
loc@@ 1
schina 1
Fragile 1
Volvo 1
Holocau@@ 1
Qu@@ 1
11@@ 1
environ@@ 1
independ@@ 1
auth@@ 1
ru 1
Gustaw 1
ha 1
IRTTF 1
ath 1
171 1
contribu@@ 1
Screenshot 1
Czech@@ 1
juni@@ 1
Rivière-des-Prairies 1
Chicago 1
esto 1
ests 1
miniatur@@ 1
emer@@ 1
Gabriel 1
post@@ 1
com/fr/mens-health/prostate-cancer-screening 1
Mor@@ 1
refer@@ 1
tenden@@ 1
697 1
698 1
nis@@ 1
Spr@@ 1
Stra@@ 1
sligh@@ 1
vill@@ 1
rectal 1
asis 1
erg@@ 1
bt@@ 1
I/34 1
iry 1
atec 1
Charbonneau 1
Cengemiran 1
war's 1
spora@@ 1
requ@@ 1
ater 1
Aynak 1
25% 1
arist@@ 1
performan@@ 1
invent@@ 1
nar@@ 1
conflic@@ 1
distra@@ 1
Puerto 1
prin@@ 1
incre@@ 1
Angeles 1
appro@@ 1
autom@@ 1
Heba 1
Organiz@@ 1
ham 1
han 1
celeb@@ 1
what@@ 1
spr@@ 1
Steven 1
Pentagon 1
ole 1
tinent 1
305 1
Nicholson 1
Thiago 1
liar 1
27@@ 1
sor 1
expi@@ 1
Whirl@@ 1
autocra@@ 1
$@@ 1
000-@@ 1
internati@@ 1
Terror@@ 1
15% 1
persecu@@ 1
symbo@@ 1
Lorenco@@ 1
ped@@ 1
liz@@ 1
colum@@ 1
indolent 1
oslov@@ 1
yers 1
refriger@@ 1
ective 1
gun@@ 1
stum@@ 1
Antonia 1
chem@@ 1
faci@@ 1
refi@@ 1
Webb 1
fer@@ 1
ains 1
MS 1
psycholog@@ 1
mak@@ 1
opping 1
repeti@@ 1
plo@@ 1
gl@@ 1
Hob@@ 1
Iris 1
BBC@@ 1
nas@@ 1
Jimmy 1
neigh@@ 1
modific@@ 1
manif@@ 1
logos 1
Meteor-2H 1
235 1
230 1
Hunza 1
spati@@ 1
Islam 1
FYROM 1
negoti@@ 1
administ@@ 1
brut@@ 1
Deutsche 1
EOHR 1
legitim@@ 1
I-502 1
Lesotho 1
fil@@ 1
igu@@ 1
Jon 1
ples 1
diplom@@ 1
non@@ 1
transpor@@ 1
Monet 1
CZK 1
Nijrab 1
esman 1
ond 1
any@@ 1
Monereau 1
echn@@ 1
rival 1
pho@@ 1
stly 1
aller 1
sal 1
Al 1
alled 1
1@@ 1
Coo@@ 1
chers 1
Telesco@@ 1
tom@@ 1
imit@@ 1
bew@@ 1
persever@@ 1
Pr@@ 1
hockey 1
Juarez 1
18@@ 1
codi@@ 1
Manchester 1
vertical 1
dome 1
ouse 1
rou@@ 1
Griboyedov 1
venir 1
ativ@@ 1
ening 1
join@@ 1
dep@@ 1
lead@@ 1
conci@@ 1
Iron 1
domin@@ 1
tting 1
furi@@ 1
Botswana 1
Daniel 1
yrami@@ 1
luci@@ 1
instrument 1
£@@ 1
dary 1
custo@@ 1
lowing 1
power@@ 1
atch 1
Chil@@ 1
Weizmann 1
caus@@ 1
tious 1
Dec@@ 1
motiv@@ 1
zanne 1
atives 1
Mozambique 1
host@@ 1
esses 1
infil@@ 1
NL 1
hes 1
len@@ 1
Harry 1
creas 1
ado@@ 1
Doradczo-Naukowy 1
jargon 1
suf@@ 1
Scott 1
Sing@@ 1
Soci@@ 1
int@@ 1
tru@@ 1
Street 1
Hafez 1
ris@@ 1
guar@@ 1
Mieczyslaw 1
agenci@@ 1
appointment 1
ro 1
determin@@ 1
ading 1
civili@@ 1
invol@@ 1
sau@@ 1
eia 1
ect's 1
Pepsi 1
chan@@ 1
Lauren 1
Poten@@ 1
benef@@ 1
vie 1
monot@@ 1
vil 1
omni@@ 1
renov@@ 1
85% 1
1600-2040 1
Ci@@ 1
demogra@@ 1
ational 1
mitte@@ 1
426 1
Xindl 1
Sup@@ 1
plant 1
SSD 1
trig@@ 1
Transatlantic 1
Netanjah@@ 1
decor@@ 1
recep@@ 1
profes@@ 1
Regres@@ 1
Chaled 1
Yugoslav 1
homosexu@@ 1
Rockefeller 1
rises 1
Tachov 1
Surdin 1
st-@@ 1
milit@@ 1
purch@@ 1
Heydar 1
phem@@ 1
Plamondon 1
xis 1
aves 1
Svetlana 1
Dumont 1
Cul@@ 1
ecumen@@ 1
Putzmeister 1
Vashem 1
Alexander 1
tives 1
produc@@ 1
Nakamoto 1
Club 1
Kyoto 1
pap@@ 1
insk@@ 1
thermom@@ 1
impec@@ 1
ulc@@ 1
Honduras 1
Imbongis 1
anim@@ 1
golf 1
Alan 1
dimen@@ 1
follow@@ 1
Chantal 1
Reed 1
60-100 1
coun@@ 1
derly 1
vention 1
emas 1
Fox 1
Des@@ 1
migration 1
moun@@ 1
Song 1
spo@@ 1
ill@@ 1
lem 1
Fast@@ 1
hierarch@@ 1
tangible 1
compu@@ 1
lock@@ 1
acted 1
Nobel 1
Shamir 1
dden 1
lei@@ 1
trav@@ 1
weden 1
repe@@ 1
S80 1
Intelligence 1
Miss 1
th's 1
Av@@ 1
Bal@@ 1
futur@@ 1
Estim@@ 1
aug@@ 1
caric@@ 1
Likud 1
Marteau 1
defin@@ 1
stim@@ 1
multi@@ 1
human@@ 1
198@@ 1
Marina 1
toler@@ 1
ug@@ 1
Palomar 1
Oh 1
formal 1
ie@@ 1
broad@@ 1
irresistible 1
Frank 1
bil@@ 1
Antonio 1
impris@@ 1
judic@@ 1
Pack 1
princ@@ 1
identific@@ 1
tioned 1
Videl@@ 1
destri@@ 1
Young 1
Russi@@ 1
CT@@ 1
Gucci 1
considerable 1
they@@ 1
ue 1
chao 1
Glas@@ 1
Manhattan 1
US-@@ 1
1859 1
robots 1
Astronautyczne 1
absor@@ 1
Nob@@ 1
Woodrow 1
analy@@ 1
dig@@ 1
McAllister 1
Mesopotamia 1
wheel@@ 1
eve 1
Vyso@@ 1
Seattle 1
reluc@@ 1
periodi@@ 1
empl@@ 1
residents 1
Spijken@@ 1
Lacoste 1
33% 1
istics 1
Samar@@ 1
Surobi 1
mend 1
tough@@ 1
retor@@ 1
Library 1
ette 1
Emo@@ 1
Fo@@ 1
revel@@ 1
singular 1
mark@@ 1
ester@@ 1
coli@@ 1
Jan@@ 1
polis 1
Vkontakte 1
flexi@@ 1
poli@@ 1
banal 1
-1C 1
-1B 1
omnipotent 1
Very 1
apor@@ 1
repu@@ 1
Vi@@ 1
techni@@ 1
Sarajevo 1
450 1
tot@@ 1
Ca@@ 1
traf@@ 1
bles 1
Mikhailov 1
vered 1
exc@@ 1
beam@@ 1
fif@@ 1
diar@@ 1
Zodwa 1
happ@@ 1
Demonstra@@ 1
ficus 1
bis@@ 1
cke 1
Montpellier 1
cky 1
sand@@ 1
geri@@ 1
terminal 1
tape 1
Ezulweni 1
sit@@ 1
Unicef 1
pel@@ 1
Komitet 1
studi@@ 1
Ermenegildo 1
ileg@@ 1
ition 1
C 1
professi@@ 1
compar@@ 1
Meteor-3 1
Meteor-1 1
ocean@@ 1
resem@@ 1
Irinea 1
tt@@ 1
ete 1
emotherap@@ 1
Prot@@ 1
co 1
Syphilis 1
rus@@ 1
Righ@@ 1
Navarrette 1
resear@@ 1
PSI 1
Tigres 1
ffers 1
Austro-H@@ 1
mom@@ 1
va 1
lush 1
tenor 1
decad@@ 1
ball 1
Unengaged 1
ebo@@ 1
kin@@ 1
diabetes 1
euthan@@ 1
Ri@@ 1
xes 1
wed 1
pin@@ 1
Stalin@@ 1
mus@@ 1
cens@@ 1
chic@@ 1
econom@@ 1
indi@@ 1
practi@@ 1
pack@@ 1
sle@@ 1
empi@@ 1
Dome 1
tou@@ 1
trag@@ 1
lung 1
physici@@ 1
Weld 1
Atom@@ 1
signi@@ 1
Welt 1
ye@@ 1
ussions 1
correc@@ 1
ologi@@ 1
plant@@ 1
dur@@ 1
statistic@@ 1
arro@@ 1
vie@@ 1
terror@@ 1
Schn@@ 1
47% 1
concer@@ 1
torway 1
rural 1
cial 1
cit@@ 1
sta@@ 1
Watch 1
Qum@@ 1
Surprenant 1
imagin@@ 1
vertheless 1
ches 1
Claude 1
percent@@ 1
gri@@ 1
chen 1
filtration 1
CE@@ 1
+ 1
toll 1
liament 1
Homo 1
lleg@@ 1
shel@@ 1
tradem@@ 1
unbe@@ 1
centur@@ 1
Stas 1
lac@@ 1
sushi 1
hist@@ 1
increas@@ 1
1990 1
genitalis 1
1997 1
era 1
ern 1
Op@@ 1
Ralph 1
f-@@ 1
Abu 1
docu@@ 1
Journal 1
lah 1
Beh@@ 1
lay 1
arch 1
indic@@ 1
eri@@ 1
Delegation 1
Cimic 1
mayor 1
moratori@@ 1
ref@@ 1
tained 1
Control 1
intel@@ 1
Irina 1
Springsteen 1
Napoleon 1
Wessing 1
veto 1
tial 1
unter@@ 1
Cambridge 1
Morris 1
Depression 1
inger 1
40th 1
5-10 1
Er@@ 1
unroman@@ 1
evol@@ 1
melan@@ 1
cour@@ 1
honor@@ 1
Montérégie 1
Bond 1
Hosni 1
position@@ 1
Bar@@ 1
facto 1
Hali@@ 1
validi@@ 1
dermatitis 1
nor@@ 1
Hizbul@@ 1
jurispru@@ 1
417 1
ems 1
repl@@ 1
bra@@ 1
rat@@ 1
Malawi 1
atus 1
lamin@@ 1
biot@@ 1
Dorit 1
convertible 1
millimet@@ 1
wy 1
quick@@ 1
Norwegi@@ 1
woblock@@ 1
Sec@@ 1
Direc@@ 1
arch@@ 1
Hernandez 1
Arkin 1
flexible 1
Lipperhey 1
c'est 1
Worcester 1
ain 1
epis@@ 1
1810 1
demonstration 1
Ir@@ 1
Tran@@ 1
hang 1
palpable 1
1608 1
1978 1
1975 1
1971 1
1970 1
musical 1
Pete 1
redi@@ 1
Petr 1
Sabet 1
histor@@ 1
aran 1
53% 1
cura 1
irregulari@@ 1
termin@@ 1
refu@@ 1
Gran 1
Daimler 1
waf@@ 1
formidable 1
legaliz@@ 1
gall@@ 1
trum 1
gal@@ 1
Olomou@@ 1
Sovi@@ 1
ffiti 1
muscular 1
ant@@ 1
Mubar@@ 1
33@@ 1
dispu@@ 1
describe 1
Gaz@@ 1
photogra@@ 1
Chicken 1
dance 1
sor@@ 1
Cassiopeia 1
zone 1
ju@@ 1
Palma 1
a's 1
evoc@@ 1
alg@@ 1
Leningrad 1
fragile 1
ain@@ 1
ault 1
verb@@ 1
introduc@@ 1
Rico 1
propor@@ 1
Fort 1
Vitam@@ 1
appears 1
Cynthia 1
Refer@@ 1
INF 1
430 1
Avigdor 1
inly 1
ational@@ 1
ot@@ 1
F 1
Mount 1
lea@@ 1
holo@@ 1
artefac@@ 1
Valentina 1
posing 1
In@@ 1
Deschamp@@ 1
Christi@@ 1
Is@@ 1
iPhones 1
ght 1
duc@@ 1
Radim 1
aked 1
ular 1
sam@@ 1
Satur@@ 1
R6 1
Modigliani 1
salv@@ 1
1954 1
1957 1
1951 1
Visit@@ 1
nou 1
1958 1
onable 1
kers 1
cip@@ 1
em 1
ec 1
ron@@ 1
obe@@ 1
quare 1
homo@@ 1
Izadi 1
Plynojem 1
51% 1
510 1
valu@@ 1
lag@@ 1
/her 1
popul@@ 1
Hans 1
$14 1
configu@@ 1
Fogelman 1
admit@@ 1
veteran 1
Holmquist 1
Sum@@ 1
Pak@@ 1
comple@@ 1
boy@@ 1
5-@@ 1
sible 1
Reuters 1
tment 1
AI@@ 1
utes 1
Laissez 1
orith@@ 1
mercur@@ 1
tegration 1
Renoir 1
mov@@ 1
Lieberman 1
analog@@ 1
Tu@@ 1
mond 1
count@@ 1
Clairefontaine 1
bekistan 1
care@@ 1
publi@@ 1
eir 1
eit 1
Reagan 1
48@@ 1
contro@@ 1
polic@@ 1
Al-@@ 1
Fre@@ 1
hier@@ 1
loy@@ 1
77 1
train@@ 1
speed 1
sal@@ 1
verse 1
glob@@ 1
Subotowicz 1
Palestini@@ 1
irman 1
son@@ 1
Mark 1
Golgotha 1
appe@@ 1
premi@@ 1
hepatitis 1
beau@@ 1
El-Baradei 1
exerci@@ 1
1936 1
1934 1
atten@@ 1
Comp@@ 1
Pil@@ 1
Adi 1
mit@@ 1
specific@@ 1
disco@@ 1
dorado 1
uch@@ 1
Fac@@ 1
archi@@ 1
haw@@ 1
Ferdinand 1
hr@@ 1
lig@@ 1
jour@@ 1
estab@@ 1
Lu@@ 1
Mswati 1
Las 1
monopol@@ 1
Pissarro 1
fiscal 1
$35 1
tak@@ 1
abst@@ 1
duty-free 1
hable 1
adow 1
timis@@ 1
Pilata 1
Akko 1
acter@@ 1
Pestov 1
STUDEO 1
Nottingham 1
ass 1
suggest@@ 1
Al-Azhar 1
gether 1
contempor@@ 1
Evening 1
Pattlo@@ 1
Meteorologiczna 1
Nec@@ 1
Victor 1
Ne@@ 1
shoul@@ 1
instruc@@ 1
Faire 1
Normandeau 1
Studeo 1
depl@@ 1
SA 1
Binyamin 1
arti@@ 1
Zarankiewicz 1
Falk 1
Ros@@ 1
tries 1
Clowns 1
horizontal 1
Matisse 1
countr@@ 1
Illinois 1
acqui@@ 1
olation 1
ym 1
enfor@@ 1
wareh@@ 1
Avant@@ 1
Ali@@ 1
hon@@ 1
sition 1
woul@@ 1
educ@@ 1
adays 1
e-ma@@ 1
extre@@ 1
ador@@ 1
hadi@@ 1
discre@@ 1
ior 1
ash 1
Kevin 1
ules 1
surro@@ 1
1871 1
gor@@ 1
station 1
Caf@@ 1
rank@@ 1
subj@@ 1
ste 1
impersonal 1
Hel@@ 1
Murdoch 1
lip 1
archa@@ 1
Galileo 1
Dis@@ 1
Galilei 1
Kentucky 1
Chagall 1
ego@@ 1
resol@@ 1
Fin@@ 1
jung@@ 1
Fried 1
Redmond 1
1917 1
ambival@@ 1
secut@@ 1
Breivik 1
I/43 1
Pompei@@ 1
Deschamps 1
Miroslaw 1
prim@@ 1
beh@@ 1
Vakhtang 1
var@@ 1
n-@@ 1
bear@@ 1
probable 1
acknowled@@ 1
Sany 1
centr@@ 1
critici@@ 1
Morayef 1
jah@@ 1
Televi@@ 1
Was 1
itulation 1
Sab@@ 1
Taco 1
Rakieta 1
uss@@ 1
Ltd 1
dol@@ 1
sili@@ 1
Gre@@ 1
Luke 1
Vdovin 1
Vino@@ 1
indestructi@@ 1
Fas@@ 1
spra@@ 1
Afghan@@ 1
Bernard 1
76% 1
buted 1
satisf@@ 1
dies@@ 1
agon@@ 1
anony@@ 1
gressman 1
Han@@ 1
zip@@ 1
rug 1
inhabit@@ 1
Cherill 1
atum 1
Taylor 1
sni@@ 1
Galil@@ 1
block 1
Towarzystwo 1
Norman 1
promis@@ 1
Binocular 1
1899 1
Tolib 1
A6 1
Bohemiaticket 1
ecz@@ 1
maxim@@ 1
ecu@@ 1
ased 1
Mexicanos 1
applic@@ 1
kilometre 1
Award 1
every@@ 1
tici@@ 1
Legal 1
5@@ 1
Sandra 1
radi@@ 1
May@@ 1
Jaroslav 1
pper@@ 1
aining 1
Muni@@ 1
Tequila 1
fest@@ 1
bas@@ 1
revit@@ 1
erb@@ 1
Washington@@ 1
ques 1
worl@@ 1
inclu@@ 1
pain@@ 1
tim@@ 1
wis@@ 1
comparis@@ 1
poin@@ 1
list@@ 1
Luxem@@ 1
compatrio@@ 1
links 1
Prada 1
Thor-Juergen 1
piti@@ 1
Ob@@ 1
ici@@ 1
Hy@@ 1
ller 1
sy@@ 1
lled 1
cle@@ 1
Wilson 1
poc@@ 1
Dev@@ 1
ser@@ 1
Tur@@ 1
| 1
Trutnov 1
Calgary 1
wich 1
ece 1
Haifa 1
consecu@@ 1
aqu@@ 1
ay@@ 1
tangi@@ 1
seudonym 1
lishing 1
wait@@ 1
occu@@ 1
Bet@@ 1
R 1
tezuma 1
trou@@ 1
leis@@ 1
Oval 1
Savitskaya 1
xist@@ 1
Richard 1
pressive 1
alo@@ 1
Rol@@ 1
instrument@@ 1
Such@@ 1
autics 1
ocratic 1
ati@@ 1
kovnipoplatky 1
eg@@ 1
SC@@ 1
Al-Qaeda 1
Gro@@ 1
urt 1
ury 1
portra@@ 1
Galax@@ 1
thritis 1
120 1
122 1
torpe@@ 1
Cau@@ 1
lue 1
tens 1
McIntyre 1
ken 1
entr@@ 1
muni@@ 1
Cooke 1
hits 1
situ@@ 1
ous@@ 1
Fur@@ 1
efully 1
Kne@@ 1
29@@ 1
sin@@ 1
asser@@ 1
Livingston 1
Ralli 1
Bullingdon 1
arm@@ 1
Pushkin 1
http 1
Rodin 1
1-1 1
Sen@@ 1
instinc@@ 1
42 1
iz@@ 1
sources 1
imes 1
imed 1
loss 1
England 1
//ca 1
Canadi@@ 1
cer@@ 1
criteri@@ 1
ellers 1
bitcoincharts 1
Pahlavi 1
Leavenworth 1
Br@@ 1
monopoli@@ 1
vac@@ 1
61@@ 1
found@@ 1
Vegas 1
Nezahualcoyotl 1
Basha 1
ear 1
Knesset 1
il-@@ 1
isse@@ 1
Rom@@ 1
Defining 1
M83 1
Welle 1
Brazi@@ 1
Bant@@ 1
Ken 1
gorgonzola 1
deter 1
caper 1
blogs 1
infl@@ 1
Stud@@ 1
Montrose 1
rej@@ 1
strik@@ 1
nat@@ 1
Thomas 1
enorm@@ 1
reforest@@ 1
dogmas 1
pler 1
Lamar 1
eves 1
Col@@ 1
shif@@ 1
10% 1
105 1
sign@@ 1
analysi@@ 1
Wonderland 1
conver@@ 1
Reza 1
lish@@ 1
counts 1
mistak@@ 1
ej@@ 1
ellow 1
lob@@ 1
push@@ 1
ch-@@ 1
flora 1
complain@@ 1
indepen@@ 1
pay@@ 1
eg 1
Pontius 1
Ru@@ 1
agement 1
Mind 1
Wolfke 1
ige@@ 1
public@@ 1
equi@@ 1
Meade 1
pren@@ 1
Ali 1
special@@ 1
War@@ 1
Paytunia 1
aggres@@ 1
Adventure 1
iser 1
divi@@ 1
all-@@ 1
Rostock 1
mear 1
Car@@ 1
o-@@ 1
crucial 1
24% 1
basic@@ 1
245 1
recon@@ 1
urban@@ 1
punc@@ 1
Wendy's 1
ish 1
vin@@ 1
Bol@@ 1
hood 1
Polygam@@ 1
Pu@@ 1
Fren@@ 1
Mesa 1
rele@@ 1
aboli@@ 1
ettes 1
enter@@ 1
pil@@ 1
bureaucra@@ 1
Albert 1
Fak@@ 1
stest 1
scienti@@ 1
scann@@ 1
dom 1
wag@@ 1
Blasio 1
Om'Obani 1
stud@@ 1
Rosstat 1
bar 1
0% 1
ome 1
Thurs@@ 1
380 1
stam@@ 1
Euros 1
edly 1
sleep@@ 1
Aktu@@ 1
abdominal 1
co's 1
SP@@ 1
suc@@ 1
implem@@ 1
V@@ 1
cano 1
ushkadamov 1
im 1
ia 1
ie 1
elly 1
ultim@@ 1
Interkosmos 1
800 1
yes 1
Hermon 1
Hale 1
Polskie 1
unting 1
Roberts 1
vari@@ 1
Arp 1
Art 1
Can@@ 1
Landbou@@ 1
ric@@ 1
character@@ 1
appear@@ 1
0-@@ 1
istan@@ 1
les@@ 1
En@@ 1
cken 1
mess@@ 1
reover 1
30-@@ 1
ffered 1
Yarovaya 1
reig@@ 1
munodefici@@ 1
Joop 1
eth@@ 1
bery 1
berg 1
Jean 1
Z 1
13@@ 1
heri@@ 1
propaganda 1
zon@@ 1
Mayer 1
imp@@ 1
dier 1
hy@@ 1
ari@@ 1
quanti@@ 1
pros 1
ay's 1
Umed 1
gement 1
eff@@ 1
charac@@ 1
stran@@ 1
LHC 1
secre@@ 1
1995 1
din 1
1996 1
me@@ 1
dit 1
chann@@ 1
adverti@@ 1
pose@@ 1
alto 1
boy 1
mortis 1
zo@@ 1
Star@@ 1
monarch@@ 1
suspen@@ 1
harmon@@ 1
SETI 1
Marcotte 1
hear@@ 1
bited 1
ull 1
ids 1
chec@@ 1
ostraci@@ 1
Tut@@ 1
ping 1
Ilham 1
mas 1
142 1
143 1
140 1
conc@@ 1
14% 1
mad 1
Yale 1
mal 1
Educ@@ 1
Manat 1
beit 1
Pinos 1
gangr@@ 1
Lan@@ 1
miles 1
amigos 1
ster@@ 1
exu@@ 1
Ble@@ 1
ungst@@ 1
liberal@@ 1
afel 1
Yad 1
Meteor-1C 1
Meteor-1B 1
Post 1
Americ@@ 1
13 1
1% 1
venture 1
Bilkent 1
Khanyisile 1
DF 1
imon 1
D5 1
rating 1
We@@ 1
gen 1
W5 1
neg@@ 1
passen@@ 1
Grant 1
seas 1
Grand 1
ency 1
person@@ 1
implic@@ 1
laz@@ 1
Silva 1
Troyes 1
sensible 1
0@@ 1
heu@@ 1
arre@@ 1
ycl@@ 1
Marshall 1
humanit@@ 1
n't 1
Aqu@@ 1
Avenue 1
constru@@ 1
Wood 1
Incre@@ 1
Jazz 1
JWST 1
sci@@ 1
197@@ 1
Quanti@@ 1
Cha@@ 1
Jasser 1
peration 1
gangs 1
enem@@ 1
TO 1
Sh@@ 1
target@@ 1
mos 1
lishments 1
olog@@ 1
nutri@@ 1
Poho@@ 1
colonial 1
childr@@ 1
Gogo 1
Mes 1
candidiasis 1
reta@@ 1
yi@@ 1
provisional 1
lands 1
ning@@ 1
artifici@@ 1
relativ@@ 1
ember 1
waii@@ 1
fal@@ 1
Satoshi 1
Kh@@ 1
Hyundai 1
fund-rais@@ 1
brandy 1
ko@@ 1
pis@@ 1
bankovnipoplatky 1
Van 1
Wi@@ 1
tern@@ 1
zing 1
La@@ 1
conven@@ 1
Vie@@ 1
Pommier 1
extern@@ 1
enced 1
defi@@ 1
Ban@@ 1
abstrac@@ 1
Bizarre 1
iron@@ 1
buses 1
atro@@ 1
Zampino 1
org@@ 1
Picasso 1
Accurso 1
ital 1
itan 1
CLSA 1
victori@@ 1
sphere 1
attitu@@ 1
initi@@ 1
Sharipov 1
impl@@ 1
Sophie 1
kil@@ 1
sat@@ 1
rifles 1
radar 1
industrial 1
cket 1
Texas 1
incid@@ 1
29 1
Esnault-Pelterie 1
Ce@@ 1
rank 1
pul@@ 1
Hmmm 1
suppor@@ 1
cture 1
bility 1
TCM-@@ 1
Val@@ 1
ach@@ 1
arden 1
El 1
extraordin@@ 1
rium 1
fire 1
18% 1
Lapointe 1
ze 1
188 1
Hispan@@ 1
Shahram 1
acher 1
tob@@ 1
Pike 1
Rolls-Royce 1
To@@ 1
Brodeur 1
Common 1
aspi@@ 1
infin@@ 1
spok@@ 1
Compu@@ 1
Mc@@ 1
gest@@ 1
Mercur@@ 1
no-@@ 1
Chaos 1
ber@@ 1
orient@@ 1
Sep@@ 1
Savard 1
Senora 1
inspi@@ 1
colo@@ 1
amni@@ 1
epheus 1
bile 1
College 1
infec@@ 1
Eleven 1
Tanya 1
Hautzinger 1
less@@ 1
Ashden 1
sapiens 1
topogra@@ 1
Western@@ 1
cros@@ 1
arrest@@ 1
orial 1
wage 1
Vicente 1
equ@@ 1
cus 1
Ju@@ 1
cat@@ 1
temp@@ 1
confor@@ 1
rela@@ 1
wer@@ 1
pen 1
tially 1
Regi@@ 1
David 1
Elsie 1
Bob 1
subst@@ 1
inaugu@@ 1
Jude@@ 1
pared 1
PT@@ 1
Hage 1
Psycholog@@ 1
Books 1
Web@@ 1
A's 1
eller 1
Eber@@ 1
tiz@@ 1
irts 1
Maj 1
Extremely 1
Dakuan 1
prag@@ 1
Argu@@ 1
Perseus 1
An@@ 1
Ac@@ 1
Ornest 1
emis@@ 1
Iris@@ 1
2005 1
metro@@ 1
Tom@@ 1
insi@@ 1
terri@@ 1
Fast 1
rivers 1
oblig@@ 1
444 1
plan@@ 1
39 1
37 1
36 1
35 1
demo@@ 1
3% 1
lun@@ 1
RM-1 1
RM-2 1
Ft 1
che 1
Dali 1
asteroid 1
Inst@@ 1
yester@@ 1
nim@@ 1
Sm@@ 1
parquet 1
fermi@@ 1
dri@@ 1
coordin@@ 1
desper@@ 1
aff 1
feta 1
profile 1
Bundesrechnungshof 1
rupul@@ 1
igarette 1
Le@@ 1
curv@@ 1
la 1
Incheba 1
Porto 1
dal 1
dam 1
atis@@ 1
collabor@@ 1
Gary 1
res 1
echnologies 1
ree 1
que 1
Alexis 1
Senator 1
Anatolia 1
str@@ 1
-S@@ 1
Kiribati 1
Lincoln 1
Bordeaux 1
rhoea 1
Rotter@@ 1
amb@@ 1
Goodman 1
versi@@ 1
attra@@ 1
X@@ 1
dition 1
Airways 1
Arafjon 1
parks 1
323 1
vocates 1
Mari@@ 1
Cent@@ 1
sac@@ 1
Ji@@ 1
Ret@@ 1
onal@@ 1
ble@@ 1
tac@@ 1
sour@@ 1
Illustratosphere 1
strac@@ 1
Bright 1
Wikipedia 1
bon@@ 1
mathem@@ 1
bos@@ 1
Pluto 1
kosher 1
visit@@ 1
eleg@@ 1
serv@@ 1
kpks 1
seg@@ 1
qui@@ 1
ah 1
Hadron 1
Center 1
Larionov 1
xi@@ 1
Netanjahu 1
46% 1
declar@@ 1
Bill 1
anci@@ 1
Imperial 1
veri@@ 1
utor 1
Marcus 1
intermedi@@ 1
Liter@@ 1
aking 1
fix@@ 1
ignor@@ 1
dn't 1
anti@@ 1
azis 1
ady 1
280 1
bec@@ 1
flan@@ 1
Petersbur@@ 1
realist@@ 1
Anders 1
soft 1
eig@@ 1
Fi@@ 1
year@@ 1
contri@@ 1
Huffington 1
Sonntag 1
RM-1A 1
ander 1
Gérald 1
1986 1
1980 1
1988 1
four@@ 1
je@@ 1
Vachnadze 1
condu@@ 1
Paroubek 1
natur@@ 1
48 1
41 1
Ashar 1
Makelele 1
85 1
deb@@ 1
Hanno 1
port@@ 1
Janu@@ 1
rehabilit@@ 1
dern 1
complic@@ 1
hypo@@ 1
lab@@ 1
venue 1
Explo@@ 1
artill@@ 1
astero@@ 1
Lesni@@ 1
prest@@ 1
Aksenova 1
sung 1
tab@@ 1
pen@@ 1
Abo@@ 1
mort@@ 1
Support 1
Depen@@ 1
Blouet 1
week@@ 1
ma 1
Toohey 1
Gut@@ 1
Muhammad 1
ene 1
consci@@ 1
laration 1
III 1
Laurent 1
Paymium 1
Im@@ 1
Yorker 1
moment@@ 1
adolescent@@ 1
vity 1
Ther@@ 1
sidi@@ 1
cle 1
Inter@@ 1
Vaillancourt 1
Noah 1
Senat@@ 1
gan@@ 1
heredi@@ 1
subsequ@@ 1
Andromeda 1
fat@@ 1
precipit@@ 1
Nept@@ 1
Norte 1
rone@@ 1
-year-@@ 1
RM-34 1
Rouleau 1
prof@@ 1
Academy 1
grad@@ 1
Search 1
western 1
atmosp@@ 1
organis@@ 1
1973 1
ral 1
Parma 1
nec@@ 1
anthrop@@ 1
1968 1
1969 1
1966 1
1967 1
1963 1
tradi@@ 1
genital 1
omal@@ 1
atori@@ 1
Laval 1
mes@@ 1
cardin@@ 1
curr@@ 1
ben@@ 1
fen@@ 1
voys 1
expan@@ 1
Bad 1
té 1
Movember 1
leg@@ 1
Ariane@@ 1
concent@@ 1
strength@@ 1
Po@@ 1
manufactur@@ 1
muz 1
prev@@ 1
Bango 1
wear 1
Emb@@ 1
Diabe@@ 1
uz@@ 1
ud@@ 1
Marlboro 1
Philip 1
n 1
detect@@ 1
Andrian 1
Studi@@ 1
depen@@ 1
real@@ 1
entre@@ 1
twi@@ 1
Brian 1
fli@@ 1
BitTorrent 1
Reform 1
onchitis 1
Rembrandt 1
I'@@ 1
57 1
52 1
55 1
5% 1
bli@@ 1
za@@ 1
Sisley 1
aying 1
cord 1
essor 1
en't 1
Madison 1
Cer@@ 1
cowboy 1
tori@@ 1
rigor 1
Sard@@ 1
Best 1
Hong 1
integ@@ 1
Hydro@@ 1
Ami@@ 1
BRH 1
restrial 1
mean@@ 1
ni 1
serts 1
Prada-Kny 1
ich 1
KLP 1
1805 1
1800 1
sen@@ 1
blas@@ 1
sten@@ 1
Superb 1
Getz 1
plau@@ 1
1948 1
1947 1
alit@@ 1
kle 1
trifidus 1
ampions 1
Jana 1
Bruce 1
culp@@ 1
Moun@@ 1
Beloeil 1
Hitler 1
chi@@ 1
Said 1
1st 1
Import 1
herpes 1
san@@ 1
web@@ 1
norm@@ 1
geni@@ 1
Time 1
Carav@@ 1
hummus 1
ular@@ 1
viol@@ 1
Rychnov 1
Bioeth@@ 1
Terms 1
Coinabul 1
Massada 1
caf@@ 1
jug@@ 1
Energ@@ 1
multin@@ 1
Volvo-@@ 1
Habsbur@@ 1
eit@@ 1
Fort@@ 1
eses 1
investig@@ 1
wom@@ 1
Augusta 1
tern 1
Patrik 1
Montréal 1
Contest 1
UGC 1
lie@@ 1
Felipe 1
Coun@@ 1
impro@@ 1
Sun@@ 1
1000 1
Bathiche 1
Stark 1
con 1
uld 1
Farid 1
feb@@ 1
Rotterdam@@ 1
plastic 1
Secon@@ 1
bir@@ 1
ang 1
mod@@ 1
falls 1
JFK 1
ner 1
assist@@ 1
Dominic@@ 1
block@@ 1
Kong 1
Denise 1
1925 1
1929 1
Su@@ 1
24 1
unately 1
cent@@ 1
radic@@ 1
prob@@ 1
mill@@ 1
pot 1
pon 1
poo 1
62 1
65 1
68 1
69 1
50% 1
Amschel 1
fis@@ 1
connec@@ 1
astas@@ 1
corpor@@ 1
Hamdin 1
great@@ 1
Burger 1
Fedorenkov 1
olo@@ 1
Psychological 1
diagno@@ 1
tro@@ 1
Extraterrestrial 1
cy@@ 1
pru@@ 1
Arecibo 1
ross 1
Camp 1
Solomon 1
Rubaba 1
o-N@@ 1
ported 1
chom@@ 1
Play@@ 1
ultraviol@@ 1
od 1
Kazimierz 1
ow 1
ot 1
ufactur@@ 1
ard 1
Petronella 1
igaret@@ 1
Assad 1
plend@@ 1
Britain's 1
soprano 1
Lu-Gucci 1
tribun@@ 1
Subaru 1
incapaci@@ 1
internationale 1
twen@@ 1
Ankara 1
ige 1
finale 1
Telescopio 1
by@@ 1
Bashar 1
ilar 1
ali 1
peri@@ 1
inia 1
identi@@ 1
BMW 1
lites 1
Israel@@ 1
tel 1
Palest@@ 1
cultur@@ 1
Eton 1
sus 1
genoci@@ 1
gig@@ 1
progno@@ 1
1849 1
1848 1
prosper@@ 1
Spe@@ 1
Whe@@ 1
ough 1
shu@@ 1
1907 1
1905 1
1902 1
Canarias 1
é@@ 1
croqu@@ 1
Charest 1
Karzai 1
Shanghai 1
definition 1
Sabbahi 1
adv@@ 1
esper@@ 1
proc@@ 1
grim@@ 1
convinc@@ 1
Exper@@ 1
unity 1
ut-@@ 1
tel@@ 1
alter 1
L 1
gue 1
play@@ 1
Honza 1
Protest@@ 1
feder@@ 1
Samuel 1
chol@@ 1
Anal@@ 1
che@@ 1
betra@@ 1
movember 1
fallen 1
tural 1
sias@@ 1
hotel 1
oni@@ 1
transi@@ 1
und@@ 1
Australi@@ 1
cura@@ 1
Indi@@ 1
7% 1
cab@@ 1
77% 1
75 1
get@@ 1
Hermaszewski 1
pum@@ 1
Sub@@ 1
vit@@ 1
ief 1
hip 1
Mugimzadeh 1
transpar@@ 1
Begin@@ 1
Ocean's 1
Cannabis 1
fall@@ 1
matic 1
Begovaya 1
urch 1
pt 1
ph 1
Miloslav 1
1865 1
Chic@@ 1
Fadden 1
member@@ 1
flag@@ 1
rid 1
Zi@@ 1
Mokrzyck@@ 1
Nation 1
My@@ 1
comb@@ 1
Commun@@ 1
pac@@ 1
675 1
Diaspora 1
Guelph 1
pagan 1
ost@@ 1
disp@@ 1
ried 1
Fund 1
Mingpai 1
Particle 1
puties 1
Ron 1
kl@@ 1
Gri@@ 1
Calder@@ 1
fiz@@ 1
Pavel 1
Anthony 1
resh@@ 1
glamour 1
wns 1
pron@@ 1
fice 1
z 1
proper@@ 1
problem@@ 1
Plu@@ 1
ext 1
nice 1
ather 1
ges@@ 1
Migrant 1
Bohemi@@ 1
pr@@ 1
ague 1
rani@@ 1
P 1
Unaids 1
ce@@ 1
instru@@ 1
lumin@@ 1
Bion 1
Maryland 1
Zion 1
rep@@ 1
Lino 1
Lind 1
e-tap 1
Nikol@@ 1
Andes 1
prec@@ 1
reds 1
compan@@ 1
motor 1
& 1
ices 1
ust 1
chip 1
Fle@@ 1
imprin@@ 1
Uz@@ 1
tap 1
tal 1
surge 1
sis 1
Leb@@ 1
sic 1
sia 1
Fiete 1
tin@@ 1
sin 1
Mohammad 1
centi@@ 1
distribu@@ 1
extravag@@ 1
nati@@ 1
destru@@ 1
WordPress 1
bap@@ 1
Hélène 1
137 1
four-@@ 1
superior 1
dget 1
89 1
Junction 1
Baby 1
quic@@ 1
Indonesia 1
Kri@@ 1
perfect@@ 1
Mun@@ 1
Specialities 1
echo 1
65% 1
Heli@@ 1
justi@@ 1
Constitu@@ 1
Halvarsen 1
Lively 1
Peter 1
Diego 1
ymposi@@ 1
Bri@@ 1
eter 1
= 1
adequ@@ 1
Mercedes 1
Abraham 1
lev@@ 1
Turkmenistan 1
tures 1
Chemical 1
tured 1
ghts 1
onel 1
99% 1
colle@@ 1
inclin@@ 1
ex-@@ 1
qh 1
Collider 1
Hirsch 1
Armad@@ 1
eby 1
Roho@@ 1
joy 1
37@@ 1
tvar@@ 1
discipl@@ 1
presid@@ 1
extremi@@ 1
stamp@@ 1
ell-@@ 1
tipp@@ 1
charts 1
733 1
736 1
him@@ 1
avy 1
ave 1
Hopf 1
Becky 1
Tymczasowy 1
sidents 1
Au@@ 1
lobby 1
ultra@@ 1
stand@@ 1
rement 1
Dolorosa 1
Lesbiens 1
Bogarde 1
sim@@ 1
impor@@ 1
oes 1
clos@@ 1
lan@@ 1
presume 1
Labor@@ 1
miner@@ 1
bad@@ 1
10@@ 1
Chinaski 1
119 1
118 1
Dlamini 1
rapi@@ 1
Saint-Etienne 1
inking 1
mite 1
ean@@ 1
Pty 1
agre@@ 1
wal@@ 1
uti@@ 1
Guadalajara 1
Wel@@ 1
Stern@@ 1
ev 1
'll 1
diplomas 1
boom 1
album 1
pumps 1
Hon@@ 1
ah@@ 1
I/13 1
